{
  "version": "1.0",
  "truncation": null,
  "padding": null,
  "added_tokens": [
    {
      "id": 0,
      "content": "[PAD]",
      "single_word": false,
      "lstrip": false,
      "rstrip": false,
      "normalized": false,
      "special": true
    },
    {
      "id": 1,
      "content": "[UNK]",
      "single_word": false,
      "lstrip": false,
      "rstrip": false,
      "normalized": false,
      "special": true
    },
    {
      "id": 2,
      "content": "[BOS]",
      "single_word": false,
      "lstrip": false,
      "rstrip": false,
      "normalized": false,
      "special": true
    },
    {
      "id": 3,
      "content": "[EOS]",
      "single_word": false,
      "lstrip": false,
      "rstrip": false,
      "normalized": false,
      "special": true
    }
  ],
  "normalizer": {
    "type": "Sequence",
    "normalizers": [
      {
        "type": "NFKC"
      }
    ]
  },
  "pre_tokenizer": {
    "type": "ByteLevel",
    "add_prefix_space": true,
    "trim_offsets": true,
    "use_regex": true
  },
  "post_processor": {
    "type": "TemplateProcessing",
    "single": [
      {
        "SpecialToken": {
          "id": "[BOS]",
          "type_id": 0
        }
      },
      {
        "Sequence": {
          "id": "A",
          "type_id": 0
        }
      },
      {
        "SpecialToken": {
          "id": "[EOS]",
          "type_id": 0
        }
      }
    ],
    "pair": [
      {
        "Sequence": {
          "id": "A",
          "type_id": 0
        }
      },
      {
        "Sequence": {
          "id": "B",
          "type_id": 1
        }
      }
    ],
    "special_tokens": {
      "[BOS]": {
        "id": "[BOS]",
        "ids": [
          2
        ],
        "tokens": [
          "[BOS]"
        ]
      },
      "[EOS]": {
        "id": "[EOS]",
        "ids": [
          3
        ],
        "tokens": [
          "[EOS]"
        ]
      }
    }
  },
  "decoder": {
    "type": "ByteLevel",
    "add_prefix_space": true,
    "trim_offsets": true,
    "use_regex": true
  },
  "model": {
    "type": "BPE",
    "dropout": null,
    "unk_token": "[UNK]",
    "continuing_subword_prefix": null,
    "end_of_word_suffix": null,
    "fuse_unk": false,
    "byte_fallback": false,
    "ignore_merges": false,
    "vocab": {
      "[PAD]": 0,
      "[UNK]": 1,
      "[BOS]": 2,
      "[EOS]": 3,
      "!": 4,
      "\"": 5,
      "#": 6,
      "$": 7,
      "%": 8,
      "&": 9,
      "'": 10,
      "(": 11,
      ")": 12,
      "*": 13,
      "+": 14,
      ",": 15,
      "-": 16,
      ".": 17,
      "/": 18,
      "0": 19,
      "1": 20,
      "2": 21,
      "3": 22,
      "4": 23,
      "5": 24,
      "6": 25,
      "7": 26,
      "8": 27,
      "9": 28,
      ":": 29,
      ";": 30,
      "<": 31,
      "=": 32,
      ">": 33,
      "?": 34,
      "@": 35,
      "A": 36,
      "B": 37,
      "C": 38,
      "D": 39,
      "E": 40,
      "F": 41,
      "G": 42,
      "H": 43,
      "I": 44,
      "J": 45,
      "K": 46,
      "L": 47,
      "M": 48,
      "N": 49,
      "O": 50,
      "P": 51,
      "Q": 52,
      "R": 53,
      "S": 54,
      "T": 55,
      "U": 56,
      "V": 57,
      "W": 58,
      "X": 59,
      "Y": 60,
      "Z": 61,
      "[": 62,
      "\\": 63,
      "]": 64,
      "^": 65,
      "_": 66,
      "`": 67,
      "a": 68,
      "b": 69,
      "c": 70,
      "d": 71,
      "e": 72,
      "f": 73,
      "g": 74,
      "h": 75,
      "i": 76,
      "j": 77,
      "k": 78,
      "l": 79,
      "m": 80,
      "n": 81,
      "o": 82,
      "p": 83,
      "q": 84,
      "r": 85,
      "s": 86,
      "t": 87,
      "u": 88,
      "v": 89,
      "w": 90,
      "x": 91,
      "y": 92,
      "z": 93,
      "{": 94,
      "|": 95,
      "}": 96,
      "~": 97,
      "¡": 98,
      "¢": 99,
      "£": 100,
      "¤": 101,
      "¥": 102,
      "¦": 103,
      "§": 104,
      "¨": 105,
      "©": 106,
      "ª": 107,
      "«": 108,
      "¬": 109,
      "®": 110,
      "¯": 111,
      "°": 112,
      "±": 113,
      "²": 114,
      "³": 115,
      "´": 116,
      "µ": 117,
      "¶": 118,
      "·": 119,
      "¸": 120,
      "¹": 121,
      "º": 122,
      "»": 123,
      "¼": 124,
      "½": 125,
      "¾": 126,
      "¿": 127,
      "Â": 128,
      "Ã": 129,
      "Ä": 130,
      "Å": 131,
      "Æ": 132,
      "Ç": 133,
      "È": 134,
      "É": 135,
      "Ê": 136,
      "Ë": 137,
      "Ì": 138,
      "Í": 139,
      "Î": 140,
      "Ï": 141,
      "Ð": 142,
      "Ñ": 143,
      "Ò": 144,
      "Ó": 145,
      "Ô": 146,
      "Õ": 147,
      "Ö": 148,
      "×": 149,
      "Ø": 150,
      "Ù": 151,
      "Ú": 152,
      "Û": 153,
      "Ü": 154,
      "Þ": 155,
      "à": 156,
      "á": 157,
      "â": 158,
      "ã": 159,
      "ä": 160,
      "å": 161,
      "æ": 162,
      "ç": 163,
      "è": 164,
      "é": 165,
      "ê": 166,
      "ë": 167,
      "ì": 168,
      "í": 169,
      "î": 170,
      "ï": 171,
      "ð": 172,
      "ó": 173,
      "Ġ": 174,
      "ġ": 175,
      "Ģ": 176,
      "ģ": 177,
      "Ĥ": 178,
      "ĥ": 179,
      "Ħ": 180,
      "ħ": 181,
      "Ĩ": 182,
      "ĩ": 183,
      "Ī": 184,
      "ī": 185,
      "Ĭ": 186,
      "ĭ": 187,
      "Į": 188,
      "į": 189,
      "İ": 190,
      "ı": 191,
      "Ĳ": 192,
      "ĳ": 193,
      "Ĵ": 194,
      "ĵ": 195,
      "Ķ": 196,
      "ķ": 197,
      "ĸ": 198,
      "Ĺ": 199,
      "ĺ": 200,
      "Ļ": 201,
      "ļ": 202,
      "Ľ": 203,
      "ľ": 204,
      "Ŀ": 205,
      "ŀ": 206,
      "Ł": 207,
      "ł": 208,
      "Ń": 209,
      "Ġt": 210,
      "Ġa": 211,
      "he": 212,
      "in": 213,
      "re": 214,
      "Ġthe": 215,
      "on": 216,
      "er": 217,
      "Ġs": 218,
      "Ġw": 219,
      "at": 220,
      "Ġo": 221,
      "en": 222,
      "Ġc": 223,
      "it": 224,
      "is": 225,
      "an": 226,
      "or": 227,
      "Ġb": 228,
      "ed": 229,
      "es": 230,
      "Ġf": 231,
      "ing": 232,
      "Ġp": 233,
      "ou": 234,
      "Ġan": 235,
      "al": 236,
      "Ġto": 237,
      "ar": 238,
      "Ġm": 239,
      "Ġin": 240,
      "Ġof": 241,
      "Ġd": 242,
      "Ġh": 243,
      "as": 244,
      "ic": 245,
      "Ġand": 246,
      "âĢ": 247,
      "Ġth": 248,
      "le": 249,
      "om": 250,
      "ion": 251,
      "ll": 252,
      "ent": 253,
      "ĠT": 254,
      "Ġn": 255,
      "Ġl": 256,
      "Ġre": 257,
      "st": 258,
      "ve": 259,
      "Ġe": 260,
      "ly": 261,
      "Ġbe": 262,
      "ro": 263,
      "Ġg": 264,
      "id": 265,
      "ĠI": 266,
      "ut": 267,
      "ĠS": 268,
      "ac": 269,
      "ot": 270,
      "ĠA": 271,
      "Ġthat": 272,
      "Ġon": 273,
      "ay": 274,
      "Ġis": 275,
      "im": 276,
      "et": 277,
      "am": 278,
      "ad": 279,
      "ow": 280,
      "se": 281,
      "Ġfor": 282,
      "ig": 283,
      "âĢĻ": 284,
      "ĠC": 285,
      "ver": 286,
      "ur": 287,
      "ct": 288,
      "ld": 289,
      "Ġu": 290,
      "Ġst": 291,
      "Ġy": 292,
      "Ġit": 293,
      "ĠM": 294,
      "Ġhe": 295,
      "ir": 296,
      "ation": 297,
      "ĠB": 298,
      "ith": 299,
      "Ġwh": 300,
      "ce": 301,
      "ĠThe": 302,
      "ter": 303,
      "ol": 304,
      "Ġwe": 305,
      "il": 306,
      "Ġwith": 307,
      "ĠâĢ": 308,
      "Ġas": 309,
      "ch": 310,
      "ĠP": 311,
      "ill": 312,
      "ĠW": 313,
      "nd": 314,
      "Ġwas": 315,
      "Ġyou": 316,
      "ers": 317,
      "ke": 318,
      "ĠH": 319,
      "Ġcon": 320,
      "Ġde": 321,
      "Ġr": 322,
      "if": 323,
      "her": 324,
      "ĠD": 325,
      "ate": 326,
      "Ġat": 327,
      "ag": 328,
      "ĠR": 329,
      "Ġha": 330,
      "ĠF": 331,
      "Ġse": 332,
      "ore": 333,
      "Ġpro": 334,
      "ul": 335,
      "Ġ1": 336,
      "pp": 337,
      "ment": 338,
      "Ġare": 339,
      "ri": 340,
      "Ġcom": 341,
      "est": 342,
      "us": 343,
      "and": 344,
      "ist": 345,
      "op": 346,
      "Ġ2": 347,
      "ain": 348,
      "Ġ(": 349,
      "ĠN": 350,
      "igh": 351,
      "rom": 352,
      "th": 353,
      "od": 354,
      "Ġne": 355,
      "ĠG": 356,
      "um": 357,
      "Ġex": 358,
      "un": 359,
      "ĠâĢľ": 360,
      "res": 361,
      "Ġnot": 362,
      "âĢĿ": 363,
      "ab": 364,
      "ĠL": 365,
      "ess": 366,
      "Ġv": 367,
      "ity": 368,
      "Ġhave": 369,
      "ould": 370,
      "Ġor": 371,
      "em": 372,
      "Ġby": 373,
      "ort": 374,
      "os": 375,
      "ant": 376,
      "Ġfrom": 377,
      "ive": 378,
      "Ġal": 379,
      "'s": 380,
      "el": 381,
      "ĠE": 382,
      "oc": 383,
      "Ġsu": 384,
      "art": 385,
      "Ġsh": 386,
      "nt": 387,
      "Ġthis": 388,
      "ĠO": 389,
      "qu": 390,
      "Ġ\"": 391,
      "ight": 392,
      "pe": 393,
      "ust": 394,
      "Ġle": 395,
      "ies": 396,
      "end": 397,
      "Ġch": 398,
      "Ġsa": 399,
      "out": 400,
      "ĠJ": 401,
      "Ġab": 402,
      "all": 403,
      "ie": 404,
      "red": 405,
      "ack": 406,
      "00": 407,
      "ally": 408,
      "Ġhas": 409,
      "Ġpl": 410,
      "Ġgo": 411,
      "ard": 412,
      "ap": 413,
      "ome": 414,
      "iv": 415,
      "Ġhis": 416,
      "gh": 417,
      "ost": 418,
      "our": 419,
      "ear": 420,
      "Ġtr": 421,
      "Ġj": 422,
      "ast": 423,
      "ĠU": 424,
      "ak": 425,
      "ud": 426,
      "Ġwor": 427,
      "Ġdo": 428,
      "Ġthey": 429,
      "Ġbut": 430,
      "rou": 431,
      "Ġcan": 432,
      "Ġwill": 433,
      "ge": 434,
      "Ġwhe": 435,
      "Ġsaid": 436,
      "Ġk": 437,
      "ich": 438,
      "Ġall": 439,
      "ok": 440,
      "ide": 441,
      "Ġwho": 442,
      "Ġint": 443,
      "ame": 444,
      "ther": 445,
      "ans": 446,
      "ial": 447,
      "Ġout": 448,
      "Ġtheir": 449,
      "ff": 450,
      "ĠTh": 451,
      "ice": 452,
      "ong": 453,
      "ect": 454,
      "ĠIn": 455,
      "pl": 456,
      "ure": 457,
      "pt": 458,
      "Ġmore": 459,
      "one": 460,
      "act": 461,
      "Ġme": 462,
      "ike": 463,
      "age": 464,
      "ions": 465,
      "ous": 466,
      "Ġup": 467,
      "ine": 468,
      "Ġad": 469,
      "ĠK": 470,
      "Ġabout": 471,
      "ra": 472,
      "ated": 473,
      "ber": 474,
      "Ġone": 475,
      "Ġso": 476,
      "Ġus": 477,
      "Ġwere": 478,
      "ime": 479,
      "ĠSt": 480,
      "og": 481,
      "Ġhad": 482,
      "are": 483,
      "ep": 484,
      "ub": 485,
      "ia": 486,
      "cc": 487,
      "Ġwould": 488,
      "Ġ20": 489,
      "Ġim": 490,
      "ake": 491,
      "Ġwhich": 492,
      "Ġcl": 493,
      "ind": 494,
      "ue": 495,
      "Ġag": 496,
      "Ġcont": 497,
      "iz": 498,
      "very": 499,
      "Ġte": 500,
      "Ġcomp": 501,
      "Ġoff": 502,
      "Ġen": 503,
      "Ġbeen": 504,
      "Ġun": 505,
      "so": 506,
      "per": 507,
      "au": 508,
      "ary": 509,
      "ign": 510,
      "ace": 511,
      "ip": 512,
      "Ġyear": 513,
      "Ġlike": 514,
      "ven": 515,
      "ew": 516,
      "ere": 517,
      "Ġinc": 518,
      "ĠIt": 519,
      "ays": 520,
      "ook": 521,
      "Ġpe": 522,
      "ry": 523,
      "Ġman": 524,
      "ose": 525,
      "Ġres": 526,
      "Ġper": 527,
      "ite": 528,
      "able": 529,
      "ord": 530,
      "Ġsp": 531,
      "ass": 532,
      "Ġother": 533,
      "ĠY": 534,
      "ire": 535,
      "ile": 536,
      "mer": 537,
      "Ġsome": 538,
      "..": 539,
      "ople": 540,
      "ence": 541,
      "ib": 542,
      "Ġ201": 543,
      "Ġthere": 544,
      "ations": 545,
      "Ġover": 546,
      "ult": 547,
      "ical": 548,
      "ks": 549,
      "ress": 550,
      "int": 551,
      "Ġnew": 552,
      "Ġdis": 553,
      "Ġar": 554,
      "own": 555,
      "ĠCh": 556,
      "Ġbec": 557,
      "Ġthan": 558,
      "Ġalso": 559,
      "ough": 560,
      "ance": 561,
      "Ġthem": 562,
      "ount": 563,
      "ru": 564,
      "Ġapp": 565,
      "Ġwhat": 566,
      "Ġyour": 567,
      "Ġwhen": 568,
      "ail": 569,
      "ree": 570,
      "port": 571,
      "Ġpart": 572,
      "ĠV": 573,
      "Ġpeople": 574,
      "fter": 575,
      "orm": 576,
      "Ġsc": 577,
      "ond": 578,
      "Ġqu": 579,
      "ase": 580,
      "av": 581,
      "Ġjust": 582,
      "Ġany": 583,
      "Ġher": 584,
      "Ġits": 585,
      "Ġkn": 586,
      "Ġtime": 587,
      "ach": 588,
      "Ġ3": 589,
      "Ġmy": 590,
      "Ġrec": 591,
      "ĠHe": 592,
      "Ġif": 593,
      "Ġget": 594,
      "lic": 595,
      "reat": 596,
      "ens": 597,
      ".âĢĿ": 598,
      "Ġinto": 599,
      "Ġ-": 600,
      "irst": 601,
      "Ġwork": 602,
      "Ġtw": 603,
      "vel": 604,
      "ian": 605,
      "ound": 606,
      "du": 607,
      "ction": 608,
      "Ġno": 609,
      "ings": 610,
      "ory": 611,
      "Ġour": 612,
      "ident": 613,
      "ition": 614,
      "ick": 615,
      "ors": 616,
      "ob": 617,
      "ang": 618,
      "Ġpre": 619,
      "wn": 620,
      "Ġco": 621,
      "ause": 622,
      "Ġplay": 623,
      "Ġ19": 624,
      "ink": 625,
      "Ġshe": 626,
      "Ġpol": 627,
      "hing": 628,
      "ade": 629,
      "itt": 630,
      "ates": 631,
      "Ġro": 632,
      "ark": 633,
      "amp": 634,
      "vers": 635,
      "ove": 636,
      "Ġafter": 637,
      "Ġfirst": 638,
      ",âĢĿ": 639,
      "Ġcould": 640,
      "ious": 641,
      "Ġhow": 642,
      "Ġhim": 643,
      "ne": 644,
      "nder": 645,
      "aw": 646,
      "Ġacc": 647,
      "'t": 648,
      "ons": 649,
      "ild": 650,
      "Ġpo": 651,
      "ĠWe": 652,
      "Ġfe": 653,
      "Ġonly": 654,
      "hed": 655,
      "Ġpr": 656,
      "Ġatt": 657,
      "ict": 658,
      "Ġtwo": 659,
      "Ġcomm": 660,
      "ĠBut": 661,
      "ish": 662,
      "ov": 663,
      "Ġbl": 664,
      "Ġspe": 665,
      "Ġact": 666,
      ".\"": 667,
      "form": 668,
      "Ġser": 669,
      "ĠWh": 670,
      "we": 671,
      "ĠThis": 672,
      "ft": 673,
      "Ġdec": 674,
      "Ġbet": 675,
      "Ġback": 676,
      "ning": 677,
      "ood": 678,
      "te": 679,
      "ces": 680,
      "Ġmost": 681,
      "Ġ4": 682,
      "ĠâĢĵ": 683,
      "ĠAnd": 684,
      "Ġam": 685,
      "Ġdid": 686,
      "round": 687,
      "ck": 688,
      "oy": 689,
      "ater": 690,
      "iff": 691,
      "rough": 692,
      "Ġagain": 693,
      "Ġdes": 694,
      "ĠâĢĶ": 695,
      "Ġunder": 696,
      "ual": 697,
      "day": 698,
      "Ġ$": 699,
      "Ġwant": 700,
      "sel": 701,
      "ise": 702,
      "rit": 703,
      "Ġcons": 704,
      "Ġnow": 705,
      "lud": 706,
      "Ġbecause": 707,
      "ull": 708,
      "ĠUn": 709,
      "ents": 710,
      "ublic": 711,
      "iss": 712,
      "Ġeven": 713,
      "Ġyears": 714,
      "tern": 715,
      "man": 716,
      "Ġneed": 717,
      "Ġknow": 718,
      "Ġinv": 719,
      "ec": 720,
      "Ġsee": 721,
      "Ġind": 722,
      "ced": 723,
      "ĠAs": 724,
      "Ġ5": 725,
      ",\"": 726,
      "ments": 727,
      "Ġadd": 728,
      "old": 729,
      "Ġsec": 730,
      "fore": 731,
      "uch": 732,
      "Ġevery": 733,
      "urn": 734,
      "pect": 735,
      "Ġem": 736,
      "Ġmake": 737,
      "ock": 738,
      "Ġsupp": 739,
      "Ġ[": 740,
      "Ġthese": 741,
      "oll": 742,
      "vern": 743,
      "ational": 744,
      "Ġwhere": 745,
      "ject": 746,
      "ĠTr": 747,
      "xt": 748,
      "Ġlook": 749,
      "Ġbu": 750,
      "oss": 751,
      "Ġdon": 752,
      "row": 753,
      "Ġway": 754,
      "ating": 755,
      "Ġev": 756,
      "Ġbeing": 757,
      "Ġright": 758,
      "Ġmay": 759,
      "Ġcall": 760,
      "Ġthen": 761,
      "ily": 762,
      "Ġmany": 763,
      "Ġrem": 764,
      "Ġdiff": 765,
      "lect": 766,
      "ied": 767,
      "ump": 768,
      "ased": 769,
      "ason": 770,
      "Ġdef": 771,
      "Ġinclud": 772,
      "Ġrel": 773,
      "ng": 774,
      "Ġreg": 775,
      "Ġfl": 776,
      "iew": 777,
      "Ġthink": 778,
      "ont": 779,
      "meric": 780,
      "Ġimp": 781,
      "ath": 782,
      "aking": 783,
      "ited": 784,
      "Ġsy": 785,
      "rib": 786,
      "Ġthrough": 787,
      "The": 788,
      "Ġpres": 789,
      "Ġshould": 790,
      "Ġsay": 791,
      "les": 792,
      ").": 793,
      "Ġvery": 794,
      "ower": 795,
      "Ġlast": 796,
      "Ġthose": 797,
      "Ġmuch": 798,
      "uring": 799,
      "ell": 800,
      "other": 801,
      "ty": 802,
      "ities": 803,
      "ics": 804,
      "Ġstate": 805,
      "Ġ200": 806,
      "ative": 807,
      "Ġph": 808,
      "Ġshow": 809,
      "ĠNew": 810,
      "get": 811,
      "ved": 812,
      "oth": 813,
      "hen": 814,
      "Ġown": 815,
      "ific": 816,
      "und": 817,
      "Ġwell": 818,
      "Ġcount": 819,
      "Ġdoes": 820,
      "ĠRe": 821,
      "Ġdown": 822,
      "als": 823,
      "Ġend": 824,
      "arly": 825,
      "Ġbr": 826,
      "ting": 827,
      "Ġbel": 828,
      "ĠAmeric": 829,
      "Ġass": 830,
      "ange": 831,
      "Ġuse": 832,
      "Ġgovern": 833,
      "Ġbefore": 834,
      "âĢĶ": 835,
      "ince": 836,
      "ters": 837,
      "ward": 838,
      "Ġlong": 839,
      "omet": 840,
      "Ġmon": 841,
      "gr": 842,
      "),": 843,
      "Ġreport": 844,
      "up": 845,
      "ible": 846,
      "Ġstart": 847,
      "Ġke": 848,
      "ues": 849,
      "ife": 850,
      "ble": 851,
      "oun": 852,
      "ts": 853,
      "olog": 854,
      "Ġmade": 855,
      "Ġfin": 856,
      "ĠAl": 857,
      "Ġsuch": 858,
      "ener": 859,
      "Ġgoing": 860,
      "Ġsm": 861,
      "ix": 862,
      "Ġteam": 863,
      "ually": 864,
      "ism": 865,
      "ĠYou": 866,
      "erson": 867,
      "Ġworld": 868,
      "Ġ6": 869,
      "ists": 870,
      "ful": 871,
      "tain": 872,
      "Ġhel": 873,
      "Ġstud": 874,
      "its": 875,
      "ek": 876,
      "ility": 877,
      "ren": 878,
      "Ġac": 879,
      "Ġgood": 880,
      "Ġsur": 881,
      "Ġeff": 882,
      "Ġent": 883,
      "com": 884,
      "Ġset": 885,
      "Ġgame": 886,
      "Ġagainst": 887,
      "ys": 888,
      "Ġsub": 889,
      "ars": 890,
      "ork": 891,
      "ax": 892,
      "...": 893,
      "Ġgu": 894,
      "stem": 895,
      "ĠIf": 896,
      "gan": 897,
      "ank": 898,
      "imes": 899,
      "roup": 900,
      "Ġlead": 901,
      "Ġmin": 902,
      "Ġpoint": 903,
      "Ġwhile": 904,
      "Ġstill": 905,
      "alk": 906,
      "Ġgr": 907,
      "Ġhelp": 908,
      "ms": 909,
      "ving": 910,
      "Ġprodu": 911,
      "ween": 912,
      "ier": 913,
      "illion": 914,
      "Ġsays": 915,
      "cy": 916,
      "000": 917,
      "Ġstr": 918,
      "Ġinter": 919,
      "self": 920,
      "Ġcr": 921,
      "Ġinst": 922,
      "Ġsim": 923,
      "Ġconf": 924,
      "Ġchar": 925,
      "Ġob": 926,
      "ool": 927,
      "ĠFor": 928,
      "Ġtake": 929,
      "cess": 930,
      "Ġthough": 931,
      "Ġoffic": 932,
      "Ġcol": 933,
      "Ġlaw": 934,
      "io": 935,
      "Ġed": 936,
      "Ġsame": 937,
      "land": 938,
      "ah": 939,
      "Ġdiffere": 940,
      "read": 941,
      "air": 942,
      "Ġdisc": 943,
      "Ġbetween": 944,
      "ution": 945,
      "ures": 946,
      "ĠLe": 947,
      "Ġop": 948,
      "Ġgovernment": 949,
      "ever": 950,
      "Ġprov": 951,
      "Ġhigh": 952,
      "ĠSh": 953,
      "ollow": 954,
      "way": 955,
      "Ġnum": 956,
      "hes": 957,
      "arch": 958,
      "ner": 959,
      "uss": 960,
      "led": 961,
      "ĠAr": 962,
      "Ġter": 963,
      "ĠThey": 964,
      "atch": 965,
      "ĠDe": 966,
      "ĠCom": 967,
      "Ġsign": 968,
      "Ġsomet": 969,
      "cent": 970,
      "Ġ10": 971,
      ".[": 972,
      "--": 973,
      "ĠAn": 974,
      "Ġins": 975,
      "velop": 976,
      "ros": 977,
      "any": 978,
      "ames": 979,
      "Ġref": 980,
      "Ġaround": 981,
      "gg": 982,
      "Ġmem": 983,
      "hip": 984,
      "Ġtrans": 985,
      "Ġreal": 986,
      "ĠIs": 987,
      "Ġ7": 988,
      "Ġthree": 989,
      "ave": 990,
      "Ġmed": 991,
      "Ġfound": 992,
      "az": 993,
      "Ġsystem": 994,
      "ves": 995,
      "Ġexp": 996,
      "ather": 997,
      "Ġcour": 998,
      "ives": 999,
      "Ġhere": 1000,
      "ci": 1001,
      "Ġused": 1002,
      "cer": 1003,
      "cept": 1004,
      "ouse": 1005,
      "Ġrun": 1006,
      "Ġgroup": 1007,
      "Ġreally": 1008,
      "ale": 1009,
      "oot": 1010,
      "Ġpublic": 1011,
      "Ġhand": 1012,
      "Ġsupport": 1013,
      "ĠThat": 1014,
      "con": 1015,
      "Ġspec": 1016,
      "Ġmod": 1017,
      "Ġret": 1018,
      "ĠThere": 1019,
      "ĠTrump": 1020,
      "ĠSe": 1021,
      "ins": 1022,
      "Ġgreat": 1023,
      "Ġcar": 1024,
      "Ġext": 1025,
      "ying": 1026,
      "Ġsl": 1027,
      "pr": 1028,
      "ph": 1029,
      "ĠCl": 1030,
      "Ġcur": 1031,
      "Ġfact": 1032,
      "Ġhapp": 1033,
      "Ġfam": 1034,
      "alth": 1035,
      "Ġ'": 1036,
      "Ġexper": 1037,
      "irect": 1038,
      "Ġcap": 1039,
      "ense": 1040,
      "ton": 1041,
      "Ġ8": 1042,
      "Ġday": 1043,
      "Ġboth": 1044,
      "ines": 1045,
      "Ġdet": 1046,
      "Ġfind": 1047,
      "uth": 1048,
      "Ġfr": 1049,
      "Ġread": 1050,
      "Ġwom": 1051,
      "ices": 1052,
      "ular": 1053,
      "ered": 1054,
      "Ġrep": 1055,
      "Ġcre": 1056,
      "ivers": 1057,
      "Ġduring": 1058,
      "Ġmonth": 1059,
      "oh": 1060,
      "Ġtold": 1061,
      "min": 1062,
      "ĠSo": 1063,
      "Ġiss": 1064,
      "Ġperson": 1065,
      "Ġdevelop": 1066,
      "ision": 1067,
      "med": 1068,
      "ĠOn": 1069,
      "iet": 1070,
      "Ġsince": 1071,
      "Ġlar": 1072,
      "ically": 1073,
      "ared": 1074,
      "Ġ9": 1075,
      "Ġbig": 1076,
      "ages": 1077,
      "Ġfollow": 1078,
      "akes": 1079,
      "Ġwar": 1080,
      "aj": 1081,
      "ef": 1082,
      "Ġfew": 1083,
      "ording": 1084,
      "ĠFr": 1085,
      "Ġweek": 1086,
      "Ġleg": 1087,
      "Ġcent": 1088,
      "Ġpolit": 1089,
      "att": 1090,
      "Ġrequ": 1091,
      "ĠAd": 1092,
      "Ġlot": 1093,
      "chool": 1094,
      "Ġbelie": 1095,
      "Ġcontin": 1096,
      "Ġexpl": 1097,
      "Ġtoo": 1098,
      "der": 1099,
      "ash": 1100,
      "Ġgener": 1101,
      "anc": 1102,
      "Ġfil": 1103,
      "rent": 1104,
      "ĠHow": 1105,
      "Ġcle": 1106,
      "ets": 1107,
      "ness": 1108,
      "Ġput": 1109,
      "bers": 1110,
      "ata": 1111,
      "Ġsomething": 1112,
      "Ġresp": 1113,
      "Ġprot": 1114,
      "Ġcor": 1115,
      "ized": 1116,
      "ĠAt": 1117,
      "ention": 1118,
      "Ġopp": 1119,
      "ric": 1120,
      "Ġloc": 1121,
      "Ġdifferent": 1122,
      "Ġinvest": 1123,
      "Ġplan": 1124,
      "Ġsoc": 1125,
      "ex": 1126,
      "ger": 1127,
      "ĠâĢĺ": 1128,
      "Ġdep": 1129,
      "ĠPro": 1130,
      "Ġthings": 1131,
      "Ġcommun": 1132,
      "Ġinf": 1133,
      "Ġanother": 1134,
      "Ġche": 1135,
      "Ġpower": 1136,
      "Ġlife": 1137,
      "ute": 1138,
      "thing": 1139,
      "Ġposs": 1140,
      "erest": 1141,
      "Ġfar": 1142,
      "Ġ0": 1143,
      "ience": 1144,
      "Ġask": 1145,
      "ik": 1146,
      "Ġ.": 1147,
      "Ġhead": 1148,
      "Ġrele": 1149,
      "ned": 1150,
      "Ġpass": 1151,
      "Ġart": 1152,
      "ize": 1153,
      "Ġnever": 1154,
      "the": 1155,
      "ret": 1156,
      "iness": 1157,
      "ody": 1158,
      "Ġcamp": 1159,
      "Ġmight": 1160,
      "ross": 1161,
      "uc": 1162,
      "Ġmet": 1163,
      "ient": 1164,
      "arl": 1165,
      "ants": 1166,
      "Ġeach": 1167,
      "Ġbus": 1168,
      "Ġquest": 1169,
      "Ġbo": 1170,
      "ĠRep": 1171,
      "Ġvot": 1172,
      "view": 1173,
      "ĠUS": 1174,
      "Ġcome": 1175,
      "Ġnext": 1176,
      "ĠBl": 1177,
      "Ġsecond": 1178,
      "Ġdem": 1179,
      "ott": 1180,
      "ittle": 1181,
      "Ġbest": 1182,
      "Ġallow": 1183,
      "Ġopen": 1184,
      "Ġadv": 1185,
      "Ġchild": 1186,
      "Ġmark": 1187,
      "ital": 1188,
      "Ġfeel": 1189,
      "ield": 1190,
      "Ġseem": 1191,
      "ple": 1192,
      "Ġpercent": 1193,
      "ee": 1194,
      "Ġhome": 1195,
      "cl": 1196,
      "istr": 1197,
      "gy": 1198,
      "ug": 1199,
      "Ġincre": 1200,
      "ired": 1201,
      "orn": 1202,
      "Ġdirect": 1203,
      "Ġpri": 1204,
      "son": 1205,
      "Ġpost": 1206,
      "gram": 1207,
      "Ġresult": 1208,
      "ged": 1209,
      "osed": 1210,
      "Ġcontro": 1211,
      "erv": 1212,
      "Ġimport": 1213,
      "less": 1214,
      "Ġwr": 1215,
      "co": 1216,
      "ĠShe": 1217,
      "Ġhum": 1218,
      "Ġwithout": 1219,
      "Ġcomple": 1220,
      "chn": 1221,
      "Ġplace": 1222,
      "Ġincluding": 1223,
      "Ġinform": 1224,
      "Ġcare": 1225,
      "Ġhard": 1226,
      "conom": 1227,
      "Ġav": 1228,
      "ately": 1229,
      "Ġproble": 1230,
      "ama": 1231,
      "20": 1232,
      "Ġbuild": 1233,
      "aim": 1234,
      "Ġgl": 1235,
      "Ġnumber": 1236,
      "riend": 1237,
      "oney": 1238,
      "Ġide": 1239,
      "Ġlet": 1240,
      "Ġel": 1241,
      "Ġcountry": 1242,
      "Ġtop": 1243,
      "Ġstand": 1244,
      "Ġmillion": 1245,
      "ĠInd": 1246,
      "Ġmov": 1247,
      "ral": 1248,
      "ably": 1249,
      "Ġinterest": 1250,
      "ĠPh": 1251,
      "ĠQ": 1252,
      "ways": 1253,
      "ished": 1254,
      "Ġfour": 1255,
      "Ġrecent": 1256,
      "Ġcalled": 1257,
      "Ġless": 1258,
      "Ġgot": 1259,
      "Ġbro": 1260,
      "ĠWhen": 1261,
      "Ġlittle": 1262,
      "app": 1263,
      "Ġtri": 1264,
      "Ġappro": 1265,
      "Ġbetter": 1266,
      "Ġcase": 1267,
      "Ġpartic": 1268,
      "Ġdr": 1269,
      "Ġturn": 1270,
      "ĠZ": 1271,
      "Ġfun": 1272,
      "ĠBe": 1273,
      "Ġseason": 1274,
      "__": 1275,
      "rat": 1276,
      "Ġbeh": 1277,
      "Ġmil": 1278,
      "inal": 1279,
      "line": 1280,
      "We": 1281,
      "ised": 1282,
      "Ġpop": 1283,
      "Ġann": 1284,
      "ina": 1285,
      "ency": 1286,
      "Ġpolice": 1287,
      "Ġdidn": 1288,
      "Ġkeep": 1289,
      "Ġmain": 1290,
      "me": 1291,
      "Ġattack": 1292,
      "Ġrest": 1293,
      "ajor": 1294,
      "Ġmove": 1295,
      "ode": 1296,
      "Ġleft": 1297,
      "ling": 1298,
      "Ġfull": 1299,
      "ĠWhat": 1300,
      "Ġprev": 1301,
      "ature": 1302,
      "ider": 1303,
      "Ġeffect": 1304,
      "Ġserv": 1305,
      "uro": 1306,
      "Ġval": 1307,
      "Ġprogram": 1308,
      "ĠOb": 1309,
      "Ġschool": 1310,
      "Ġeconom": 1311,
      "ĠAmerican": 1312,
      "Ġtest": 1313,
      "Ġusing": 1314,
      "ract": 1315,
      "ology": 1316,
      "Ġwin": 1317,
      "Ġform": 1318,
      "ined": 1319,
      "Ġpay": 1320,
      "Ġnews": 1321,
      "Ġpos": 1322,
      "ready": 1323,
      "Ġdata": 1324,
      "be": 1325,
      "Ġsmall": 1326,
      "ĠCan": 1327,
      "Ġlevel": 1328,
      "ploy": 1329,
      "reen": 1330,
      "iving": 1331,
      "ains": 1332,
      "ten": 1333,
      "uck": 1334,
      "Ġprocess": 1335,
      "ided": 1336,
      "Ġchange": 1337,
      "'re": 1338,
      "nce": 1339,
      "Ġcompany": 1340,
      "ĠUnited": 1341,
      "Ġprom": 1342,
      "Ġpresident": 1343,
      "iversity": 1344,
      "Ġcurrent": 1345,
      "Ġeas": 1346,
      "ĠGo": 1347,
      "ted": 1348,
      "ĠAll": 1349,
      "Ġdri": 1350,
      "Ġmar": 1351,
      "ruct": 1352,
      "Ġlist": 1353,
      "Ġbre": 1354,
      "Ġalready": 1355,
      "Ġmat": 1356,
      "used": 1357,
      "ians": 1358,
      "Ġsol": 1359,
      "orth": 1360,
      "ird": 1361,
      "iver": 1362,
      "Ġunt": 1363,
      "Ġwomen": 1364,
      "Ġty": 1365,
      "10": 1366,
      "rap": 1367,
      "Ġofficial": 1368,
      "to": 1369,
      "Ġlater": 1370,
      "Ġmoney": 1371,
      "Ġrece": 1372,
      "Ġtechn": 1373,
      "ĠChr": 1374,
      "stand": 1375,
      "Ġorgan": 1376,
      "Ġ18": 1377,
      "Ġhist": 1378,
      "Ġalways": 1379,
      "Ġtalk": 1380,
      "Ġexpect": 1381,
      "ases": 1382,
      "Ġwhy": 1383,
      "Ġthing": 1384,
      "Ġ--": 1385,
      "It": 1386,
      "Ġbusiness": 1387,
      "Ġdesign": 1388,
      "aign": 1389,
      "ohn": 1390,
      "Ġclaim": 1391,
      "Ġproject": 1392,
      "Ġclass": 1393,
      "Ġchang": 1394,
      "ĠMar": 1395,
      "Ġmajor": 1396,
      "Ġinformation": 1397,
      "Ġhealth": 1398,
      "aff": 1399,
      "Ġele": 1400,
      "Ġedit": 1401,
      "Ġ=": 1402,
      "Ġstory": 1403,
      "Ġprof": 1404,
      "Ġvis": 1405,
      "Ġjob": 1406,
      "ption": 1407,
      "Ġable": 1408,
      "iven": 1409,
      "ards": 1410,
      "Ġaway": 1411,
      "Ġhappen": 1412,
      "ead": 1413,
      "ĠSc": 1414,
      "Ġbook": 1415,
      "Ġmust": 1416,
      "urs": 1417,
      "ertain": 1418,
      "Ġpast": 1419,
      "Ġsk": 1420,
      "Ġkill": 1421,
      "Ġrese": 1422,
      "Ġvar": 1423,
      "Ġimportant": 1424,
      "here": 1425,
      "Ġfree": 1426,
      "ural": 1427,
      "ĠSp": 1428,
      "ĠMr": 1429,
      "ĠOne": 1430,
      "Ġpat": 1431,
      "ior": 1432,
      "Ġgrow": 1433,
      "wit": 1434,
      "outh": 1435,
      "Ġcost": 1436,
      "ĠPl": 1437,
      "ample": 1438,
      "Ġ12": 1439,
      "ury": 1440,
      "uthor": 1441,
      "Ġcity": 1442,
      "ured": 1443,
      "ending": 1444,
      "ission": 1445,
      "ror": 1446,
      "Ġconst": 1447,
      "urity": 1448,
      "Ġdoesn": 1449,
      "Ġleast": 1450,
      "Ġtax": 1451,
      "Ġoper": 1452,
      "Ġest": 1453,
      "Ġhop": 1454,
      "ĠPres": 1455,
      "Ġstre": 1456,
      "Ġdays": 1457,
      "Ġold": 1458,
      "ern": 1459,
      "Ġaff": 1460,
      "Ġtell": 1461,
      "Ġpolic": 1462,
      "Ġfore": 1463,
      "Ġcampaign": 1464,
      "ĠJohn": 1465,
      "Ġmen": 1466,
      "ron": 1467,
      "ĠTo": 1468,
      "ained": 1469,
      "acy": 1470,
      "Ġlarge": 1471,
      "ides": 1472,
      "ator": 1473,
      "ĠOr": 1474,
      "Ġfriend": 1475,
      "ney": 1476,
      "Ġdist": 1477,
      "Ġ15": 1478,
      "Ġcame": 1479,
      "ĠCon": 1480,
      "Ġenough": 1481,
      "eral": 1482,
      "ĠComm": 1483,
      "Ġmaking": 1484,
      "Ġrecord": 1485,
      "ĠRepublic": 1486,
      "Ġkind": 1487,
      "ush": 1488,
      "ccess": 1489,
      "pped": 1490,
      "Ġfamily": 1491,
      "ox": 1492,
      "Ġsit": 1493,
      "gin": 1494,
      "els": 1495,
      "Ġuntil": 1496,
      "Ġview": 1497,
      "ality": 1498,
      "side": 1499,
      "Ġelect": 1500,
      "Ġvide": 1501,
      "augh": 1502,
      "ified": 1503,
      "ware": 1504,
      "Ġworking": 1505,
      "ĠMay": 1506,
      "ister": 1507,
      "ering": 1508,
      "!!": 1509,
      "ries": 1510,
      "Ġair": 1511,
      "br": 1512,
      "ional": 1513,
      "alf": 1514,
      "Ġpolitical": 1515,
      "ived": 1516,
      "ley": 1517,
      "ued": 1518,
      "bs": 1519,
      "Ġintern": 1520,
      "Ġactually": 1521,
      "Ġbecome": 1522,
      "arent": 1523,
      "ising": 1524,
      "Ġve": 1525,
      "oad": 1526,
      "ĠNo": 1527,
      "tt": 1528,
      "Ġmean": 1529,
      "Ġhuman": 1530,
      "Ġline": 1531,
      "ĠSy": 1532,
      "Ġdeal": 1533,
      "aps": 1534,
      "Ġtook": 1535,
      "Ġdel": 1536,
      "ĠEuro": 1537,
      "ands": 1538,
      "Ġes": 1539,
      "Ġfund": 1540,
      "Ġ199": 1541,
      "iol": 1542,
      "ane": 1543,
      "ĠMc": 1544,
      "ĠDem": 1545,
      "aring": 1546,
      "crib": 1547,
      "Ġwon": 1548,
      "Ġtimes": 1549,
      "ison": 1550,
      "Ġoften": 1551,
      "most": 1552,
      "Ġever": 1553,
      "Ġword": 1554,
      "Ġgive": 1555,
      "Ġorder": 1556,
      "by": 1557,
      "ann": 1558,
      "aining": 1559,
      "Ġaccording": 1560,
      "Ġformer": 1561,
      "Ġname": 1562,
      "ember": 1563,
      "ĠRuss": 1564,
      "Ġla": 1565,
      "ĠPresident": 1566,
      "ocrat": 1567,
      "ony": 1568,
      "ĠWith": 1569,
      "Ġreturn": 1570,
      "Ġ11": 1571,
      "year": 1572,
      "oint": 1573,
      "Ġsever": 1574,
      "Ġdeb": 1575,
      "iber": 1576,
      "work": 1577,
      "Ġgames": 1578,
      "iqu": 1579,
      "Ġbit": 1580,
      "for": 1581,
      "Ġdev": 1582,
      "ges": 1583,
      "ither": 1584,
      "ization": 1585,
      "aken": 1586,
      "ĠAm": 1587,
      "Ġnight": 1588,
      "wh": 1589,
      "Ġdoing": 1590,
      "Ġsing": 1591,
      "Ġcharac": 1592,
      "19": 1593,
      "Ġbas": 1594,
      "Ġhaving": 1595,
      "Ġfac": 1596,
      "idence": 1597,
      "Ġperform": 1598,
      "idd": 1599,
      "Ġmedia": 1600,
      "uture": 1601,
      "icle": 1602,
      "ĠBr": 1603,
      "ĠObama": 1604,
      "Ġlear": 1605,
      "Ġseen": 1606,
      "Ġra": 1607,
      "Ġpress": 1608,
      "Ġocc": 1609,
      "Ġtoday": 1610,
      "Ġsocial": 1611,
      "ched": 1612,
      "Ġmarket": 1613,
      "Ġseveral": 1614,
      "ories": 1615,
      "ots": 1616,
      "Ġevent": 1617,
      "ĠYork": 1618,
      "ĠCol": 1619,
      "ĠAfter": 1620,
      "Ġearly": 1621,
      "ĠTe": 1622,
      "Ġappear": 1623,
      "iously": 1624,
      "mber": 1625,
      "Ġmeet": 1626,
      "Ġcrit": 1627,
      "Ġ/": 1628,
      "Ġlikely": 1629,
      "Ġmembers": 1630,
      "Ġwent": 1631,
      "Th": 1632,
      "Ġsure": 1633,
      "raft": 1634,
      "Ġwater": 1635,
      "Ġquestion": 1636,
      "ĠIm": 1637,
      "lf": 1638,
      "iam": 1639,
      "rop": 1640,
      "ĠEurope": 1641,
      "Ġwhether": 1642,
      "une": 1643,
      "Ġmilit": 1644,
      "Ġprop": 1645,
      "Ġequ": 1646,
      "Ġfive": 1647,
      "artment": 1648,
      "Ġplayers": 1649,
      "Ġside": 1650,
      "Ġyoung": 1651,
      "ubl": 1652,
      "ene": 1653,
      "ium": 1654,
      "Ġcontrol": 1655,
      "sh": 1656,
      "Ġcertain": 1657,
      "Ġshort": 1658,
      "Ġvers": 1659,
      "ĠStates": 1660,
      "inc": 1661,
      "Ġhour": 1662,
      "ĠEx": 1663,
      "Ġexample": 1664,
      "Ġinvol": 1665,
      "ended": 1666,
      "Ġchildren": 1667,
      "50": 1668,
      "Ġeng": 1669,
      "ĠNot": 1670,
      "Ġ]": 1671,
      "Ġonce": 1672,
      "Ġalong": 1673,
      "ĠUniversity": 1674,
      "enn": 1675,
      "Ġmonths": 1676,
      "Ġsuccess": 1677,
      "Ġarg": 1678,
      "ulation": 1679,
      "Ġwithin": 1680,
      "nect": 1681,
      "Ġdone": 1682,
      "Ġfight": 1683,
      "Ġpossible": 1684,
      "Ġmeans": 1685,
      "Ġpot": 1686,
      "ential": 1687,
      "let": 1688,
      "ĠCo": 1689,
      "Ġcourse": 1690,
      "iting": 1691,
      "Ġconcer": 1692,
      "ER": 1693,
      "Ġproduct": 1694,
      "Ġcho": 1695,
      "Ġ,": 1696,
      "Ġinvestig": 1697,
      "Ġant": 1698,
      "empt": 1699,
      "ivid": 1700,
      "ourn": 1701,
      "Ġactiv": 1702,
      "Ġknown": 1703,
      "ially": 1704,
      "gress": 1705,
      "Ġpriv": 1706,
      "Ġunderstand": 1707,
      "ster": 1708,
      "Ġlocal": 1709,
      "urch": 1710,
      "por": 1711,
      "rew": 1712,
      "uff": 1713,
      "vert": 1714,
      "Ġauthor": 1715,
      "ague": 1716,
      "Ġprotect": 1717,
      "Ġamong": 1718,
      "Ġthought": 1719,
      "Ġproblem": 1720,
      "ĠHowever": 1721,
      "Ġasked": 1722,
      "ederal": 1723,
      "Ġnon": 1724,
      "ats": 1725,
      "ĠPol": 1726,
      "ĠPr": 1727,
      "Ġviol": 1728,
      "Ġfuture": 1729,
      "Ġfail": 1730,
      "oci": 1731,
      "ortun": 1732,
      "ggest": 1733,
      "ball": 1734,
      "Ġreason": 1735,
      "Ġavail": 1736,
      "Ġhold": 1737,
      "Ġcommunity": 1738,
      "verage": 1739,
      "iety": 1740,
      "ald": 1741,
      "ones": 1742,
      "imate": 1743,
      "ĠState": 1744,
      "Ġacross": 1745,
      "Ġ&": 1746,
      "Ġwrit": 1747,
      "Ġorig": 1748,
      "Ġyet": 1749,
      "itive": 1750,
      "book": 1751,
      "aged": 1752,
      "not": 1753,
      "Ġgiven": 1754,
      "Ġca": 1755,
      "Ġvideo": 1756,
      "Ġsuggest": 1757,
      "11": 1758,
      "Ġ#": 1759,
      "Ġmus": 1760,
      "Ġlight": 1761,
      "Ġstrong": 1762,
      "Ġben": 1763,
      "ances": 1764,
      "Ġsex": 1765,
      "Ġlim": 1766,
      "Ġmakes": 1767,
      "Ġprob": 1768,
      "Ġ2016": 1769,
      "ĠChrist": 1770,
      "Ġothers": 1771,
      "Ġreported": 1772,
      "iron": 1773,
      "Ġannoun": 1774,
      "Ġbelieve": 1775,
      "back": 1776,
      "ĠHouse": 1777,
      "ĠWhile": 1778,
      "ensive": 1779,
      "arm": 1780,
      "Ġi": 1781,
      "Ġgetting": 1782,
      "Ġident": 1783,
      "ler": 1784,
      "ĠMin": 1785,
      "Ġcut": 1786,
      "orld": 1787,
      "ĠSen": 1788,
      "Ġsent": 1789,
      "leg": 1790,
      "itions": 1791,
      "Ġ<": 1792,
      "ĠCent": 1793,
      "ored": 1794,
      "ĠÂ": 1795,
      "ober": 1796,
      "urther": 1797,
      "Ġdeath": 1798,
      "Ġpar": 1799,
      "Ġ30": 1800,
      "Ġnational": 1801,
      "'ve": 1802,
      "Ġindust": 1803,
      "allen": 1804,
      "aster": 1805,
      "ĠFl": 1806,
      "Ġemploy": 1807,
      "ĠDemocrat": 1808,
      "Ġsaf": 1809,
      "Ġstarted": 1810,
      "ĠDon": 1811,
      "Ġissue": 1812,
      "Ġsour": 1813,
      "my": 1814,
      "ashing": 1815,
      "rest": 1816,
      "Ġcreat": 1817,
      "Ġlow": 1818,
      "Ġseries": 1819,
      "Ġavailable": 1820,
      "Ġbased": 1821,
      "Ġcond": 1822,
      "Ġaccount": 1823,
      "selves": 1824,
      "Ġ2015": 1825,
      "Ġhig": 1826,
      "Ġclose": 1827,
      "Ġmom": 1828,
      "Ġlove": 1829,
      "hers": 1830,
      "ai": 1831,
      "Ġalmost": 1832,
      "30": 1833,
      "Ġnet": 1834,
      "Ġtrying": 1835,
      "Ġcomes": 1836,
      "----": 1837,
      "ĠAmerica": 1838,
      "ĠCanad": 1839,
      "ief": 1840,
      "ĠX": 1841,
      "Ġcourt": 1842,
      "itional": 1843,
      "Ġago": 1844,
      "utes": 1845,
      "uly": 1846,
      "Ġfollowing": 1847,
      "Ġhistory": 1848,
      "Ġpract": 1849,
      "ĠGer": 1850,
      "Ġ16": 1851,
      "reed": 1852,
      "Ġclear": 1853,
      "Ġtoget": 1854,
      "Ġtogether": 1855,
      "Ġexperience": 1856,
      "ination": 1857,
      "Ġaccess": 1858,
      "ividual": 1859,
      "ability": 1860,
      "Ġfilm": 1861,
      "ien": 1862,
      "Ġrul": 1863,
      "ails": 1864,
      ".,": 1865,
      "orts": 1866,
      "though": 1867,
      "ĠGr": 1868,
      "Ġfoc": 1869,
      "Ġparty": 1870,
      "ument": 1871,
      "Ġidea": 1872,
      "Ġadded": 1873,
      "Ġisn": 1874,
      "ring": 1875,
      "unch": 1876,
      "rael": 1877,
      "ators": 1878,
      "ustom": 1879,
      "Ġ...": 1880,
      "ĠSec": 1881,
      "erence": 1882,
      "use": 1883,
      "Ġhalf": 1884,
      "ilar": 1885,
      "gest": 1886,
      "Ġtrad": 1887,
      "go": 1888,
      "Ġimpro": 1889,
      "12": 1890,
      "ĠBro": 1891,
      "af": 1892,
      "pro": 1893,
      "Ġlooking": 1894,
      "Ġrepres": 1895,
      "Ġanything": 1896,
      "Ġpresent": 1897,
      "Ġ14": 1898,
      "AT": 1899,
      "Ġtaken": 1900,
      "of": 1901,
      "Ġcomplete": 1902,
      "ĠNe": 1903,
      "Ġproper": 1904,
      "raw": 1905,
      "Ġfood": 1906,
      "Ġ2014": 1907,
      "ids": 1908,
      "Ġbad": 1909,
      "Ġmiss": 1910,
      "Ġsix": 1911,
      "ĠBrit": 1912,
      "Ġarea": 1913,
      "ream": 1914,
      "Ġsaying": 1915,
      "Ġcolle": 1916,
      "'m": 1917,
      "ĠCal": 1918,
      "ĠNow": 1919,
      "Ġlive": 1920,
      "Ġentire": 1921,
      "ĠSu": 1922,
      "ograp": 1923,
      "Ġindividual": 1924,
      "Ġface": 1925,
      "wards": 1926,
      "icult": 1927,
      "oto": 1928,
      "Ġanal": 1929,
      "ĠNorth": 1930,
      "cially": 1931,
      "ĠMan": 1932,
      "Ġbehind": 1933,
      "Ġtot": 1934,
      "arget": 1935,
      "aid": 1936,
      "osp": 1937,
      "ĠEng": 1938,
      "inton": 1939,
      "nes": 1940,
      "ĠJust": 1941,
      "Ġris": 1942,
      "Ġcompet": 1943,
      "witter": 1944,
      "ert": 1945,
      "Ġ:": 1946,
      "Ġmilitary": 1947,
      "ministr": 1948,
      "Ġnear": 1949,
      "Ġbill": 1950,
      "Ġvict": 1951,
      "eb": 1952,
      "Ġtre": 1953,
      "ĠAb": 1954,
      "Ġrather": 1955,
      "Ġmind": 1956,
      "ĠCar": 1957,
      "Ġ13": 1958,
      "ĠEd": 1959,
      "ĠApp": 1960,
      "Ġsecurity": 1961,
      "ĠHis": 1962,
      "ĠIsrael": 1963,
      "ĠWar": 1964,
      "Ġwanted": 1965,
      "uge": 1966,
      "Ġthreat": 1967,
      "Ġpubl": 1968,
      "rug": 1969,
      "Ġmult": 1970,
      "Ġmor": 1971,
      "Ġtry": 1972,
      "sy": 1973,
      "Ġpolicy": 1974,
      "Ġmess": 1975,
      "Ġfav": 1976,
      "Ġsingle": 1977,
      "Ġaut": 1978,
      "Ġer": 1979,
      "ĠBar": 1980,
      "Ġquick": 1981,
      "Ġland": 1982,
      "Ġsomeone": 1983,
      "irc": 1984,
      "Ġblack": 1985,
      "Ġdiscuss": 1986,
      "Ġconsider": 1987,
      "par": 1988,
      "play": 1989,
      "ĠMed": 1990,
      "Ġstudy": 1991,
      "ĠMy": 1992,
      "igr": 1993,
      "ĠDep": 1994,
      "atic": 1995,
      "Ġredu": 1996,
      "ales": 1997,
      "15": 1998,
      "aper": 1999,
      "Ġ17": 2000,
      "Ġbring": 2001,
      "Ã©": 2002,
      "ĠAf": 2003,
      "ĠRes": 2004,
      "ĠNational": 2005,
      "ĠGu": 2006,
      "ĠCity": 2007,
      "Ġspecial": 2008,
      "Ġsum": 2009,
      "ĠThese": 2010,
      "ĠDav": 2011,
      "lling": 2012,
      "off": 2013,
      "viron": 2014,
      "Ġcompan": 2015,
      "Ġener": 2016,
      "Ġcomb": 2017,
      "ply": 2018,
      "âĢĵ": 2019,
      "ĠSome": 2020,
      "ĠBy": 2021,
      "ĠInst": 2022,
      "Ġcult": 2023,
      "Ġz": 2024,
      "Ġcoun": 2025,
      "ĠGe": 2026,
      "Ġconnect": 2027,
      "ĠHar": 2028,
      "reme": 2029,
      "Ġjo": 2030,
      "Ġattempt": 2031,
      "ows": 2032,
      "Ġspace": 2033,
      "Ġmass": 2034,
      "cing": 2035,
      "Ġpret": 2036,
      "ĠPart": 2037,
      "Ġcou": 2038,
      "olution": 2039,
      "ĠDo": 2040,
      "Ġelse": 2041,
      "Ġplayer": 2042,
      "Ġbenef": 2043,
      "Ġnothing": 2044,
      "IN": 2045,
      "Ġtaking": 2046,
      "ĠClinton": 2047,
      "Ġfoot": 2048,
      "ĠAust": 2049,
      "Ġkey": 2050,
      "ashington": 2051,
      "Ġcoming": 2052,
      "ĠWorld": 2053,
      "ify": 2054,
      "Ġprobably": 2055,
      "Ġbody": 2056,
      "amed": 2057,
      "ully": 2058,
      "rote": 2059,
      "ĠMe": 2060,
      "irl": 2061,
      "Ġfront": 2062,
      "Ġhowever": 2063,
      "Ġdescrib": 2064,
      "ĠJan": 2065,
      "Ġenc": 2066,
      "ging": 2067,
      "**": 2068,
      "Ġrights": 2069,
      "ault": 2070,
      "hy": 2071,
      "elt": 2072,
      "Ġear": 2073,
      ".)": 2074,
      "Ġexist": 2075,
      "Ġsus": 2076,
      "Ġdecision": 2077,
      "asing": 2078,
      "Ġbar": 2079,
      "ĠWashington": 2080,
      "Ġsw": 2081,
      "ches": 2082,
      "aces": 2083,
      "Ġfeat": 2084,
      "Ġfederal": 2085,
      "Ġeither": 2086,
      "Ġey": 2087,
      "Ġrepl": 2088,
      "Ġhouse": 2089,
      "ran": 2090,
      "over": 2091,
      "Ġresearch": 2092,
      "Ġcreate": 2093,
      "Ġsimilar": 2094,
      "ww": 2095,
      "Ġwa": 2096,
      "ively": 2097,
      "Ġtarget": 2098,
      "ming": 2099,
      "Ġwhole": 2100,
      "ĠChina": 2101,
      "Ġfig": 2102,
      "Ġfurther": 2103,
      "Ġissues": 2104,
      "Ġ2013": 2105,
      "Ġconv": 2106,
      "Ġroom": 2107,
      "sc": 2108,
      "yn": 2109,
      "ĠSouth": 2110,
      "Ġbegin": 2111,
      "Ġeverything": 2112,
      "Ġself": 2113,
      "ON": 2114,
      "ttp": 2115,
      "Ġstri": 2116,
      "Ġ198": 2117,
      "ivil": 2118,
      "Ġsignific": 2119,
      "Ġwrote": 2120,
      "Ġpoints": 2121,
      "lement": 2122,
      "Ġstep": 2123,
      "Ġthird": 2124,
      "ana": 2125,
      "Ġofficials": 2126,
      "Ġdoc": 2127,
      "Ġdam": 2128,
      "Ġstop": 2129,
      "Ġenergy": 2130,
      "IS": 2131,
      "ĠGerman": 2132,
      "Ġimm": 2133,
      "sw": 2134,
      "ently": 2135,
      "ĠAcc": 2136,
      "Ġcompl": 2137,
      "Ġamount": 2138,
      "Ġseems": 2139,
      "Ġcompanies": 2140,
      "Ġwatch": 2141,
      "Ġexec": 2142,
      "itted": 2143,
      "ĠAss": 2144,
      "Ġdue": 2145,
      "Ġservice": 2146,
      "Ġsuper": 2147,
      "Ġtra": 2148,
      "ried": 2149,
      "Ġsound": 2150,
      "anks": 2151,
      "pecially": 2152,
      "iday": 2153,
      "//": 2154,
      "sec": 2155,
      "ery": 2156,
      "uation": 2157,
      "vironment": 2158,
      "Ġchallen": 2159,
      "Ġinfl": 2160,
      "isc": 2161,
      "Ġreleased": 2162,
      "Ġhit": 2163,
      "Ġfire": 2164,
      "attle": 2165,
      "now": 2166,
      "Ġlab": 2167,
      "Ġmatter": 2168,
      "Ġbreak": 2169,
      "Ġmeas": 2170,
      "Ġrole": 2171,
      "mb": 2172,
      "pite": 2173,
      "Ġstates": 2174,
      "pping": 2175,
      "Ġleaders": 2176,
      "Ġstudents": 2177,
      "Ġ|": 2178,
      "obal": 2179,
      "Ġfinal": 2180,
      "Ġpick": 2181,
      "Ġbegan": 2182,
      "Ġcand": 2183,
      "ape": 2184,
      "Ġcustom": 2185,
      "Ġstatement": 2186,
      "Ġdevelopment": 2187,
      "ilt": 2188,
      "Ġtreat": 2189,
      "Ġwasn": 2190,
      "Ġ2017": 2191,
      "Ġposition": 2192,
      "ades": 2193,
      "duct": 2194,
      "Ġhours": 2195,
      "Ġ25": 2196,
      "Ġhimself": 2197,
      "Ġcontinue": 2198,
      "Ġfield": 2199,
      "Ġopt": 2200,
      "ibility": 2201,
      "Ġitself": 2202,
      "Ġgun": 2203,
      "oon": 2204,
      "Ġdou": 2205,
      "Ġbecame": 2206,
      "Ġstat": 2207,
      "Ġground": 2208,
      "Ġrelations": 2209,
      "Ġcharacter": 2210,
      "ĠIntern": 2211,
      "Ġevidence": 2212,
      "Ġprovide": 2213,
      "like": 2214,
      "://": 2215,
      "head": 2216,
      "Ġfall": 2217,
      "arlier": 2218,
      "iod": 2219,
      "Ġred": 2220,
      "Ġthemselves": 2221,
      "Ġinterview": 2222,
      "ĠDr": 2223,
      "Ġagree": 2224,
      "amer": 2225,
      "Ġcountries": 2226,
      "Ġtyp": 2227,
      "ĠEn": 2228,
      "Ġgroups": 2229,
      "Ġneg": 2230,
      "Ġinit": 2231,
      "Ġaction": 2232,
      "Ġsimply": 2233,
      "Ġoffice": 2234,
      "ung": 2235,
      "aul": 2236,
      "ili": 2237,
      "Ġrad": 2238,
      "Ġgeneral": 2239,
      "Ġoutside": 2240,
      "Ġ2012": 2241,
      "'ll": 2242,
      "ached": 2243,
      "Ġ100": 2244,
      "Ġaddress": 2245,
      "16": 2246,
      "AR": 2247,
      "Ġversion": 2248,
      "Ġabove": 2249,
      "aced": 2250,
      "BC": 2251,
      "Ġrepresent": 2252,
      "Ġprofess": 2253,
      "Ġdifficult": 2254,
      "Ġcommon": 2255,
      "Ġdom": 2256,
      "acebook": 2257,
      "Ġbuilding": 2258,
      "Ġwhite": 2259,
      "lim": 2260,
      "iddle": 2261,
      "ogn": 2262,
      "ender": 2263,
      "Ġtrue": 2264,
      "13": 2265,
      "reg": 2266,
      "Ġneeded": 2267,
      "Ġlat": 2268,
      "ĠKe": 2269,
      "ser": 2270,
      "14": 2271,
      "Ġappe": 2272,
      "Ġdest": 2273,
      "ĠWill": 2274,
      "abl": 2275,
      "Ġsignificant": 2276,
      "ĠWest": 2277,
      "ĠPe": 2278,
      "umb": 2279,
      "Ġgen": 2280,
      "yle": 2281,
      "Ġtem": 2282,
      "ift": 2283,
      "Ġinclude": 2284,
      "Ġsaw": 2285,
      "Ġneeds": 2286,
      "eks": 2287,
      "Ġspecific": 2288,
      "ournal": 2289,
      "Ġadministr": 2290,
      "Ġcop": 2291,
      "ĠTwitter": 2292,
      "Ġwoman": 2293,
      "Ġeveryone": 2294,
      "Ġdeep": 2295,
      "Ġmusic": 2296,
      "ĠSte": 2297,
      "eng": 2298,
      "atur": 2299,
      "ote": 2300,
      "Ġexc": 2301,
      "ĠNews": 2302,
      "ask": 2303,
      "Ġphys": 2304,
      "Ġpretty": 2305,
      "Ġrespons": 2306,
      "Ġrunning": 2307,
      "Ġdrug": 2308,
      "AN": 2309,
      "Ġlate": 2310,
      "Ġbelow": 2311,
      "Ġinj": 2312,
      "Ġrelease": 2313,
      "arter": 2314,
      "Ġmag": 2315,
      "Ġfriends": 2316,
      "____": 2317,
      "ribut": 2318,
      "oid": 2319,
      "Ġpain": 2320,
      "Ġ50": 2321,
      "Ġlegal": 2322,
      "Ġindustry": 2323,
      "Ġanim": 2324,
      "Ġsuff": 2325,
      "Ġinstead": 2326,
      "Ġplayed": 2327,
      "ĠSm": 2328,
      "Ġblock": 2329,
      "ogle": 2330,
      "lam": 2331,
      "Ġshows": 2332,
      "Ġchanges": 2333,
      "Ġsense": 2334,
      "Ġap": 2335,
      "ĠWhite": 2336,
      "body": 2337,
      "Ġple": 2338,
      "right": 2339,
      "Ġjud": 2340,
      "Ġquite": 2341,
      "Ġlost": 2342,
      "ĠFacebook": 2343,
      "ĠMich": 2344,
      "Ġplaying": 2345,
      "Ġball": 2346,
      "ĠMus": 2347,
      "Ġhom": 2348,
      "Ġbillion": 2349,
      "Ġrecently": 2350,
      "Ġespecially": 2351,
      "OR": 2352,
      "epend": 2353,
      "ĠPer": 2354,
      "ival": 2355,
      "Ġsite": 2356,
      "where": 2357,
      "istic": 2358,
      "17": 2359,
      "ĠCong": 2360,
      "Ġelection": 2361,
      "Ġcandid": 2362,
      "time": 2363,
      "angu": 2364,
      "Ġabs": 2365,
      "St": 2366,
      "Ġconsum": 2367,
      "den": 2368,
      "==": 2369,
      "Ġrelig": 2370,
      "ĠOct": 2371,
      "Ġmoment": 2372,
      "Ġvalue": 2373,
      "Ġ*": 2374,
      "osing": 2375,
      "bo": 2376,
      "rodu": 2377,
      "ÂŃ": 2378,
      "Ġeconomic": 2379,
      "Ġweeks": 2380,
      "Ġhope": 2381,
      "oring": 2382,
      "Ġ24": 2383,
      "Ġdeter": 2384,
      "medi": 2385,
      "Ġperiod": 2386,
      "ray": 2387,
      "Ġtit": 2388,
      "Ġforward": 2389,
      "Ġpie": 2390,
      "18": 2391,
      "ãģ": 2392,
      "Ġep": 2393,
      "ĠMore": 2394,
      "Ġaccept": 2395,
      "oke": 2396,
      "Ġ>": 2397,
      "Ġ)": 2398,
      "val": 2399,
      "Ġtrack": 2400,
      "ager": 2401,
      "Ġwords": 2402,
      "Ġshoot": 2403,
      "ĠSept": 2404,
      "ĠAccording": 2405,
      "Ġlo": 2406,
      "Ġopportun": 2407,
      "Ġdecl": 2408,
      "ament": 2409,
      "Ġsoon": 2410,
      "ĠSyri": 2411,
      "cil": 2412,
      "ES": 2413,
      "irm": 2414,
      "alt": 2415,
      "Ġcirc": 2416,
      "ients": 2417,
      "ĠAug": 2418,
      "ĠHere": 2419,
      "ĠRepublican": 2420,
      "ique": 2421,
      "arc": 2422,
      "Ġmot": 2423,
      "Ġobject": 2424,
      "Ġworks": 2425,
      "Ġwebs": 2426,
      "ĠMarch": 2427,
      "Ġcred": 2428,
      "Ġonline": 2429,
      "AS": 2430,
      "Ġvote": 2431,
      "fer": 2432,
      "Ġshare": 2433,
      "itting": 2434,
      "Ġce": 2435,
      "Ġlonger": 2436,
      "Ġhigher": 2437,
      "irt": 2438,
      "Ġcheck": 2439,
      "oe": 2440,
      "cle": 2441,
      "Ġhost": 2442,
      "Ġreve": 2443,
      "ancial": 2444,
      "ĠRed": 2445,
      "Ġwrong": 2446,
      "ights": 2447,
      "put": 2448,
      "onse": 2449,
      "Ġtotal": 2450,
      "ĠEm": 2451,
      "ners": 2452,
      "Ġlaws": 2453,
      "cial": 2454,
      "uary": 2455,
      "ularly": 2456,
      "key": 2457,
      "Ġfunction": 2458,
      "Ġheld": 2459,
      "ĠDepartment": 2460,
      "ĠEl": 2461,
      "Ġwalk": 2462,
      "Ġstay": 2463,
      "Ġparent": 2464,
      "Ġfocus": 2465,
      "Ġpotential": 2466,
      "asons": 2467,
      "iding": 2468,
      "ĠGod": 2469,
      "Ġeduc": 2470,
      "Ġpred": 2471,
      "Ġdi": 2472,
      "Ġresults": 2473,
      "ĠJune": 2474,
      "ĠAct": 2475,
      "Ġenvironment": 2476,
      "Ġ{": 2477,
      "ns": 2478,
      "ĠGoogle": 2479,
      "str": 2480,
      "Ġcomput": 2481,
      "Ġrev": 2482,
      "Ġhttp": 2483,
      "ees": 2484,
      "Ġled": 2485,
      "Ġ197": 2486,
      "Ġcontract": 2487,
      "Ġanyone": 2488,
      "Ġcode": 2489,
      "Ġtechnology": 2490,
      "Ġgoal": 2491,
      "hod": 2492,
      "aging": 2493,
      "Ġste": 2494,
      "Ġexpress": 2495,
      "ĠOff": 2496,
      "ĠApr": 2497,
      "ends": 2498,
      "Ġstru": 2499,
      "Ġden": 2500,
      "lt": 2501,
      "action": 2502,
      "ript": 2503,
      "Ġage": 2504,
      "hel": 2505,
      "ij": 2506,
      "itution": 2507,
      "ĠJuly": 2508,
      "ateg": 2509,
      "anger": 2510,
      "rel": 2511,
      "Ġpersonal": 2512,
      "ĠCour": 2513,
      "Ġservices": 2514,
      "Ġproblems": 2515,
      "Ġarticle": 2516,
      "Ġminutes": 2517,
      "ky": 2518,
      "Ġsold": 2519,
      "Ġcomment": 2520,
      "fect": 2521,
      "isl": 2522,
      "ule": 2523,
      "ole": 2524,
      "Ġways": 2525,
      "aut": 2526,
      "Ġwind": 2527,
      "haps": 2528,
      "Ġreview": 2529,
      "Ġdead": 2530,
      "ĠDes": 2531,
      "Ġreceived": 2532,
      "Ġdiv": 2533,
      "Ġrate": 2534,
      "Ġupd": 2535,
      "Ġapplic": 2536,
      "Ġpopular": 2537,
      "aterial": 2538,
      "ĠCongress": 2539,
      "Ġannounced": 2540,
      "Ġearlier": 2541,
      "na": 2542,
      "Ġaud": 2543,
      "Ġsurpr": 2544,
      "Ġnecess": 2545,
      "ĠHill": 2546,
      "ĠFriday": 2547,
      "Ġincrease": 2548,
      "Ġexpected": 2549,
      "hood": 2550,
      "Ġrespect": 2551,
      "Ġshot": 2552,
      "omm": 2553,
      "ham": 2554,
      "Ġquestions": 2555,
      "Ġansw": 2556,
      "ĠHer": 2557,
      "aving": 2558,
      "ude": 2559,
      "ilities": 2560,
      "Ġprivate": 2561,
      "Ġhy": 2562,
      "Ġpack": 2563,
      "Ġimpact": 2564,
      "hern": 2565,
      "Ġscient": 2566,
      "Ġpur": 2567,
      "Ġport": 2568,
      "Ġvol": 2569,
      "Ġ2011": 2570,
      "Ġcreated": 2571,
      "ĠAustral": 2572,
      "Ġcannot": 2573,
      "Ġexact": 2574,
      "Ġinternational": 2575,
      "Ġcivil": 2576,
      "Ġprim": 2577,
      "Ġcell": 2578,
      "apan": 2579,
      "ĠMond": 2580,
      "Ġur": 2581,
      "Ġanti": 2582,
      "uel": 2583,
      "Ġcases": 2584,
      "ĠApril": 2585,
      "iter": 2586,
      "In": 2587,
      "Ġforce": 2588,
      "ples": 2589,
      "iple": 2590,
      "atives": 2591,
      "Ġinvolved": 2592,
      "Ġeasy": 2593,
      "Ġexecut": 2594,
      "Ġstaff": 2595,
      "Ġbase": 2596,
      "ires": 2597,
      "Ġ@": 2598,
      "Ġnearly": 2599,
      "ĠQu": 2600,
      "Ġprice": 2601,
      "ips": 2602,
      "ĠAg": 2603,
      "Ġterror": 2604,
      "Ġoriginal": 2605,
      "Ġcapt": 2606,
      "Ġarrest": 2607,
      "Ġheart": 2608,
      "ĠCont": 2609,
      "itiz": 2610,
      "ctor": 2611,
      "Ġsoft": 2612,
      "reet": 2613,
      "ĠDavid": 2614,
      "ĠEven": 2615,
      "ises": 2616,
      "Ġet": 2617,
      "Ġcoll": 2618,
      "Ġsen": 2619,
      "ĠAmericans": 2620,
      "ĠRussia": 2621,
      "60": 2622,
      "Ġspeak": 2623,
      "Ġfavor": 2624,
      "Ġkilled": 2625,
      "25": 2626,
      "lex": 2627,
      "Ġaverage": 2628,
      "ĠCalif": 2629,
      "Ġ2010": 2630,
      "atural": 2631,
      "itten": 2632,
      "ittee": 2633,
      "Ġleave": 2634,
      "ĠCount": 2635,
      "lled": 2636,
      "bor": 2637,
      "Ġusers": 2638,
      "ĠCor": 2639,
      "Ġresponse": 2640,
      "okes": 2641,
      "Ġreports": 2642,
      "Ġliving": 2643,
      "Ġphot": 2644,
      "che": 2645,
      "Ġrequest": 2646,
      "ĠGl": 2647,
      "ĠTues": 2648,
      "rem": 2649,
      "bit": 2650,
      "Ġmodel": 2651,
      "eter": 2652,
      "ĠPal": 2653,
      "Ġsubject": 2654,
      "Ġstore": 2655,
      "ĠWed": 2656,
      "Ġcontent": 2657,
      "Ġglobal": 2658,
      "Ġrisk": 2659,
      "Ġbecom": 2660,
      "Ġfans": 2661,
      "Ġbroad": 2662,
      "unt": 2663,
      "mon": 2664,
      "joy": 2665,
      "Ġinside": 2666,
      "icro": 2667,
      "Ġrespond": 2668,
      "Ġcal": 2669,
      "Ġweap": 2670,
      "Ġworked": 2671,
      "ĠMonday": 2672,
      "ĠTuesday": 2673,
      "Ġtype": 2674,
      "Ġclub": 2675,
      "eed": 2676,
      "ites": 2677,
      "ĠGeor": 2678,
      "Ġgirl": 2679,
      "Ġworth": 2680,
      "This": 2681,
      "ael": 2682,
      "Ġgave": 2683,
      "Ġimmedi": 2684,
      "ĠJanuary": 2685,
      "Ġterms": 2686,
      "ĠJapan": 2687,
      "Ġroad": 2688,
      "Ġdirector": 2689,
      "Ġrelationship": 2690,
      "Ġlangu": 2691,
      "Ġhappened": 2692,
      "Ġdecided": 2693,
      "ino": 2694,
      "Ġnation": 2695,
      "ĠFirst": 2696,
      "Ġmid": 2697,
      "omb": 2698,
      "ams": 2699,
      "ellig": 2700,
      "cast": 2701,
      "ops": 2702,
      "Ġsqu": 2703,
      "Ġestabl": 2704,
      "Ġphone": 2705,
      "osition": 2706,
      "Ġchance": 2707,
      "Ġcollect": 2708,
      "Ġtakes": 2709,
      "usion": 2710,
      "Ġpublished": 2711,
      "ĠSund": 2712,
      "rought": 2713,
      "Ġworkers": 2714,
      "apt": 2715,
      "ological": 2716,
      "ech": 2717,
      "istrict": 2718,
      "Ġdefin": 2719,
      "Ġadm": 2720,
      "Ġability": 2721,
      "Ġ40": 2722,
      "Ġbuy": 2723,
      "\".": 2724,
      "ĠSpe": 2725,
      "ought": 2726,
      "Ġlack": 2727,
      "Ġsource": 2728,
      "ovember": 2729,
      "Ġassoci": 2730,
      "Ġinflu": 2731,
      "de": 2732,
      "Ġfem": 2733,
      "izing": 2734,
      "Ġfinancial": 2735,
      "Ġrequire": 2736,
      "Ġcapital": 2737,
      "Ġmother": 2738,
      "Ġlog": 2739,
      "Ġemer": 2740,
      "][": 2741,
      "Ġforeign": 2742,
      "Ġareas": 2743,
      "fully": 2744,
      "Ġsituation": 2745,
      "Ġturned": 2746,
      "Ġwhose": 2747,
      "Ġaffect": 2748,
      "ĠSan": 2749,
      "ĠSeptember": 2750,
      "Ġbur": 2751,
      "Ġplans": 2752,
      "ĠFeb": 2753,
      "Ġcy": 2754,
      "ruction": 2755,
      "EN": 2756,
      "ĠPost": 2757,
      "Ġmaterial": 2758,
      "Ġbank": 2759,
      "Ġrecogn": 2760,
      "Ġ21": 2761,
      "ĠCourt": 2762,
      "Ġcurrently": 2763,
      "ĠWednes": 2764,
      "ĠEuropean": 2765,
      "ĠThurs": 2766,
      "Ġarri": 2767,
      "ĠSch": 2768,
      "Ġlives": 2769,
      "rect": 2770,
      "aled": 2771,
      "ills": 2772,
      "Ġadministration": 2773,
      "ĠTw": 2774,
      "Ġmember": 2775,
      "ĠCaliforn": 2776,
      "Ġoil": 2777,
      "iction": 2778,
      "based": 2779,
      "99": 2780,
      "Ġindic": 2781,
      "Ġcouple": 2782,
      "ĠBritish": 2783,
      "Ġfelt": 2784,
      "Ġregard": 2785,
      "Ġmeeting": 2786,
      "Ġsimple": 2787,
      "oved": 2788,
      "Ġgoes": 2789,
      "ĠWednesday": 2790,
      "Ġpage": 2791,
      "ĠPaul": 2792,
      "ĠNovember": 2793,
      "Ġhuge": 2794,
      "\",": 2795,
      "ĠThursday": 2796,
      "Ġapproach": 2797,
      "Ġvia": 2798,
      "ructure": 2799,
      "ĠTV": 2800,
      "oor": 2801,
      "Ġnorm": 2802,
      "vertise": 2803,
      "Ġtal": 2804,
      "Ġ22": 2805,
      "Ġpict": 2806,
      "Ġill": 2807,
      "Ġtou": 2808,
      "Ġquickly": 2809,
      "Ġneigh": 2810,
      "He": 2811,
      "Ġmis": 2812,
      "Ġpull": 2813,
      "Ġbi": 2814,
      "Ġemail": 2815,
      "Ġparticip": 2816,
      "ese": 2817,
      "rown": 2818,
      "Ġoffer": 2819,
      "You": 2820,
      "Ġthous": 2821,
      "ĠThen": 2822,
      "Ġteams": 2823,
      "Ġheard": 2824,
      "ĠIslam": 2825,
      "iment": 2826,
      "Ġsecret": 2827,
      "ĠOf": 2828,
      "ĠCalifornia": 2829,
      "ĠSw": 2830,
      "oud": 2831,
      "ĠAugust": 2832,
      "ĠCanada": 2833,
      "Ġord": 2834,
      "Ġ+": 2835,
      "Ġeconomy": 2836,
      "Ġevents": 2837,
      "Ġcover": 2838,
      "ĠAng": 2839,
      "Ġfre": 2840,
      "aily": 2841,
      "Ġhands": 2842,
      "rain": 2843,
      "force": 2844,
      "ety": 2845,
      "ĠMark": 2846,
      "chie": 2847,
      "Ġmethod": 2848,
      "Ġhon": 2849,
      "Ġknew": 2850,
      "lev": 2851,
      "Ġtown": 2852,
      "Ġwide": 2853,
      "ani": 2854,
      "ĠAfric": 2855,
      "aur": 2856,
      "Ġboy": 2857,
      "Ġfather": 2858,
      "Ġpers": 2859,
      "ED": 2860,
      "Ġrepe": 2861,
      "ences": 2862,
      "Ġlegisl": 2863,
      "Ġmatch": 2864,
      "40": 2865,
      "Ġwebsite": 2866,
      "atory": 2867,
      "Ġspent": 2868,
      "Ġnetwork": 2869,
      "ĠSunday": 2870,
      "Ġenjoy": 2871,
      "Ġperformance": 2872,
      "Ġtool": 2873,
      "Ġloss": 2874,
      "estern": 2875,
      "Ġbuilt": 2876,
      "Ġdig": 2877,
      "ĠPar": 2878,
      "Ġimprove": 2879,
      "'d": 2880,
      "face": 2881,
      "ession": 2882,
      "bl": 2883,
      "?âĢĿ": 2884,
      "Ġsize": 2885,
      "!!!!": 2886,
      "ett": 2887,
      "Ġpopulation": 2888,
      "cember": 2889,
      "Wh": 2890,
      "load": 2891,
      "ĠOctober": 2892,
      "oo": 2893,
      "Ġintrodu": 2894,
      "order": 2895,
      "Ġtried": 2896,
      "Ġlower": 2897,
      "uses": 2898,
      "Ġincluded": 2899,
      "ĠBlack": 2900,
      "Ġvictim": 2901,
      "ma": 2902,
      "Ġtravel": 2903,
      "orters": 2904,
      "Ġcareer": 2905,
      "Ġrace": 2906,
      "Ġengine": 2907,
      "ceed": 2908,
      "Ġsepar": 2909,
      "ume": 2910,
      "ĠIS": 2911,
      "Ġnumbers": 2912,
      "Ġtrade": 2913,
      "Ġcause": 2914,
      "Ġtext": 2915,
      "Ġround": 2916,
      "avy": 2917,
      "ĠUK": 2918,
      "Ġgrowth": 2919,
      "Ġfear": 2920,
      "Ġvo": 2921,
      "Ġwants": 2922,
      "idents": 2923,
      "Ġvisit": 2924,
      "Ġproduction": 2925,
      "Ġallowed": 2926,
      "Ġgets": 2927,
      "fl": 2928,
      "âĢĶâĢĶ": 2929,
      "Ġpoll": 2930,
      "Ġ23": 2931,
      "ened": 2932,
      "ĠÂ£": 2933,
      "ze": 2934,
      "ctions": 2935,
      "ishing": 2936,
      "hic": 2937,
      "Ġforces": 2938,
      "ĠPat": 2939,
      "Ġboard": 2940,
      "Ġmovement": 2941,
      "Ġperfect": 2942,
      "idered": 2943,
      "ĠDecember": 2944,
      "urd": 2945,
      "âĢĿ.": 2946,
      "ĠTimes": 2947,
      "ny": 2948,
      "cies": 2949,
      "Ġfair": 2950,
      "Ġens": 2951,
      "alled": 2952,
      "Ġban": 2953,
      "ĠIran": 2954,
      "Ġprogress": 2955,
      "Ġbehav": 2956,
      "ining": 2957,
      "down": 2958,
      "ĠInt": 2959,
      "ĠKore": 2960,
      "Ġsong": 2961,
      "Ġsett": 2962,
      "aker": 2963,
      "Ġfell": 2964,
      "Ġcontact": 2965,
      "Ġlooks": 2966,
      "Ġparticular": 2967,
      "Ġdemand": 2968,
      "Ġreach": 2969,
      "ĠFrom": 2970,
      "vent": 2971,
      "Ġprevious": 2972,
      "ĠPark": 2973,
      "Ġattention": 2974,
      "yond": 2975,
      "lear": 2976,
      "raq": 2977,
      "Ġbrought": 2978,
      "ibly": 2979,
      "Ġmention": 2980,
      "ĠKing": 2981,
      "Ġindepend": 2982,
      "undred": 2983,
      "arily": 2984,
      "hold": 2985,
      "sequ": 2986,
      ");": 2987,
      "Ġmorning": 2988,
      "ĠFin": 2989,
      "come": 2990,
      "Ġrules": 2991,
      "ps": 2992,
      "arth": 2993,
      "ĠSand": 2994,
      "agement": 2995,
      "Ġleader": 2996,
      "ĠCons": 2997,
      "Ġrac": 2998,
      "uk": 2999,
      "ĠChe": 3000,
      "inks": 3001,
      "field": 3002,
      "Ġmedical": 3003,
      "Ġvarious": 3004,
      "raz": 3005,
      "Ġbud": 3006,
      "ecause": 3007,
      "ĠRussian": 3008,
      "Ġcitiz": 3009,
      "Ġess": 3010,
      "oph": 3011,
      "Ġhot": 3012,
      "ope": 3013,
      "Ġlatest": 3014,
      "ĠCenter": 3015,
      "Ġimage": 3016,
      "Ġdoll": 3017,
      "ĠParty": 3018,
      "ening": 3019,
      "Ġconsidered": 3020,
      "Ġreb": 3021,
      "ĠIraq": 3022,
      "Ġslow": 3023,
      "Ġliber": 3024,
      "ĠSatur": 3025,
      "Ġlink": 3026,
      "Ġprep": 3027,
      "Ġhor": 3028,
      "vil": 3029,
      "ification": 3030,
      "Ġtalking": 3031,
      "Ġsearch": 3032,
      "Ġcoach": 3033,
      "Ġfeatures": 3034,
      "Ġsens": 3035,
      "bed": 3036,
      "ĠStreet": 3037,
      "Ġhear": 3038,
      "iers": 3039,
      "Ġ}": 3040,
      "ĠPolice": 3041,
      "Ġwond": 3042,
      "uments": 3043,
      "ondon": 3044,
      "ĠSoc": 3045,
      "200": 3046,
      "Ġcritic": 3047,
      "ĠDonald": 3048,
      "ledge": 3049,
      "Ġspeed": 3050,
      "Ġstar": 3051,
      "Ġsystems": 3052,
      "Ġinvestigation": 3053,
      "Ġtraining": 3054,
      "Ġdemon": 3055,
      "ĠSenate": 3056,
      "coin": 3057,
      "IC": 3058,
      "Ġconduct": 3059,
      "Ġsn": 3060,
      "imin": 3061,
      "Ġsort": 3062,
      "unk": 3063,
      "Ġupon": 3064,
      "ĠSer": 3065,
      "Ġexam": 3066,
      "Ġstrugg": 3067,
      "ĠSaturday": 3068,
      "Ġ2009": 3069,
      "Ġsafe": 3070,
      "Ġfast": 3071,
      "imately": 3072,
      "ha": 3073,
      "het": 3074,
      "Ġaddition": 3075,
      "asc": 3076,
      "Ġmach": 3077,
      "AC": 3078,
      "elligence": 3079,
      "Ġextreme": 3080,
      "iant": 3081,
      "Ġserious": 3082,
      "Ġsurve": 3083,
      "ĠLet": 3084,
      "tr": 3085,
      "Ġpen": 3086,
      "Ġseek": 3087,
      "Ġbott": 3088,
      "ground": 3089,
      "Ġachie": 3090,
      "Ġson": 3091,
      "Ġlevels": 3092,
      "Ġund": 3093,
      "Ġbox": 3094,
      "AL": 3095,
      "Ġparents": 3096,
      "ruary": 3097,
      "Ġpaper": 3098,
      "Ġincreasing": 3099,
      "aries": 3100,
      "Ġeffort": 3101,
      "ĠMor": 3102,
      "ĠSim": 3103,
      "ĠIndia": 3104,
      "ĠOther": 3105,
      "Ġlooked": 3106,
      "illed": 3107,
      "imum": 3108,
      "sych": 3109,
      "ico": 3110,
      "Ġprevent": 3111,
      "Ġwritten": 3112,
      "ĠCounty": 3113,
      "set": 3114,
      "eff": 3115,
      "Ġclaims": 3116,
      "Ġofficers": 3117,
      "Ġexcept": 3118,
      "ĠMcC": 3119,
      "Ġcompletely": 3120,
      "ibr": 3121,
      "Ġseven": 3122,
      "ĠGener": 3123,
      "ysis": 3124,
      "If": 3125,
      "Ġexactly": 3126,
      "OS": 3127,
      "uit": 3128,
      "Ġ2008": 3129,
      "ĠCoun": 3130,
      "istan": 3131,
      "ĠUp": 3132,
      "Ġalle": 3133,
      "Ġscreen": 3134,
      "Ġdocument": 3135,
      "Ġspokes": 3136,
      "Ġdraw": 3137,
      "Ġmajority": 3138,
      "ĠTex": 3139,
      "Ġrequired": 3140,
      "Ġconserv": 3141,
      "Ġnatural": 3142,
      "Ġdoub": 3143,
      "Ġsociety": 3144,
      "Ġexperien": 3145,
      "Ġcommunic": 3146,
      "ban": 3147,
      "reedom": 3148,
      "Ġlearn": 3149,
      "Ġjobs": 3150,
      "Ġregul": 3151,
      "ĠRom": 3152,
      "Ġcard": 3153,
      "uf": 3154,
      "room": 3155,
      "Ġparticularly": 3156,
      "Ġinn": 3157,
      "Ġconc": 3158,
      "ĠLondon": 3159,
      "Ġprison": 3160,
      "Ġattacks": 3161,
      "pir": 3162,
      "Ġmovie": 3163,
      "Ġrange": 3164,
      "ĠFebruary": 3165,
      "Ġlanguage": 3166,
      "ĠLab": 3167,
      "Ġinteresting": 3168,
      "lin": 3169,
      "ux": 3170,
      "ĠMost": 3171,
      "Ġjournal": 3172,
      "Ġeight": 3173,
      "Ġextra": 3174,
      "There": 3175,
      "Ġprior": 3176,
      "pper": 3177,
      "ĠMichael": 3178,
      "ĠCr": 3179,
      "ĠNet": 3180,
      "Ġlay": 3181,
      "Ġobv": 3182,
      "Ġplat": 3183,
      "light": 3184,
      "ĠStar": 3185,
      "Ġopportunity": 3186,
      "ĠRead": 3187,
      "inese": 3188,
      "Ġoccur": 3189,
      "IT": 3190,
      "rast": 3191,
      "Ġdespite": 3192,
      "lying": 3193,
      "Ġmessage": 3194,
      "itch": 3195,
      "lection": 3196,
      "Ġimmigr": 3197,
      "Ġhundred": 3198,
      "Ġdro": 3199,
      "Ġpoor": 3200,
      "Ġcarry": 3201,
      "ĠWhy": 3202,
      "Ġblood": 3203,
      "anced": 3204,
      "Ġresour": 3205,
      "ĠEast": 3206,
      "Ġproducts": 3207,
      "Ġleading": 3208,
      "Ġstories": 3209,
      "Ġaren": 3210,
      "ĠRepublicans": 3211,
      "Ġconvers": 3212,
      "ospital": 3213,
      "Ġ27": 3214,
      "isions": 3215,
      "Ġdetails": 3216,
      "oses": 3217,
      "Ġdescribed": 3218,
      "Ġpractice": 3219,
      "idge": 3220,
      "Ġfinally": 3221,
      "ĠMuslim": 3222,
      "Ġones": 3223,
      "ĠJew": 3224,
      "Ġpaid": 3225,
      "Ġbiggest": 3226,
      "ĠBill": 3227,
      "Ġscience": 3228,
      "22": 3229,
      "Ġsometimes": 3230,
      "Ġsurv": 3231,
      "Ġprotest": 3232,
      "Ġ28": 3233,
      "?\"": 3234,
      "Ġnamed": 3235,
      "iminal": 3236,
      "Ġstuff": 3237,
      "Ġsexual": 3238,
      "Ġmiddle": 3239,
      "ĠSince": 3240,
      "ĠTur": 3241,
      "vertisement": 3242,
      "Ġquality": 3243,
      "Ġmodern": 3244,
      "ĠSci": 3245,
      "entially": 3246,
      "Ġuser": 3247,
      "hib": 3248,
      "ĠEvery": 3249,
      "uing": 3250,
      "ari": 3251,
      "aves": 3252,
      "Ġclimate": 3253,
      "ĠMon": 3254,
      "Ġviolence": 3255,
      "Ġterm": 3256,
      "Ġkids": 3257,
      "aming": 3258,
      "Ġimag": 3259,
      "erc": 3260,
      "Ġdefense": 3261,
      "Ġremain": 3262,
      "Ġquarter": 3263,
      "aught": 3264,
      "ida": 3265,
      "ĠPlay": 3266,
      "Ġanswer": 3267,
      "Ġgrowing": 3268,
      "Ġcosts": 3269,
      "Ġincreased": 3270,
      "Ġchanged": 3271,
      "Ġgas": 3272,
      "Ġpan": 3273,
      "ĠOver": 3274,
      "atter": 3275,
      "Ġsummer": 3276,
      "Ġfix": 3277,
      "Ġcontinued": 3278,
      "ĠDemocratic": 3279,
      "Ġdamage": 3280,
      "nces": 3281,
      "Ġimplement": 3282,
      "utions": 3283,
      "Ġult": 3284,
      "Ġcertainly": 3285,
      "Ġcross": 3286,
      "ously": 3287,
      "fort": 3288,
      "Ġgiving": 3289,
      "Ġhous": 3290,
      "ĠWell": 3291,
      "aly": 3292,
      "Ġaw": 3293,
      "Ġguy": 3294,
      "eth": 3295,
      "Ġthinking": 3296,
      "Ġshowed": 3297,
      "Ġwriting": 3298,
      "ĠJames": 3299,
      "Ġpath": 3300,
      "uclear": 3301,
      "ĠChinese": 3302,
      "Ġstarting": 3303,
      "Ġdanger": 3304,
      "Ġtable": 3305,
      "ara": 3306,
      "Ġcomments": 3307,
      "Ġremains": 3308,
      "Ġregion": 3309,
      "Ġready": 3310,
      "rowd": 3311,
      "ĠMany": 3312,
      "Ġmaintain": 3313,
      "ĠRich": 3314,
      "Ġcalls": 3315,
      "24": 3316,
      "arr": 3317,
      "FL": 3318,
      "akers": 3319,
      "Ġpurp": 3320,
      "lish": 3321,
      "ĠTH": 3322,
      "ĠRec": 3323,
      "Ġassist": 3324,
      "Ġdied": 3325,
      "rench": 3326,
      "Ġpurch": 3327,
      "oul": 3328,
      "Ġitem": 3329,
      "Ġdirectly": 3330,
      "Ġchief": 3331,
      "Ġprovided": 3332,
      "astic": 3333,
      "Ġreading": 3334,
      "OP": 3335,
      "Ġreality": 3336,
      "Ġeducation": 3337,
      "mp": 3338,
      "ĠGreen": 3339,
      "Ġ26": 3340,
      "ĠLeague": 3341,
      "Ġcamer": 3342,
      "Ġrob": 3343,
      "Ġusually": 3344,
      "Ġmultiple": 3345,
      "Ġalthough": 3346,
      "80": 3347,
      "ension": 3348,
      "Ġstandard": 3349,
      "Ġwouldn": 3350,
      "Ġrout": 3351,
      "Ġcorpor": 3352,
      "Ġil": 3353,
      "Ġcounter": 3354,
      "zz": 3355,
      "Ġbeyond": 3356,
      "Ġbudget": 3357,
      "ĠDis": 3358,
      "ĠÐ": 3359,
      "ĠApple": 3360,
      "Ġparts": 3361,
      "overed": 3362,
      "egr": 3363,
      "omp": 3364,
      "Ġefforts": 3365,
      "ĠLast": 3366,
      "Ġperhaps": 3367,
      "Ġcouldn": 3368,
      "Ġhistor": 3369,
      "Ġment": 3370,
      "Ġver": 3371,
      "oper": 3372,
      "Ġmob": 3373,
      "Ġdog": 3374,
      "icated": 3375,
      "icks": 3376,
      "ĠWilliam": 3377,
      "ĠMinister": 3378,
      "Ġcele": 3379,
      "atever": 3380,
      "Ġmill": 3381,
      "inary": 3382,
      "Ġavoid": 3383,
      "Ġscene": 3384,
      "using": 3385,
      "Ġspeech": 3386,
      "Ġtowards": 3387,
      "Ġadditional": 3388,
      "Ġdesigned": 3389,
      "ĠRober": 3390,
      "icted": 3391,
      "Ġsoftware": 3392,
      "urt": 3393,
      "Ġsle": 3394,
      "Ġculture": 3395,
      "ĠBen": 3396,
      "Ġselect": 3397,
      "Ġfootball": 3398,
      "ables": 3399,
      "Ġproperty": 3400,
      "Ġconcept": 3401,
      "Ġcomplex": 3402,
      "Ġwrite": 3403,
      "Ġchoice": 3404,
      "ĠBo": 3405,
      "Ġfigure": 3406,
      "Ġresearc": 3407,
      "Ġunf": 3408,
      "Ġepis": 3409,
      "Ġ(@": 3410,
      "sp": 3411,
      "Ġtro": 3412,
      "ĠJack": 3413,
      "Ġvoters": 3414,
      "Ġrecomm": 3415,
      "Ġâ": 3416,
      "Ġsafety": 3417,
      "Ġwife": 3418,
      "Ġthroughout": 3419,
      "Ġten": 3420,
      "ĠTexas": 3421,
      "Ġguys": 3422,
      "Ġdisapp": 3423,
      "ĠBel": 3424,
      "ĠIndian": 3425,
      "Ġincludes": 3426,
      "ĠTor": 3427,
      "Ġgone": 3428,
      "BI": 3429,
      "ago": 3430,
      "Ġconsist": 3431,
      "Ġstudent": 3432,
      "Ġthousands": 3433,
      "ilies": 3434,
      "Ġimmediately": 3435,
      "Ġ196": 3436,
      "Ġpressure": 3437,
      "Ġplatform": 3438,
      "itor": 3439,
      "ĠSchool": 3440,
      "isis": 3441,
      "ĠLike": 3442,
      "Ġcenter": 3443,
      "Ġalone": 3444,
      "Ġcomputer": 3445,
      "--------": 3446,
      "ĠOur": 3447,
      "wise": 3448,
      "Ġreached": 3449,
      "ford": 3450,
      "mit": 3451,
      "Ġlaunch": 3452,
      "ĠAssoci": 3453,
      "Ġletter": 3454,
      "Ġclos": 3455,
      "Ġsuspect": 3456,
      "ĠSuper": 3457,
      "itute": 3458,
      "Ġfile": 3459,
      "Ġoption": 3460,
      "Ġmoved": 3461,
      "Ġpiece": 3462,
      "amb": 3463,
      "Ġclean": 3464,
      "Ġofficer": 3465,
      "aph": 3466,
      "ĠMart": 3467,
      "irth": 3468,
      "ĠGet": 3469,
      "Ġrelative": 3470,
      "Ġcast": 3471,
      "anch": 3472,
      "US": 3473,
      "ĠII": 3474,
      "Ġeyes": 3475,
      "Ġsil": 3476,
      "Ph": 3477,
      "aches": 3478,
      "icient": 3479,
      "Ġsell": 3480,
      "rupt": 3481,
      "aughter": 3482,
      "Ġopin": 3483,
      "Ġsat": 3484,
      "arian": 3485,
      "Ġincome": 3486,
      "Ġblog": 3487,
      "Ġcommand": 3488,
      "ĠComp": 3489,
      "Ġpassed": 3490,
      "Ġstage": 3491,
      "ĠAdd": 3492,
      "Ġtoward": 3493,
      "Ġreasons": 3494,
      "Ġmeaning": 3495,
      "Ġreceive": 3496,
      "ĠDemocrats": 3497,
      "Ġeffects": 3498,
      "Ġdifference": 3499,
      "iny": 3500,
      "Ġremember": 3501,
      "Ġut": 3502,
      "Ġdeg": 3503,
      "Ġdate": 3504,
      "iles": 3505,
      "omen": 3506,
      "Ġmoving": 3507,
      "ĠAlthough": 3508,
      "ression": 3509,
      "Ġahead": 3510,
      "add": 3511,
      "Ġagency": 3512,
      "ĠGermany": 3513,
      "Ġign": 3514,
      "ocked": 3515,
      "airs": 3516,
      "Ġbeginning": 3517,
      "Ġtitle": 3518,
      "hest": 3519,
      "Ġcharacters": 3520,
      "adem": 3521,
      "Ġdrive": 3522,
      "Ġnature": 3523,
      "ĠMex": 3524,
      "ĠDay": 3525,
      "Ġdebate": 3526,
      "olute": 3527,
      "ustr": 3528,
      "Ġdark": 3529,
      "Ġhappy": 3530,
      "ĠSyria": 3531,
      "ĠCap": 3532,
      "rief": 3533,
      "Ġrock": 3534,
      "Ġfan": 3535,
      "Ġprec": 3536,
      "Ġspending": 3537,
      "Ġorganization": 3538,
      "Ġ60": 3539,
      "Ġalleged": 3540,
      "Ġsubst": 3541,
      "Ġnom": 3542,
      "Ġconditions": 3543,
      "Ġfailed": 3544,
      "ris": 3545,
      "Ġdevice": 3546,
      "etro": 3547,
      "roy": 3548,
      "Ġconference": 3549,
      "Ġpark": 3550,
      "Ġswe": 3551,
      "23": 3552,
      "itness": 3553,
      "ĠEU": 3554,
      "urning": 3555,
      "venue": 3556,
      "Ġhelped": 3557,
      "Ġcrowd": 3558,
      "Ġencour": 3559,
      "Ġbal": 3560,
      "ivity": 3561,
      "ĠBecause": 3562,
      "Ġcentury": 3563,
      "ampions": 3564,
      "Ġmyself": 3565,
      "Ġtour": 3566,
      "ĠTom": 3567,
      "itation": 3568,
      "ĠAir": 3569,
      "Ġappears": 3570,
      "ĠRob": 3571,
      "ĠReg": 3572,
      "Ġcool": 3573,
      "chan": 3574,
      "Ġpresidential": 3575,
      "ĠGovern": 3576,
      "Ġaim": 3577,
      "erve": 3578,
      "ĠEnglish": 3579,
      "ĠServ": 3580,
      "ston": 3581,
      "Ġstra": 3582,
      "Ġshown": 3583,
      "Ġcontribut": 3584,
      "Ġreligious": 3585,
      "EC": 3586,
      "Ġlimited": 3587,
      "ext": 3588,
      "Ġdemonstr": 3589,
      "Ġscore": 3590,
      "urance": 3591,
      "Ġmeant": 3592,
      "Ġnecessary": 3593,
      "more": 3594,
      "ĠSmith": 3595,
      "Ġrefer": 3596,
      "Ġband": 3597,
      "Ġcitizens": 3598,
      "Ġlargest": 3599,
      "Ġconfir": 3600,
      "AM": 3601,
      "aint": 3602,
      "new": 3603,
      "Ġbattle": 3604,
      "agon": 3605,
      "Ġmix": 3606,
      "iable": 3607,
      "Ġeventually": 3608,
      "orks": 3609,
      "ares": 3610,
      "ĠAnt": 3611,
      "Ġnote": 3612,
      "Ġestim": 3613,
      "Ġaware": 3614,
      "Ġsal": 3615,
      "Ġexecutive": 3616,
      "wood": 3617,
      "Ġmaybe": 3618,
      "Ġnuclear": 3619,
      "Ġpositive": 3620,
      "orney": 3621,
      "berg": 3622,
      "just": 3623,
      "Ġpowerful": 3624,
      "Ġforced": 3625,
      "ĠEarth": 3626,
      "aling": 3627,
      "ev": 3628,
      "Ġfamilies": 3629,
      "Ġtwe": 3630,
      "ĠVal": 3631,
      "Ġstreng": 3632,
      "Ġyourself": 3633,
      "Ġtrust": 3634,
      "Ġschools": 3635,
      "ufact": 3636,
      "Ġcopy": 3637,
      "Ġwall": 3638,
      "yan": 3639,
      "Ġdetail": 3640,
      "ĠWind": 3641,
      "ports": 3642,
      "Ġdisp": 3643,
      "ĠPeople": 3644,
      "Ġsche": 3645,
      "enty": 3646,
      "Ġilleg": 3647,
      "Ġcharge": 3648,
      "Ġ29": 3649,
      "Ġcollege": 3650,
      "Ġyes": 3651,
      "Ġfeature": 3652,
      "They": 3653,
      "ĠJer": 3654,
      "Ġautom": 3655,
      "Ġphysical": 3656,
      "ĠDuring": 3657,
      "ĠGeorge": 3658,
      "Ġbrain": 3659,
      "Ġcompared": 3660,
      "Ġleague": 3661,
      "Ġgrad": 3662,
      "Ġfeed": 3663,
      "35": 3664,
      "Ġcrime": 3665,
      "Ġallows": 3666,
      "craft": 3667,
      "Ġfrequ": 3668,
      "ressed": 3669,
      "Ġcandidate": 3670,
      "ĠInternational": 3671,
      "Ġfollowed": 3672,
      "ĠAdvertisement": 3673,
      "Ġsubs": 3674,
      "Ġanalysis": 3675,
      "ĠTod": 3676,
      "Ġweapons": 3677,
      "ĠBre": 3678,
      "Ġx": 3679,
      "Ġcriminal": 3680,
      "Ġfirm": 3681,
      "45": 3682,
      "men": 3683,
      "Ġunique": 3684,
      "ĠCouncil": 3685,
      "encies": 3686,
      "Ġtouch": 3687,
      "Ġcorrect": 3688,
      "Ġsenior": 3689,
      "iance": 3690,
      "ĠFrench": 3691,
      "lease": 3692,
      "Ġarch": 3693,
      "Ġrates": 3694,
      "Ġeasily": 3695,
      "Ġesc": 3696,
      "OT": 3697,
      "cul": 3698,
      "ĠHigh": 3699,
      "owers": 3700,
      "Ġtreatment": 3701,
      "ĠMac": 3702,
      "Ġbooks": 3703,
      "Ġgives": 3704,
      "Ġpolitics": 3705,
      "Ġsigned": 3706,
      "....": 3707,
      "Ġorigin": 3708,
      "ken": 3709,
      "Ġbenefits": 3710,
      "Ġoverall": 3711,
      "Ġactions": 3712,
      "Ġthrow": 3713,
      "Ġcelebr": 3714,
      "Ġcrisis": 3715,
      "iring": 3716,
      "Ġuses": 3717,
      "ĠBrown": 3718,
      "Ġnice": 3719,
      "Ġindividuals": 3720,
      "Ġcentral": 3721,
      "Ġdecades": 3722,
      "ĠDef": 3723,
      "ĠLa": 3724,
      "Ġrap": 3725,
      "ĠBu": 3726,
      "ĠUnion": 3727,
      "ĠBer": 3728,
      "Ġpreviously": 3729,
      "Ġideas": 3730,
      "Ġtruth": 3731,
      "Ġang": 3732,
      "Ġspir": 3733,
      "ET": 3734,
      "Ġlif": 3735,
      "Ġpus": 3736,
      "Ġsusp": 3737,
      "ĠTwo": 3738,
      "ĠAustralia": 3739,
      "band": 3740,
      "ĠTrans": 3741,
      "Ġcat": 3742,
      "Ġcontinues": 3743,
      "Ġdeveloped": 3744,
      "Ġappeared": 3745,
      "Ġpromot": 3746,
      "ĠâĢ¢": 3747,
      "resh": 3748,
      "IA": 3749,
      "Ġdoor": 3750,
      "Ġplant": 3751,
      "Ġpolicies": 3752,
      "Ġbrother": 3753,
      "Ġsmart": 3754,
      "Ġprojects": 3755,
      "ĠAngel": 3756,
      "Ġaltern": 3757,
      "27": 3758,
      "oes": 3759,
      "Ġcustomers": 3760,
      "Ġpsych": 3761,
      "pre": 3762,
      "Ġspread": 3763,
      "ĠHam": 3764,
      "Ġspot": 3765,
      "iation": 3766,
      "Ġweb": 3767,
      "ĠOp": 3768,
      "itely": 3769,
      "urg": 3770,
      "secut": 3771,
      "Ġexpand": 3772,
      "Ġnoted": 3773,
      "ĠBit": 3774,
      "ĠGeneral": 3775,
      "Ġapparent": 3776,
      "uty": 3777,
      "Ġcredit": 3778,
      "Ġvoice": 3779,
      "ĠStud": 3780,
      "Ġsto": 3781,
      "bum": 3782,
      "Ġprint": 3783,
      "Ġlarger": 3784,
      "ube": 3785,
      "ĠOh": 3786,
      "Ġintelligence": 3787,
      "Ġreform": 3788,
      "ĠScott": 3789,
      "29": 3790,
      "Ġlic": 3791,
      "26": 3792,
      "Ġstraight": 3793,
      "Ġplaces": 3794,
      "Ġclearly": 3795,
      "dd": 3796,
      "ĠAlex": 3797,
      "onents": 3798,
      "ĠFlor": 3799,
      "ĠImage": 3800,
      "):": 3801,
      "nown": 3802,
      "board": 3803,
      "Ġgoals": 3804,
      "Ġtraff": 3805,
      "Ġlines": 3806,
      "Ġstudies": 3807,
      "Ġemb": 3808,
      "Ġdisplay": 3809,
      "Ġconflic": 3810,
      "Ġpatients": 3811,
      "Ġanaly": 3812,
      "icit": 3813,
      "part": 3814,
      "bon": 3815,
      "Ġgreater": 3816,
      "Ġseemed": 3817,
      "Ġfighting": 3818,
      "ĠGold": 3819,
      "ĠFranc": 3820,
      "Ġrelated": 3821,
      "Ġfully": 3822,
      "ero": 3823,
      "Ġminor": 3824,
      "orter": 3825,
      "ĠYour": 3826,
      "antly": 3827,
      "clus": 3828,
      "Ġhar": 3829,
      "dom": 3830,
      "sey": 3831,
      "ĠLaw": 3832,
      "As": 3833,
      "Ġfine": 3834,
      "Ġrule": 3835,
      "riage": 3836,
      "Ġadvant": 3837,
      "aud": 3838,
      "Ġhighly": 3839,
      "Ġbeaut": 3840,
      "Ġincident": 3841,
      "Ġ2007": 3842,
      "Ġorganiz": 3843,
      "EL": 3844,
      "Ġgreen": 3845,
      "ĠAlso": 3846,
      "Ġcities": 3847,
      "Ġkept": 3848,
      "Ġchallenge": 3849,
      "Ġdise": 3850,
      "AP": 3851,
      "osh": 3852,
      "ĠChristian": 3853,
      "Ġmeasure": 3854,
      "ĠMo": 3855,
      "Ġsuccessful": 3856,
      "Ġprem": 3857,
      "iverse": 3858,
      "Ġdrop": 3859,
      "iced": 3860,
      "ocks": 3861,
      "Ġdraft": 3862,
      "ĠFollow": 3863,
      "Ġknowledge": 3864,
      "Ġpeace": 3865,
      "Ġspend": 3866,
      "Ġattract": 3867,
      "Ġstatus": 3868,
      "yl": 3869,
      "Ġactivity": 3870,
      "ĠPhil": 3871,
      "Ġmist": 3872,
      "Ġstyle": 3873,
      "while": 3874,
      "Ġcaused": 3875,
      "ategy": 3876,
      "ville": 3877,
      "Ġknows": 3878,
      "ĠAnother": 3879,
      "vin": 3880,
      "rs": 3881,
      "Ġresources": 3882,
      "change": 3883,
      "Ġintegr": 3884,
      "term": 3885,
      "ĠMatt": 3886,
      "Ġsales": 3887,
      "oles": 3888,
      "Ġsources": 3889,
      "Ġgrand": 3890,
      "Ġshooting": 3891,
      "ID": 3892,
      "Ġprograms": 3893,
      "Ġhaven": 3894,
      "Ġemployees": 3895,
      "roll": 3896,
      "ounds": 3897,
      "Ġowners": 3898,
      "Ġminister": 3899,
      "Ġcalling": 3900,
      "Ġemot": 3901,
      "Ġhospital": 3902,
      "Ġfeet": 3903,
      "Ġmanufact": 3904,
      "Ġfa": 3905,
      "Ġcharges": 3906,
      "Ġresearchers": 3907,
      "Ġoptions": 3908,
      "Ġrare": 3909,
      "box": 3910,
      "alse": 3911,
      "ĠMod": 3912,
      "ĠArt": 3913,
      "mar": 3914,
      "uman": 3915,
      "Ġimpl": 3916,
      "Ġenforce": 3917,
      "Ġsend": 3918,
      "ĠÃ": 3919,
      "Ġlaun": 3920,
      "Ġgold": 3921,
      "Ġregular": 3922,
      "olic": 3923,
      "OM": 3924,
      "iled": 3925,
      "Ġfemale": 3926,
      "Ġleaving": 3927,
      "Ġuns": 3928,
      "Ġliter": 3929,
      "Ġbeat": 3930,
      "Ġsave": 3931,
      "ĠHealth": 3932,
      "Ġlik": 3933,
      "Ġcolor": 3934,
      "Ġnormal": 3935,
      "Ġadding": 3936,
      "wide": 3937,
      "inn": 3938,
      "Ġtraditional": 3939,
      "ĠMag": 3940,
      "Ġmanager": 3941,
      "Ġagreement": 3942,
      "Ġended": 3943,
      "ĠFrance": 3944,
      "ĠArab": 3945,
      "Ġfunding": 3946,
      "Ġprimary": 3947,
      "ki": 3948,
      "100": 3949,
      "Ġenem": 3950,
      "28": 3951,
      "net": 3952,
      "ĠBush": 3953,
      "Ġauthorities": 3954,
      "ength": 3955,
      "ingly": 3956,
      "iders": 3957,
      "Ġclaimed": 3958,
      ".âĢĻ": 3959,
      "Ġrise": 3960,
      "ĠInternet": 3961,
      "Ġslight": 3962,
      "Ġtrou": 3963,
      "Ġpush": 3964,
      "ĠLou": 3965,
      "ented": 3966,
      "Ġcry": 3967,
      "ĠSam": 3968,
      "Ġconcerns": 3969,
      "ĠHillary": 3970,
      "que": 3971,
      "Ġactual": 3972,
      "lick": 3973,
      "ifying": 3974,
      "ĠSanders": 3975,
      "Ġeye": 3976,
      "ĠFlorida": 3977,
      "levision": 3978,
      "ĠYes": 3979,
      "ĠEngland": 3980,
      "vere": 3981,
      "ĠChar": 3982,
      "www": 3983,
      "Ġhappens": 3984,
      "Ġbasic": 3985,
      "Ġwhatever": 3986,
      "earch": 3987,
      "Ġsupposed": 3988,
      "Ġir": 3989,
      "ĠSun": 3990,
      "Ġbirth": 3991,
      "Ġadop": 3992,
      "Ġshut": 3993,
      "Ġensure": 3994,
      "see": 3995,
      "Ġcreating": 3996,
      "Ġabsolute": 3997,
      ".'": 3998,
      "Ġreflect": 3999,
      "Ch": 4000,
      "ribution": 4001,
      "Ġjudge": 4002,
      "Ġappl": 4003,
      "ĠChic": 4004,
      "70": 4005,
      "Ġfreedom": 4006,
      "inated": 4007,
      "Ġtemper": 4008,
      "ĠPre": 4009,
      "EO": 4010,
      "21": 4011,
      "Ð°": 4012,
      "ado": 4013,
      "Ġprices": 4014,
      "Ġpun": 4015,
      "Ġraised": 4016,
      "Ġmechan": 4017,
      "Ġseeing": 4018,
      "Ġpros": 4019,
      "ipped": 4020,
      "ĠStep": 4021,
      "gen": 4022,
      "Ġwait": 4023,
      "Ġmostly": 4024,
      "ya": 4025,
      "Ġdetermin": 4026,
      "Ġnames": 4027,
      "olf": 4028,
      "Ġoffered": 4029,
      "oti": 4030,
      "Ġjump": 4031,
      "Ġrestr": 4032,
      "Ġcommer": 4033,
      "Ġmassive": 4034,
      "Ġarrested": 4035,
      "vest": 4036,
      "Ġstation": 4037,
      "org": 4038,
      "ĠBay": 4039,
      "Ġcommit": 4040,
      "ĠOnce": 4041,
      "Ġweekend": 4042,
      "ae": 4043,
      "Ġbeg": 4044,
      "Ġperm": 4045,
      "Ġproduce": 4046,
      "Ġbehavior": 4047,
      "SA": 4048,
      "ĠPress": 4049,
      "Ġacqu": 4050,
      "Ġfeeling": 4051,
      "Ġrevealed": 4052,
      "roid": 4053,
      "Ġvalues": 4054,
      "Ġwonder": 4055,
      "ĠInstead": 4056,
      "onent": 4057,
      "Ġdrink": 4058,
      "Ġconfirmed": 4059,
      "ram": 4060,
      "Ġdistrict": 4061,
      "Ġteac": 4062,
      "Ġstreet": 4063,
      "Ġfavorite": 4064,
      "ĠAP": 4065,
      "Ġpropos": 4066,
      "Ġchoose": 4067,
      "Ġinstall": 4068,
      "Ġmission": 4069,
      "ota": 4070,
      "Ġbelieved": 4071,
      "Ġresidents": 4072,
      "ĠCommission": 4073,
      "Ġwhom": 4074,
      "rial": 4075,
      "Ġarm": 4076,
      "________": 4077,
      "Ġalbum": 4078,
      "igned": 4079,
      "ĠAtt": 4080,
      "ĠDel": 4081,
      "ĠLiber": 4082,
      "Ġrank": 4083,
      "Ġdevices": 4084,
      "Ġobser": 4085,
      "ĠAre": 4086,
      "ĠMike": 4087,
      "Ġlawy": 4088,
      "Ġscen": 4089,
      "Ġwild": 4090,
      "Ġvac": 4091,
      "ias": 4092,
      "Ġhero": 4093,
      "ĠChicago": 4094,
      "Ġindependent": 4095,
      "500": 4096,
      "ĠPort": 4097,
      "Ġposted": 4098,
      "rol": 4099,
      "ords": 4100,
      "Ġdollars": 4101,
      "Ġapplication": 4102,
      "ava": 4103,
      "ĠAM": 4104,
      "inger": 4105,
      "Ġstrategy": 4106,
      "ĠSecret": 4107,
      "ste": 4108,
      "ĠMil": 4109,
      "Ġbrief": 4110,
      "Ġagreed": 4111,
      "ront": 4112,
      "Ġwilling": 4113,
      "ica": 4114,
      "ĠChris": 4115,
      "Ġchem": 4116,
      "Ġspecies": 4117,
      "istry": 4118,
      "mark": 4119,
      "Ġassault": 4120,
      "icial": 4121,
      "âĢĿ,": 4122,
      "33": 4123,
      "Ġenter": 4124,
      "Ġfat": 4125,
      "ĠSub": 4126,
      "Ġparties": 4127,
      "Ġpicture": 4128,
      "Ġqual": 4129,
      "ING": 4130,
      "Ġrecords": 4131,
      "Ġlearned": 4132,
      "What": 4133,
      "Ġinfluence": 4134,
      "Ġtick": 4135,
      "Ġproduced": 4136,
      "Ġwat": 4137,
      "====": 4138,
      "itude": 4139,
      "acing": 4140,
      "Ġimages": 4141,
      "ĠWall": 4142,
      "ĠWestern": 4143,
      "ags": 4144,
      "Ġmemory": 4145,
      "90": 4146,
      "Ġdebt": 4147,
      "Ġetc": 4148,
      "Ġadult": 4149,
      "orial": 4150,
      "ona": 4151,
      "ĠInc": 4152,
      "ĠTer": 4153,
      "Ġlose": 4154,
      "ĠSl": 4155,
      "cher": 4156,
      "Ġtend": 4157,
      "But": 4158,
      "Ġeth": 4159,
      "ĠUnder": 4160,
      "Ġvirt": 4161,
      "aked": 4162,
      "Ġbenefit": 4163,
      "ĠUs": 4164,
      "Ġopposition": 4165,
      "Ġtrial": 4166,
      "ties": 4167,
      "Ġinvestment": 4168,
      "hicle": 4169,
      "ĠJustice": 4170,
      "Ġadvoc": 4171,
      "Ġasking": 4172,
      "Ġshowing": 4173,
      "Ġlearning": 4174,
      "pri": 4175,
      "icians": 4176,
      "ĠPalest": 4177,
      "ipp": 4178,
      "arliam": 4179,
      "ĠSecurity": 4180,
      "Ġoperations": 4181,
      "uana": 4182,
      "Ġmount": 4183,
      "ĠRel": 4184,
      "Ġweight": 4185,
      "ĠVir": 4186,
      "ĠBank": 4187,
      "ĠTre": 4188,
      "Ġdire": 4189,
      "ĠPri": 4190,
      "aby": 4191,
      "Ġcru": 4192,
      "Ġprovides": 4193,
      "Ġinterested": 4194,
      "Ġcars": 4195,
      "ĠFrank": 4196,
      "orrow": 4197,
      "Ġmer": 4198,
      "ĠRo": 4199,
      "estic": 4200,
      "ãĤ": 4201,
      "gers": 4202,
      "udd": 4203,
      "ĠAny": 4204,
      "ĠMad": 4205,
      "Ġpattern": 4206,
      "Ġsolution": 4207,
      "Ġice": 4208,
      "Ġsection": 4209,
      "ĠNFL": 4210,
      "Ġcritical": 4211,
      "Ġsleep": 4212,
      "Ð¾": 4213,
      "Ġrat": 4214,
      "Ġworse": 4215,
      "no": 4216,
      "ĠFrancis": 4217,
      "ĠCommun": 4218,
      "Ġdigital": 4219,
      "gu": 4220,
      "abor": 4221,
      "Ġsurround": 4222,
      "And": 4223,
      "Ġeffective": 4224,
      "That": 4225,
      "Ġmale": 4226,
      "ĠMal": 4227,
      "Ġneighbor": 4228,
      "arliament": 4229,
      "rian": 4230,
      "mine": 4231,
      "ĠTy": 4232,
      "Ġdefend": 4233,
      "Ġcore": 4234,
      "rav": 4235,
      "ection": 4236,
      "Ġmur": 4237,
      "Ġreplace": 4238,
      "Ġlimit": 4239,
      "ĠFound": 4240,
      "ĠGame": 4241,
      "ĠGreat": 4242,
      "ĠAc": 4243,
      "ĠUN": 4244,
      "Ġbrand": 4245,
      "ĠDirect": 4246,
      "Ġgenerally": 4247,
      "ĠCanadian": 4248,
      "Ġresponsible": 4249,
      "ĠCommittee": 4250,
      "Ġruns": 4251,
      "Ġresist": 4252,
      "Ġexplained": 4253,
      "ĠMicro": 4254,
      "Ġchair": 4255,
      "Ġtypes": 4256,
      "cell": 4257,
      "ription": 4258,
      "Ġdream": 4259,
      "Ġcoal": 4260,
      "cript": 4261,
      "ocr": 4262,
      "Ġkick": 4263,
      "point": 4264,
      "well": 4265,
      "ĠWil": 4266,
      "ĠThose": 4267,
      "Ġ80": 4268,
      "ĠBig": 4269,
      "Ġship": 4270,
      "Ġthus": 4271,
      "ograph": 4272,
      "Ġoccas": 4273,
      "Ġvill": 4274,
      "Ġtheory": 4275,
      "ĠRobert": 4276,
      "RE": 4277,
      "lands": 4278,
      "Ġunderstanding": 4279,
      "Ġjoin": 4280,
      "ĠLeg": 4281,
      "Ġborder": 4282,
      "bert": 4283,
      "coming": 4284,
      "Ġopinion": 4285,
      "otten": 4286,
      "Al": 4287,
      "Ġteach": 4288,
      "Ġtrain": 4289,
      "orthern": 4290,
      "Ġheavy": 4291,
      "ios": 4292,
      "Ġmillions": 4293,
      "ĠHall": 4294,
      "Ġonto": 4295,
      "Ġpartners": 4296,
      "outhern": 4297,
      "Ġhighest": 4298,
      "Ġproposed": 4299,
      "Ġdaily": 4300,
      "ĠKorea": 4301,
      "Ġopening": 4302,
      "ĠBritain": 4303,
      "Ġoffers": 4304,
      "AD": 4305,
      "Ġbottom": 4306,
      "Ġ31": 4307,
      "illing": 4308,
      "Ġnotice": 4309,
      "Ġbecoming": 4310,
      "ĠSee": 4311,
      "Ġcondition": 4312,
      "ĠToday": 4313,
      "ĠPhoto": 4314,
      "Ġbecomes": 4315,
      "ĠProf": 4316,
      "cont": 4317,
      "Ġobtain": 4318,
      "ĠThom": 4319,
      "soft": 4320,
      "Ġdestroy": 4321,
      "IL": 4322,
      "ĠOffice": 4323,
      "ĠCup": 4324,
      "ĠBoth": 4325,
      "Ġillegal": 4326,
      "Ġbed": 4327,
      "Ġdefe": 4328,
      "Ġphoto": 4329,
      "ĠMedic": 4330,
      "ijuana": 4331,
      "Ġseparate": 4332,
      "Ġadvantage": 4333,
      "Ġserved": 4334,
      "Ġhundreds": 4335,
      "Ġbasis": 4336,
      "Ġvs": 4337,
      "Ġreduce": 4338,
      "Ġlegislation": 4339,
      "Ġcoverage": 4340,
      "Ðµ": 4341,
      "Ġepisode": 4342,
      "Ġextremely": 4343,
      "ih": 4344,
      "Ġreject": 4345,
      "ĠCle": 4346,
      "Ġspl": 4347,
      "Ġwinning": 4348,
      "Ġserve": 4349,
      "Ġtelevision": 4350,
      "Ġstructure": 4351,
      "ictions": 4352,
      "Ġassum": 4353,
      "Ġstrik": 4354,
      "equ": 4355,
      "Ġopened": 4356,
      "icip": 4357,
      "Ġload": 4358,
      "Ġscientists": 4359,
      "Ġunlike": 4360,
      "Ġhearing": 4361,
      "oly": 4362,
      "Ġnine": 4363,
      "ĠWindows": 4364,
      "ĠMer": 4365,
      "Ġstated": 4366,
      "Ġannounce": 4367,
      "Ġcamera": 4368,
      "azing": 4369,
      "ĠSil": 4370,
      "ĠUk": 4371,
      "Ġputting": 4372,
      "Ġachieve": 4373,
      "Ġaccused": 4374,
      "Ġborn": 4375,
      "Ġmiles": 4376,
      "44": 4377,
      "Ġcontrovers": 4378,
      "atically": 4379,
      "ĠJohnson": 4380,
      "Ġvehicle": 4381,
      "Ġ35": 4382,
      "ĠSur": 4383,
      "ĠFBI": 4384,
      "Ġtransfer": 4385,
      "uries": 4386,
      "Ġamb": 4387,
      "andon": 4388,
      "Ġmarriage": 4389,
      "house": 4390,
      "ĠSup": 4391,
      "Ġaspect": 4392,
      "Ġnegative": 4393,
      "Ġshared": 4394,
      "Ġinitial": 4395,
      "ulf": 4396,
      "Ġcateg": 4397,
      "Ġmachine": 4398,
      "Ġfit": 4399,
      "known": 4400,
      "Ġcancer": 4401,
      "za": 4402,
      "ĠKh": 4403,
      "Ġran": 4404,
      "iliar": 4405,
      "Ġprofessional": 4406,
      "Ġbomb": 4407,
      "iller": 4408,
      "Ġharm": 4409,
      "Ġdepartment": 4410,
      "Ġdocuments": 4411,
      "Ġcells": 4412,
      "Ġ2006": 4413,
      "Ġinsurance": 4414,
      "Ġinstance": 4415,
      "Ġder": 4416,
      "ĠChurch": 4417,
      "Ġpurpose": 4418,
      "Ġbelief": 4419,
      "Ġinternet": 4420,
      "Ġreturned": 4421,
      "Ġeasier": 4422,
      "Ġhack": 4423,
      "ĠDespite": 4424,
      "Ġincred": 4425,
      "ĠGree": 4426,
      "Ġactive": 4427,
      "zen": 4428,
      "Ġmanagement": 4429,
      "eline": 4430,
      "Ġassociated": 4431,
      "Ġ90": 4432,
      "Ġtraffic": 4433,
      "Ġnegoti": 4434,
      "Ġpurs": 4435,
      "Ġsun": 4436,
      "acity": 4437,
      "ĠFox": 4438,
      "Ġmap": 4439,
      "ĠOut": 4440,
      "ipe": 4441,
      "ĠLos": 4442,
      "ĠJud": 4443,
      "ĠInter": 4444,
      "Ġaudience": 4445,
      "Ġanimals": 4446,
      "Ġsolid": 4447,
      "Ġlabor": 4448,
      "Ġsupported": 4449,
      "ĠSal": 4450,
      "ĠJeff": 4451,
      "ĠQue": 4452,
      "GB": 4453,
      "ugg": 4454,
      "Ġfresh": 4455,
      "Ġdism": 4456,
      "Ġdriver": 4457,
      "Ġge": 4458,
      "Ġexisting": 4459,
      "ĠTheir": 4460,
      "Ġsupporters": 4461,
      "Ġlocation": 4462,
      "aks": 4463,
      "ortunately": 4464,
      "ĠIsraeli": 4465,
      "witch": 4466,
      "ĠVer": 4467,
      "Ġdouble": 4468,
      "Ġvictims": 4469,
      "Ġdoubt": 4470,
      "ĠYet": 4471,
      "BA": 4472,
      "Ġleadership": 4473,
      "Ġdaughter": 4474,
      "Ġfloor": 4475,
      "works": 4476,
      "Ġspoke": 4477,
      "ghan": 4478,
      "Ġchurch": 4479,
      "iful": 4480,
      "ander": 4481,
      "Ġwealth": 4482,
      "ĠIslamic": 4483,
      "Ġnotes": 4484,
      "ĠGood": 4485,
      "ĠMet": 4486,
      "Ġdangerous": 4487,
      "istics": 4488,
      "Ġclosed": 4489,
      "Ġcharged": 4490,
      "ĠInstitute": 4491,
      "Ġwatching": 4492,
      "Ġissued": 4493,
      "Ġentirely": 4494,
      "0000": 4495,
      "going": 4496,
      "36": 4497,
      "Ġfaith": 4498,
      "Ġded": 4499,
      "Ġcommunities": 4500,
      "Ġsites": 4501,
      "ĠTim": 4502,
      "Ġvictory": 4503,
      "Ġitems": 4504,
      "ĠMiss": 4505,
      "Ġenforcement": 4506,
      "Ġnor": 4507,
      "do": 4508,
      "anted": 4509,
      "Ġcomfort": 4510,
      "OU": 4511,
      "Ġrepeated": 4512,
      "ears": 4513,
      "Ġcards": 4514,
      "Ġframe": 4515,
      "ĠWho": 4516,
      "Ġexplain": 4517,
      "Ġelectric": 4518,
      "ĠConf": 4519,
      "actions": 4520,
      "Ġviews": 4521,
      "Ġradio": 4522,
      "ius": 4523,
      "ĠFe": 4524,
      "inct": 4525,
      "ibrary": 4526,
      "Ġfalse": 4527,
      "Ġrefere": 4528,
      "rey": 4529,
      "ĠRichard": 4530,
      "Ġcompar": 4531,
      "odes": 4532,
      "ography": 4533,
      "CC": 4534,
      "how": 4535,
      "ctors": 4536,
      "Ġmax": 4537,
      "ĠMP": 4538,
      "Ġcommittee": 4539,
      "Ġlaunched": 4540,
      "gency": 4541,
      "Ġconservative": 4542,
      "Ġnovel": 4543,
      "Ġargument": 4544,
      "Ġ70": 4545,
      "ĠBack": 4546,
      "ĠST": 4547,
      "Ġbackground": 4548,
      "Ġjoined": 4549,
      "Ġ2005": 4550,
      "tered": 4551,
      "hem": 4552,
      "Ġsurface": 4553,
      "ait": 4554,
      "Ġdefinitely": 4555,
      "van": 4556,
      "ĠPlease": 4557,
      "ĠCarol": 4558,
      "Ġholding": 4559,
      "Ġexperiment": 4560,
      "Ġrequires": 4561,
      "Ġconcerned": 4562,
      "NA": 4563,
      "Ġnorth": 4564,
      "Ġhus": 4565,
      "ĠJim": 4566,
      "Ġunit": 4567,
      "ĠKen": 4568,
      "Ġcommercial": 4569,
      "Ġdriving": 4570,
      "resp": 4571,
      "ga": 4572,
      "imb": 4573,
      "azon": 4574,
      "Ġbelieves": 4575,
      "37": 4576,
      "ishment": 4577,
      "isation": 4578,
      "Ġtrend": 4579,
      "ĠBitcoin": 4580,
      "OL": 4581,
      "Ġcompetition": 4582,
      "32": 4583,
      "oms": 4584,
      "ribute": 4585,
      "FC": 4586,
      "met": 4587,
      "SP": 4588,
      "Ġoccup": 4589,
      "Ġtelling": 4590,
      "ĠCur": 4591,
      "Ġsuggested": 4592,
      "ĠJones": 4593,
      "Ġfinding": 4594,
      "Ġconstruction": 4595,
      "ĠGroup": 4596,
      "Ġsmaller": 4597,
      "Ġhair": 4598,
      "Ġwitness": 4599,
      "Ġphotos": 4600,
      "iling": 4601,
      "Ġwel": 4602,
      "ĠVirgin": 4603,
      "ĠUkrain": 4604,
      "Ġdiscovered": 4605,
      "ĠFore": 4606,
      "Ġallowing": 4607,
      "Ġplease": 4608,
      "Ġtools": 4609,
      "Ġmobile": 4610,
      "Ġdecade": 4611,
      "Ġjustice": 4612,
      "!âĢĿ": 4613,
      "Ġsan": 4614,
      "Ġkid": 4615,
      "Ġrestaur": 4616,
      "ĠJo": 4617,
      "Ġconcern": 4618,
      "Ġeat": 4619,
      "Ġtim": 4620,
      "ource": 4621,
      "Ġblue": 4622,
      "Ġbanks": 4623,
      "owl": 4624,
      "Ġgeneration": 4625,
      "arant": 4626,
      "overy": 4627,
      "Ġguess": 4628,
      "Ġplanning": 4629,
      "Ġhousing": 4630,
      "Ġdie": 4631,
      "ĠLouis": 4632,
      "Ġdirection": 4633,
      "Ġattend": 4634,
      "ĠSupreme": 4635,
      "ampionship": 4636,
      "Ġtruly": 4637,
      "Ġbusinesses": 4638,
      "Ġworst": 4639,
      "Ġannual": 4640,
      "nel": 4641,
      "itable": 4642,
      "night": 4643,
      "oman": 4644,
      "iest": 4645,
      "Ġdownload": 4646,
      "Ġdrugs": 4647,
      "Ġlength": 4648,
      "Ġlargely": 4649,
      "ada": 4650,
      "Ġstock": 4651,
      "Ġspirit": 4652,
      "ĠNor": 4653,
      "ĠAssociation": 4654,
      "Ġcash": 4655,
      "ĠPC": 4656,
      "48": 4657,
      "Ġphil": 4658,
      "Ġcaught": 4659,
      "Ġstrength": 4660,
      "Ġfarm": 4661,
      "Ġrough": 4662,
      "Ġmurder": 4663,
      "gl": 4664,
      "Ġplays": 4665,
      "Ġhomes": 4666,
      "which": 4667,
      "ulated": 4668,
      "ĠMexico": 4669,
      "Ġraise": 4670,
      "Ġcontain": 4671,
      "Ġcontext": 4672,
      "itz": 4673,
      "ĠRyan": 4674,
      "ĠPM": 4675,
      "Ġolder": 4676,
      "Ġexerc": 4677,
      "ici": 4678,
      "izes": 4679,
      "ĠMary": 4680,
      "Ġafford": 4681,
      "ĠAfrican": 4682,
      "phone": 4683,
      "Ġwaiting": 4684,
      "Ġpresence": 4685,
      "55": 4686,
      "apped": 4687,
      "Ġplaced": 4688,
      "NN": 4689,
      "Ġconsequ": 4690,
      "igan": 4691,
      "Ġearth": 4692,
      "Ġfuel": 4693,
      "Ġrecommend": 4694,
      "la": 4695,
      "anging": 4696,
      "Ġmissing": 4697,
      "ĠConst": 4698,
      "rim": 4699,
      "icy": 4700,
      "ĠAfghan": 4701,
      "vention": 4702,
      "hi": 4703,
      "Ġuseful": 4704,
      "Ġtransport": 4705,
      "Ġalleg": 4706,
      "ĠRem": 4707,
      "bour": 4708,
      "ĠBur": 4709,
      "38": 4710,
      "Ġactivities": 4711,
      "Ġgirls": 4712,
      "ossible": 4713,
      "ĠArmy": 4714,
      "Ġproviding": 4715,
      "ĠThomas": 4716,
      "Ġstrateg": 4717,
      "Ġestablished": 4718,
      "ĠPalestin": 4719,
      "ĠGovernment": 4720,
      "Ġbul": 4721,
      "ception": 4722,
      "lant": 4723,
      "annel": 4724,
      "ancy": 4725,
      "Ġobs": 4726,
      "Ġarrived": 4727,
      "Ġcatch": 4728,
      "ĠJapanese": 4729,
      "inter": 4730,
      "azine": 4731,
      "osure": 4732,
      "ĠMont": 4733,
      "Ġcandidates": 4734,
      "Ġstopped": 4735,
      "Ġowner": 4736,
      "verse": 4737,
      "Ġscale": 4738,
      "Ġaccur": 4739,
      "but": 4740,
      "oyal": 4741,
      "andom": 4742,
      "asy": 4743,
      "47": 4744,
      "Ġmentioned": 4745,
      "ĠMicrosoft": 4746,
      "ĠPak": 4747,
      "Ġmarijuana": 4748,
      "Ġ2018": 4749,
      "Ġidentified": 4750,
      "Ġcircum": 4751,
      "Ġspokesman": 4752,
      "Ġdecisions": 4753,
      "ĠMartin": 4754,
      "Ġ2000": 4755,
      "Ġdat": 4756,
      "Ġtask": 4757,
      "oted": 4758,
      "Ġcook": 4759,
      "vered": 4760,
      "Ġtesting": 4761,
      "ãĥ": 4762,
      "Ġskills": 4763,
      "Ġdisease": 4764,
      "TC": 4765,
      "ĠTeam": 4766,
      "Ġconversation": 4767,
      "Ġdeliver": 4768,
      "ication": 4769,
      "ĠTHE": 4770,
      "ĠColle": 4771,
      "ĠDec": 4772,
      "pective": 4773,
      "Ġtells": 4774,
      "Ġtaxes": 4775,
      "ĠResearch": 4776,
      "ocracy": 4777,
      "urb": 4778,
      "cknow": 4779,
      "cient": 4780,
      "Ġcrew": 4781,
      "kin": 4782,
      "ading": 4783,
      "fe": 4784,
      "49": 4785,
      "ady": 4786,
      "ĠCEO": 4787,
      "icles": 4788,
      "semb": 4789,
      "Ġfunds": 4790,
      "ĠRock": 4791,
      "Ġintroduced": 4792,
      "Ġinterests": 4793,
      "wing": 4794,
      "what": 4795,
      "bre": 4796,
      "vant": 4797,
      "Ġconnection": 4798,
      "!!!!!!!!": 4799,
      "Ġrelatively": 4800,
      "ario": 4801,
      "Ġgay": 4802,
      "onto": 4803,
      "39": 4804,
      "Ġsequ": 4805,
      "Ġupdate": 4806,
      "ĠAfrica": 4807,
      "Ġmeasures": 4808,
      "Ġconflict": 4809,
      "Ġoffensive": 4810,
      "gypt": 4811,
      "Ġaggress": 4812,
      "Ġstick": 4813,
      "ests": 4814,
      "isf": 4815,
      "Ġfigh": 4816,
      "ĠPublic": 4817,
      "ĠIr": 4818,
      "Ġiniti": 4819,
      "issions": 4820,
      "Ġslightly": 4821,
      "icon": 4822,
      "ications": 4823,
      "ĠAngeles": 4824,
      "adium": 4825,
      "ĠRub": 4826,
      "Ġidentity": 4827,
      "Ġconclud": 4828,
      "Ġcommitted": 4829,
      "gar": 4830,
      "Ġmicro": 4831,
      "Ġfocused": 4832,
      "Ġaward": 4833,
      "rees": 4834,
      "Ġsust": 4835,
      "Ġfle": 4836,
      "Ġdetect": 4837,
      "ĠHoll": 4838,
      "Ġsteps": 4839,
      "Ġtherefore": 4840,
      "kins": 4841,
      "Ġfant": 4842,
      "Ġnewsp": 4843,
      "aven": 4844,
      "Ġsetting": 4845,
      "****": 4846,
      "ĠStr": 4847,
      "Ġassess": 4848,
      "ĠJose": 4849,
      "ĠPrime": 4850,
      "Ġhasn": 4851,
      "Ġfailure": 4852,
      "eal": 4853,
      "dden": 4854,
      "Ġcommission": 4855,
      "Ġfeels": 4856,
      "ĠFed": 4857,
      "ocal": 4858,
      "Ġremoved": 4859,
      "mas": 4860,
      "Ġmanaged": 4861,
      "lor": 4862,
      "BS": 4863,
      "ulate": 4864,
      "Ġplanet": 4865,
      "real": 4866,
      "ups": 4867,
      "Ġstrike": 4868,
      "Ġobvious": 4869,
      "Ġsouth": 4870,
      "agn": 4871,
      "Ġrefuge": 4872,
      "win": 4873,
      "ĠMars": 4874,
      "Ġsurvey": 4875,
      "Ġkeeping": 4876,
      "âĢľ": 4877,
      "cks": 4878,
      "ĠGOP": 4879,
      "Ġtough": 4880,
      "Don": 4881,
      "Ġenvironmental": 4882,
      "iot": 4883,
      "ĠBern": 4884,
      "ancing": 4885,
      "Ġotherwise": 4886,
      "Ġfourth": 4887,
      "Ġpartner": 4888,
      "Ġprotection": 4889,
      "ĠPet": 4890,
      "illa": 4891,
      "ucky": 4892,
      "PA": 4893,
      "ĠJewish": 4894,
      "Ġappropri": 4895,
      "Ġstandards": 4896,
      "eless": 4897,
      "itutional": 4898,
      "!\"": 4899,
      "umn": 4900,
      "ĠTime": 4901,
      "ula": 4902,
      "onym": 4903,
      "Ġneighborhood": 4904,
      "ĠSol": 4905,
      "Ġbeer": 4906,
      "Ġ32": 4907,
      "Ġinjury": 4908,
      "Ġhusband": 4909,
      "cious": 4910,
      "ĠJon": 4911,
      "Ġterrit": 4912,
      "eah": 4913,
      "uke": 4914,
      "cription": 4915,
      "Ġappoint": 4916,
      "EM": 4917,
      "abb": 4918,
      "ĠCamp": 4919,
      "ĠAmazon": 4920,
      "CH": 4921,
      "ronic": 4922,
      "Ġoperation": 4923,
      "Ġmodels": 4924,
      "ĠOpen": 4925,
      "ST": 4926,
      "pet": 4927,
      "Ġcorner": 4928,
      "ĠSecretary": 4929,
      "Ġacknow": 4930,
      "Ġplanned": 4931,
      "enses": 4932,
      "outs": 4933,
      "ĠBet": 4934,
      "uct": 4935,
      "Ġpet": 4936,
      "rad": 4937,
      "Ġmere": 4938,
      "Ġ2004": 4939,
      "ĠPhot": 4940,
      "Ġsuggests": 4941,
      "Ġorganizations": 4942,
      "place": 4943,
      "Ġseconds": 4944,
      "Ġprefer": 4945,
      "Ġnone": 4946,
      "ĠSyrian": 4947,
      "ĠEgypt": 4948,
      "lig": 4949,
      "Ġkilling": 4950,
      "Ġsudden": 4951,
      "Ġdiscussion": 4952,
      "odies": 4953,
      "Ġclick": 4954,
      "Ġheat": 4955,
      "Ġtalks": 4956,
      "Ġfamiliar": 4957,
      "aded": 4958,
      "Ġtransform": 4959,
      "Ġsupply": 4960,
      "Ġfigures": 4961,
      "ĠJoe": 4962,
      "aren": 4963,
      "ansion": 4964,
      "Ġsports": 4965,
      "Ġdepend": 4966,
      "Ġveter": 4967,
      "Ġaccounts": 4968,
      "Ġspect": 4969,
      "ĠPlan": 4970,
      "Ġstruct": 4971,
      "Ġprofessor": 4972,
      "Ġdefensive": 4973,
      "Ġrich": 4974,
      "rency": 4975,
      "ĠAndroid": 4976,
      "Ġwish": 4977,
      "ĠFire": 4978,
      "hedul": 4979,
      "Ġroll": 4980,
      "itect": 4981,
      "Ġabuse": 4982,
      "Ġhappening": 4983,
      "Ã¡": 4984,
      "obby": 4985,
      "erous": 4986,
      "Ġstanding": 4987,
      "Ġimmigration": 4988,
      "Ġelements": 4989,
      "makers": 4990,
      "iser": 4991,
      "Ġremind": 4992,
      "rick": 4993,
      "ĠPut": 4994,
      "Ġweak": 4995,
      "ĠService": 4996,
      "spe": 4997,
      "season": 4998,
      "Ġflight": 4999,
      "Ġdecide": 5000,
      "Ġanimal": 5001,
      "Ġexchange": 5002,
      "Ġdropped": 5003,
      "ĠCollege": 5004,
      "Ġprinc": 5005,
      "ka": 5006,
      "Ġguard": 5007,
      "prof": 5008,
      "Ġfiles": 5009,
      "ynam": 5010,
      "ĠCentral": 5011,
      "##": 5012,
      "Ġgain": 5013,
      "ortion": 5014,
      "Ġhelping": 5015,
      "Ġfiled": 5016,
      "Ġfinished": 5017,
      "Ġamazing": 5018,
      "When": 5019,
      "âĢĶâĢĶâĢĶâĢĶ": 5020,
      "Ġturns": 5021,
      "uters": 5022,
      "Ġrevolution": 5023,
      "Ġscientific": 5024,
      "Ġcollection": 5025,
      "DA": 5026,
      "upp": 5027,
      "Ġtrip": 5028,
      "Ġphilos": 5029,
      "ĠToronto": 5030,
      "ĠPeter": 5031,
      "Ġunits": 5032,
      "Ġmulti": 5033,
      "Ġskin": 5034,
      "ĠMedia": 5035,
      "amm": 5036,
      "Ġvariety": 5037,
      "Ġmigr": 5038,
      "ĠFederal": 5039,
      "ĠSocial": 5040,
      "].": 5041,
      "Ġreligion": 5042,
      "Ġstarts": 5043,
      "34": 5044,
      "Ġtweet": 5045,
      "uate": 5046,
      "ĠFree": 5047,
      "ĠBefore": 5048,
      "anda": 5049,
      "Ġthanks": 5050,
      "ĠDan": 5051,
      "ĠEv": 5052,
      "oston": 5053,
      "stein": 5054,
      "ĠWatch": 5055,
      "Ġagencies": 5056,
      "Ġcarried": 5057,
      "Ġfellow": 5058,
      "rig": 5059,
      "ĠImages": 5060,
      "Ġdomestic": 5061,
      "Ġspeaking": 5062,
      "Ġtransl": 5063,
      "Ġmental": 5064,
      "Ġsides": 5065,
      "Ġcuts": 5066,
      "Ġtests": 5067,
      "Ġworry": 5068,
      "Ġbigger": 5069,
      "stream": 5070,
      "RA": 5071,
      "Ġschedul": 5072,
      "ĠLat": 5073,
      "Ġtwice": 5074,
      "Ġ45": 5075,
      "with": 5076,
      "reci": 5077,
      "ĠUSA": 5078,
      "ĠMass": 5079,
      "ĠDen": 5080,
      "Ġacadem": 5081,
      "rie": 5082,
      "ĠChief": 5083,
      "acks": 5084,
      "agues": 5085,
      "ĠConserv": 5086,
      "Ġincreasingly": 5087,
      "Ġsolar": 5088,
      "No": 5089,
      "hens": 5090,
      "Ġhonest": 5091,
      "Ġpair": 5092,
      "Ġimpossible": 5093,
      "ĠBook": 5094,
      "Ġpaying": 5095,
      "Ġvast": 5096,
      "isher": 5097,
      "ym": 5098,
      "PS": 5099,
      "Ġcovered": 5100,
      "ano": 5101,
      "gn": 5102,
      "Ġseeking": 5103,
      "Ġinnov": 5104,
      "Ġalternative": 5105,
      "Ġbalance": 5106,
      "Ġcold": 5107,
      "ĠLee": 5108,
      "ĠSing": 5109,
      "Ġcorporate": 5110,
      "Ġdegree": 5111,
      "Ġunivers": 5112,
      "Ġhumans": 5113,
      "Ġcapacity": 5114,
      "ĠMean": 5115,
      "Ġlosing": 5116,
      "Ġwindow": 5117,
      "78": 5118,
      "hicles": 5119,
      "Ġbatter": 5120,
      "Ġforest": 5121,
      "Ġ;": 5122,
      "ĠJes": 5123,
      "ĠDistrict": 5124,
      "Ġhttps": 5125,
      "Ġabsolutely": 5126,
      "Ġtast": 5127,
      "Ġdin": 5128,
      "ĠWeb": 5129,
      "rastructure": 5130,
      "Ġscript": 5131,
      "Ġequip": 5132,
      "Ġarmy": 5133,
      "Ġhate": 5134,
      "ĠEr": 5135,
      "Ġmut": 5136,
      "Ġfundament": 5137,
      "Ġultimately": 5138,
      "Ġshall": 5139,
      "anche": 5140,
      "Ġpossibly": 5141,
      "Ġvotes": 5142,
      "Is": 5143,
      "Ġunless": 5144,
      "Ġmarkets": 5145,
      "ĠMiddle": 5146,
      "Ġdevelopers": 5147,
      "Ġsounds": 5148,
      "Ġdeveloping": 5149,
      "icide": 5150,
      "ĠFoundation": 5151,
      "ĠAN": 5152,
      "Ġapply": 5153,
      "Ġchanging": 5154,
      "ola": 5155,
      "under": 5156,
      "Ġauthority": 5157,
      "Ġsoldiers": 5158,
      "Ġapparently": 5159,
      "war": 5160,
      "Ġsitting": 5161,
      "ĠMel": 5162,
      "Ġunion": 5163,
      "Ġ195": 5164,
      "isted": 5165,
      "64": 5166,
      "ĠVirginia": 5167,
      "ĠJournal": 5168,
      "apers": 5169,
      "Ġexpensive": 5170,
      "awn": 5171,
      "Ġgar": 5172,
      "Ġpossibility": 5173,
      "enced": 5174,
      "Ġattorney": 5175,
      "state": 5176,
      "Ġpresented": 5177,
      "ores": 5178,
      "Ġscr": 5179,
      "AA": 5180,
      "Ġlived": 5181,
      "ĠAri": 5182,
      "Ġfamous": 5183,
      "Ġintended": 5184,
      "lets": 5185,
      "ashed": 5186,
      "Ġimagine": 5187,
      "ĠSher": 5188,
      "ipping": 5189,
      "ĠTop": 5190,
      "Ġvision": 5191,
      "Ġregarding": 5192,
      "Ġfired": 5193,
      "ĠProt": 5194,
      "Ġoptim": 5195,
      "ĠWhe": 5196,
      "roud": 5197,
      "Ġcloser": 5198,
      "ruit": 5199,
      "Ġstreets": 5200,
      "Ġque": 5201,
      "ĠSpr": 5202,
      "aine": 5203,
      "75": 5204,
      "ĠFrancisco": 5205,
      "ĠBoston": 5206,
      "Ġconsult": 5207,
      "Ġhealthy": 5208,
      "cons": 5209,
      "pay": 5210,
      "Ġguarant": 5211,
      "Ġodd": 5212,
      "Ġfactors": 5213,
      "ĠCarolina": 5214,
      "Ġflow": 5215,
      "Ġdomin": 5216,
      "uration": 5217,
      "rible": 5218,
      "Ġpil": 5219,
      "Ġexpert": 5220,
      "ĠGuard": 5221,
      "Ġapart": 5222,
      "vis": 5223,
      "Ġarms": 5224,
      "Ġbroke": 5225,
      "ĠIN": 5226,
      "Ġoccurred": 5227,
      "atures": 5228,
      "Ġapplications": 5229,
      "arks": 5230,
      "Ġprosecut": 5231,
      "mail": 5232,
      "Ġexperts": 5233,
      "ĠAtlant": 5234,
      "Ġpieces": 5235,
      "ĠOnly": 5236,
      "Ġrapid": 5237,
      "Ġchemical": 5238,
      "pret": 5239,
      "ĠSum": 5240,
      "Ġprime": 5241,
      "Ġbroken": 5242,
      "Ġruling": 5243,
      "Ġtack": 5244,
      "Ġoperating": 5245,
      "Americ": 5246,
      "Ġlands": 5247,
      "65": 5248,
      "osen": 5249,
      "related": 5250,
      "ocol": 5251,
      "ĠRE": 5252,
      "Ġbeautiful": 5253,
      "ĠWilliams": 5254,
      "Ġwriter": 5255,
      "Ġsurprise": 5256,
      "ean": 5257,
      "ĠMem": 5258,
      "ĠBBC": 5259,
      "Ġdeploy": 5260,
      "Ġton": 5261,
      "porary": 5262,
      "ĠMur": 5263,
      "pm": 5264,
      "Ġrid": 5265,
      "ĠGal": 5266,
      "01": 5267,
      "sen": 5268,
      "ĠThough": 5269,
      "HL": 5270,
      "look": 5271,
      "Ġcouncil": 5272,
      "Ġinternal": 5273,
      "pire": 5274,
      "Ġtrail": 5275,
      "ĠSteve": 5276,
      "ĠParis": 5277,
      "Ġerror": 5278,
      "Ġtroops": 5279,
      "person": 5280,
      "ologies": 5281,
      "Ġtourn": 5282,
      "Ġfif": 5283,
      "coh": 5284,
      "ĠEach": 5285,
      "Ã¤": 5286,
      "95": 5287,
      "Ġbreat": 5288,
      "IR": 5289,
      "Ġbrow": 5290,
      "ours": 5291,
      "Re": 5292,
      "Ġbringing": 5293,
      "run": 5294,
      "ĠCath": 5295,
      "Ġinstit": 5296,
      "Ġexclus": 5297,
      "For": 5298,
      "Ġvehicles": 5299,
      "ĠMos": 5300,
      "Ġhelps": 5301,
      "Ġpit": 5302,
      "uster": 5303,
      "Ġgovernments": 5304,
      "ĠOk": 5305,
      "Ġrevenue": 5306,
      "idden": 5307,
      "Ġvul": 5308,
      "och": 5309,
      "phas": 5310,
      "Ġsea": 5311,
      "oving": 5312,
      "()": 5313,
      "Ġstars": 5314,
      "ader": 5315,
      "Ġforms": 5316,
      "Ġelected": 5317,
      "Ġadjust": 5318,
      "Ġdetermine": 5319,
      "Ġcas": 5320,
      "Ġplus": 5321,
      "Ġresponsibility": 5322,
      "Ġfol": 5323,
      "Ġspecifically": 5324,
      "raud": 5325,
      "ĠSecond": 5326,
      "ĠAustralian": 5327,
      "Ġequipment": 5328,
      "Ġseasons": 5329,
      "ĠSupp": 5330,
      "Ġcarbon": 5331,
      "ĠSign": 5332,
      "Ġheav": 5333,
      "Ġprepared": 5334,
      "arp": 5335,
      "Ġhun": 5336,
      "ils": 5337,
      "Ġelections": 5338,
      "Ġid": 5339,
      "standing": 5340,
      "Ġgender": 5341,
      "col": 5342,
      "cean": 5343,
      "ĠRiver": 5344,
      "ocking": 5345,
      "Ġherself": 5346,
      "Ġestimated": 5347,
      "Ġconducted": 5348,
      "terday": 5349,
      "ĠHist": 5350,
      "ĠStill": 5351,
      "reens": 5352,
      "apter": 5353,
      "ĠVe": 5354,
      "Ġsecure": 5355,
      "hand": 5356,
      "Ġvoted": 5357,
      "Ġequal": 5358,
      "Ġminimum": 5359,
      "yr": 5360,
      "ĠRad": 5361,
      "Ġprivacy": 5362,
      "ĠNAS": 5363,
      "Ġconvention": 5364,
      "OW": 5365,
      "ressive": 5366,
      "Ġreduced": 5367,
      "Ġinfrastructure": 5368,
      "Ġbought": 5369,
      "Ġvir": 5370,
      "Ġsector": 5371,
      "Ġserver": 5372,
      "Ġremained": 5373,
      "Ġdram": 5374,
      "Ġsymb": 5375,
      "class": 5376,
      "Ġweapon": 5377,
      "Ġstret": 5378,
      "Ġsale": 5379,
      "Ġoffering": 5380,
      "Ġhurt": 5381,
      "Ġplants": 5382,
      "ĠHol": 5383,
      "Ġsch": 5384,
      "Ġclin": 5385,
      "rier": 5386,
      "DP": 5387,
      "ĠShow": 5388,
      "IP": 5389,
      "ĠAbout": 5390,
      "etic": 5391,
      "oty": 5392,
      "ĠHuman": 5393,
      "ruption": 5394,
      "Ġregime": 5395,
      "life": 5396,
      "asp": 5397,
      "Ġ1990": 5398,
      "Ġsport": 5399,
      "clusion": 5400,
      "ĠCru": 5401,
      "Ġrefused": 5402,
      "Ġcart": 5403,
      "centr": 5404,
      "IG": 5405,
      "Ġboost": 5406,
      "Ġweren": 5407,
      "Ġaffected": 5408,
      "ĠLabour": 5409,
      "Ġmort": 5410,
      "Ġproposal": 5411,
      "Ġgreatest": 5412,
      "Ġast": 5413,
      "Ġcombat": 5414,
      "Ġwearing": 5415,
      "Ġteen": 5416,
      "ĠAT": 5417,
      "ĠWork": 5418,
      "Ġshape": 5419,
      "Ġminute": 5420,
      "noon": 5421,
      "ĠStan": 5422,
      "ĠAndrew": 5423,
      "xual": 5424,
      "Ġec": 5425,
      "olved": 5426,
      "ĠHaw": 5427,
      "Ġprove": 5428,
      "alls": 5429,
      "Ġtact": 5430,
      "ini": 5431,
      "Ĥ¬": 5432,
      "Ġfaster": 5433,
      "Ġselling": 5434,
      "Ġera": 5435,
      "Ġwidely": 5436,
      "Ġoriginally": 5437,
      "inent": 5438,
      "Ġlocated": 5439,
      "ĠFar": 5440,
      "ĠPenn": 5441,
      "],": 5442,
      "Ġearn": 5443,
      "Ġpotentially": 5444,
      "pired": 5445,
      "Ġreact": 5446,
      "Ġjail": 5447,
      "Ġappearance": 5448,
      "Ġretail": 5449,
      "Ġtight": 5450,
      "My": 5451,
      "Ġmaster": 5452,
      "Ġstress": 5453,
      "Ġ//": 5454,
      "à¸": 5455,
      "ĠRon": 5456,
      "IV": 5457,
      "vey": 5458,
      "ss": 5459,
      "Ð¸": 5460,
      "ĠDaily": 5461,
      "Ġchallenges": 5462,
      "ĠScience": 5463,
      "Ġbound": 5464,
      "Ġpointed": 5465,
      "Ġinvolve": 5466,
      "oom": 5467,
      "Ġplenty": 5468,
      "Ġhandle": 5469,
      "Ġpulled": 5470,
      "Ġcriticism": 5471,
      "31": 5472,
      "onom": 5473,
      "that": 5474,
      "auc": 5475,
      "Ġpoliticians": 5476,
      "Ġnut": 5477,
      "Ġdepart": 5478,
      "Ġpercentage": 5479,
      "Ġpowers": 5480,
      "ION": 5481,
      "Ġremove": 5482,
      "Ġfactor": 5483,
      "mosp": 5484,
      "Ġobviously": 5485,
      "Ġshift": 5486,
      "Ġexpressed": 5487,
      "66": 5488,
      "Ġaccident": 5489,
      "Ġexperienced": 5490,
      "ita": 5491,
      "rog": 5492,
      "ĠMeanwhile": 5493,
      "Ġtalked": 5494,
      "ENT": 5495,
      "Ġpages": 5496,
      "Ġtypically": 5497,
      "ĠDirector": 5498,
      "Ġglass": 5499,
      "Ġrandom": 5500,
      "ordin": 5501,
      "Ġleads": 5502,
      ",[": 5503,
      "ĠForce": 5504,
      "road": 5505,
      "Ġuniversity": 5506,
      "Ġpositions": 5507,
      "ĠSaud": 5508,
      "Ġarr": 5509,
      "orage": 5510,
      "Ġrecorded": 5511,
      "Ġquant": 5512,
      "Ġproceed": 5513,
      "useum": 5514,
      "Ġappeal": 5515,
      "Ġpredict": 5516,
      "Ġfinish": 5517,
      "Ġconsidering": 5518,
      "ller": 5519,
      "Ġhyp": 5520,
      "ĠMaybe": 5521,
      "Ġcultural": 5522,
      "Ġexcited": 5523,
      "Ġdepth": 5524,
      "ĠDani": 5525,
      "Ġath": 5526,
      "Ġ500": 5527,
      "apping": 5528,
      "Ġaircraft": 5529,
      "Ġbaby": 5530,
      "cel": 5531,
      "ĠPower": 5532,
      "Ġthr": 5533,
      "Ġhopes": 5534,
      "Ġemergency": 5535,
      "ĠFer": 5536,
      "Ġmethods": 5537,
      "Ġargued": 5538,
      "Ġclot": 5539,
      "Ġtele": 5540,
      "Ġsignificantly": 5541,
      "ĠBraz": 5542,
      "essions": 5543,
      "Ġagent": 5544,
      "Ġthank": 5545,
      "Ġdistance": 5546,
      "Ġremaining": 5547,
      "Ġdiscl": 5548,
      "Ġvoting": 5549,
      "Tr": 5550,
      "Ġappreci": 5551,
      "ashion": 5552,
      "gment": 5553,
      "Ġgrew": 5554,
      "ownt": 5555,
      "Ġfacing": 5556,
      "ĠGrand": 5557,
      "Ġreference": 5558,
      "Ġfilms": 5559,
      "ĠIre": 5560,
      "Ġafternoon": 5561,
      "Ġfrustr": 5562,
      "ĠBus": 5563,
      "Ġtrig": 5564,
      ",âĢĻ": 5565,
      "ĠSomet": 5566,
      "hab": 5567,
      "Ġsurprising": 5568,
      "Ġnar": 5569,
      "ĠWhere": 5570,
      "Ġindeed": 5571,
      "Ġupgr": 5572,
      "ĠCharl": 5573,
      "ey": 5574,
      "rawn": 5575,
      "Ġ2003": 5576,
      "Ġsatisf": 5577,
      "Ġends": 5578,
      "Ġtreated": 5579,
      "ĠSant": 5580,
      "Ġconstruct": 5581,
      "Ġmatters": 5582,
      "tion": 5583,
      "Ġdisappoint": 5584,
      "oken": 5585,
      "Ġdenied": 5586,
      "Ġcombined": 5587,
      "ĠTra": 5588,
      "Ġsuppl": 5589,
      "Ġ2001": 5590,
      "Ġopposed": 5591,
      "Ġfish": 5592,
      "Ġseat": 5593,
      "ĠMs": 5594,
      "Ġsigns": 5595,
      "Ġreporting": 5596,
      "hered": 5597,
      "Ġsupporting": 5598,
      "Ġproced": 5599,
      "ĠLook": 5600,
      "Ġdetermined": 5601,
      "ĠFour": 5602,
      "Ġidentify": 5603,
      "Ġyouth": 5604,
      "ĠProject": 5605,
      "46": 5606,
      "Ġyards": 5607,
      "ĠHel": 5608,
      "idel": 5609,
      "Ġconcentr": 5610,
      "Ġwood": 5611,
      "care": 5612,
      "Ġapproved": 5613,
      "Ġpurchase": 5614,
      "Ġtrouble": 5615,
      "Ġevening": 5616,
      "zer": 5617,
      "Ġdiss": 5618,
      "Ġbodies": 5619,
      "Ġthoughts": 5620,
      "Ġmotiv": 5621,
      "lyn": 5622,
      "Ġcompleted": 5623,
      "Ġforget": 5624,
      "Ġswitch": 5625,
      "Ġvisual": 5626,
      "lines": 5627,
      "ĠWood": 5628,
      "ĠDevelop": 5629,
      "endment": 5630,
      "Ġbuildings": 5631,
      "Ġconsumers": 5632,
      "Ġmode": 5633,
      "Ġaid": 5634,
      "ĠIts": 5635,
      "ensions": 5636,
      "Ġcreation": 5637,
      "Ġvulner": 5638,
      "Ġopportunities": 5639,
      "ompl": 5640,
      "Ġrenew": 5641,
      "anged": 5642,
      "Ġsac": 5643,
      "ĠTal": 5644,
      "Ġlots": 5645,
      "eds": 5646,
      "ĠGen": 5647,
      "Ġbelong": 5648,
      "Ġreporters": 5649,
      "Ġpackage": 5650,
      "ĠAC": 5651,
      "Ġvideos": 5652,
      "Ġ1980": 5653,
      "Ġinjured": 5654,
      "Ġdismiss": 5655,
      "lymp": 5656,
      "host": 5657,
      "ĠRoad": 5658,
      "Ġcontrast": 5659,
      "Ġturning": 5660,
      "Ġapprox": 5661,
      "ĠPac": 5662,
      "So": 5663,
      "can": 5664,
      "Ġsad": 5665,
      "ĠThanks": 5666,
      "ĠAgain": 5667,
      ",'": 5668,
      "Ġsem": 5669,
      "Ġexpansion": 5670,
      "oral": 5671,
      "ulations": 5672,
      "LE": 5673,
      "ĠIsland": 5674,
      "PR": 5675,
      "UT": 5676,
      "Ġdefault": 5677,
      "Ġresponded": 5678,
      "Ġpanel": 5679,
      "Ġmal": 5680,
      "unction": 5681,
      "Ġzone": 5682,
      "Ġsubm": 5683,
      "Ġbasically": 5684,
      "Ġarchitect": 5685,
      "Ġcollabor": 5686,
      "ĠDou": 5687,
      "Ġourselves": 5688,
      "oves": 5689,
      "ĠIreland": 5690,
      "ĠGar": 5691,
      "ato": 5692,
      "Ġunable": 5693,
      "Ġlisten": 5694,
      "Ġvan": 5695,
      "Ġnumerous": 5696,
      "ii": 5697,
      "Ġmovies": 5698,
      "Ġprospect": 5699,
      "erved": 5700,
      "cohol": 5701,
      "Ġupdates": 5702,
      "respond": 5703,
      "Ġdatab": 5704,
      "ĠSpace": 5705,
      "ivered": 5706,
      "nergy": 5707,
      "ĠTechn": 5708,
      "ĠMichigan": 5709,
      "ĠWal": 5710,
      "Ġquiet": 5711,
      "mond": 5712,
      "oma": 5713,
      "Ġarray": 5714,
      "Ġaccompl": 5715,
      "Ġconfident": 5716,
      "ht": 5717,
      "Ġspring": 5718,
      "aza": 5719,
      "Ġexplos": 5720,
      "Ġattempts": 5721,
      "Ġburn": 5722,
      "43": 5723,
      "rant": 5724,
      "Ġadvance": 5725,
      "ributed": 5726,
      "Ġhol": 5727,
      "oviet": 5728,
      "Ġapps": 5729,
      "ĠiPh": 5730,
      "ĠSqu": 5731,
      "Ġ\\": 5732,
      "ĠKim": 5733,
      "Ġcircumst": 5734,
      "ĠMa": 5735,
      "Ġdifferences": 5736,
      "Ġliberal": 5737,
      "Ġstruggle": 5738,
      "obe": 5739,
      "ĠColor": 5740,
      "Ġordered": 5741,
      "onna": 5742,
      "istered": 5743,
      "ĠOl": 5744,
      "top": 5745,
      "ffee": 5746,
      "Ġprompt": 5747,
      "ĠIll": 5748,
      "Ġexperiences": 5749,
      "ket": 5750,
      "ĠVict": 5751,
      "Ġbroadcast": 5752,
      "ĠLong": 5753,
      "Ġtechnical": 5754,
      "Ġconnected": 5755,
      "Ġinstruct": 5756,
      "ĠNote": 5757,
      "Ġflood": 5758,
      "Ġtransition": 5759,
      "ĠChristmas": 5760,
      "ĠHy": 5761,
      "illance": 5762,
      "osite": 5763,
      "Ġcrimes": 5764,
      "MA": 5765,
      "nell": 5766,
      "Sh": 5767,
      "olit": 5768,
      "oking": 5769,
      "ĠPakistan": 5770,
      "ĠNov": 5771,
      "TV": 5772,
      "Ġongoing": 5773,
      "ĠWalk": 5774,
      "Ġsuffered": 5775,
      "ĠBrazil": 5776,
      "PD": 5777,
      "ĠOlymp": 5778,
      "ĠTurkey": 5779,
      "Ġcapable": 5780,
      "ĠThank": 5781,
      "Ġwrites": 5782,
      "Ġproud": 5783,
      "ĠSky": 5784,
      "Ġeditor": 5785,
      "isters": 5786,
      "ĠKell": 5787,
      "ĠCNN": 5788,
      "Ġdeclared": 5789,
      "ternal": 5790,
      "uthors": 5791,
      "ampion": 5792,
      "Ġsets": 5793,
      "Ġcalcul": 5794,
      "Ġlit": 5795,
      "Ġrent": 5796,
      "abilities": 5797,
      "mm": 5798,
      "Ġvalid": 5799,
      "uous": 5800,
      "imal": 5801,
      "Ġarmed": 5802,
      "ĠSwed": 5803,
      "Ġseriously": 5804,
      "Ġcraft": 5805,
      "ilty": 5806,
      "Ġpatient": 5807,
      "Ġentertain": 5808,
      "Ġgather": 5809,
      "Ġstatements": 5810,
      "Ġpassing": 5811,
      "Ġgod": 5812,
      "ogue": 5813,
      "ĠColumb": 5814,
      "aped": 5815,
      "ĠHen": 5816,
      "Ġsuit": 5817,
      "ĠScot": 5818,
      "ache": 5819,
      "Ġexplains": 5820,
      "Ġloved": 5821,
      "Ġelimin": 5822,
      "ĠJackson": 5823,
      "ishes": 5824,
      "razy": 5825,
      "ĠRight": 5826,
      "eration": 5827,
      "pass": 5828,
      "Ġtree": 5829,
      "Ġelement": 5830,
      "Ġinstitutions": 5831,
      "ĠDown": 5832,
      "ĠLake": 5833,
      "Ġcrack": 5834,
      "Ġdiet": 5835,
      "ĠDC": 5836,
      "ĠPrem": 5837,
      "Ġpractices": 5838,
      "name": 5839,
      "Ġconfidence": 5840,
      "ĠSystem": 5841,
      "Ġcaption": 5842,
      "Ġbatt": 5843,
      "Ġgra": 5844,
      "Ġpictures": 5845,
      "employ": 5846,
      "Ġexplo": 5847,
      "ellow": 5848,
      "Ġmarried": 5849,
      "Ġdelay": 5850,
      "Ġtradition": 5851,
      "Ġreaction": 5852,
      "ansas": 5853,
      "Ġpicked": 5854,
      "Ġ</": 5855,
      "Ġpublicly": 5856,
      "astern": 5857,
      "ador": 5858,
      "Ġartist": 5859,
      "Ġabandon": 5860,
      "Ġadmitted": 5861,
      "ĠOhio": 5862,
      "uations": 5863,
      "Ġatmosp": 5864,
      "Ġdial": 5865,
      "Ġforg": 5866,
      "Ġsevere": 5867,
      "unte": 5868,
      "li": 5869,
      "ĠLife": 5870,
      "Ġeffectively": 5871,
      "Ġperspective": 5872,
      "Ġadvice": 5873,
      "ĠMount": 5874,
      "free": 5875,
      "ĠPR": 5876,
      "Ġcentre": 5877,
      "Ġguns": 5878,
      "Ġcoast": 5879,
      "ĠUkraine": 5880,
      "word": 5881,
      "Ġcopyright": 5882,
      "Ġagents": 5883,
      "ĠEnter": 5884,
      "ĠAfghanistan": 5885,
      "ĠRod": 5886,
      "Ġfaces": 5887,
      "Ġnewspaper": 5888,
      "Ġshouldn": 5889,
      "ĠJul": 5890,
      "Ġfilled": 5891,
      "Ġwithd": 5892,
      "Ġvari": 5893,
      "Ġconfirm": 5894,
      "Ġsubstant": 5895,
      "ĠNext": 5896,
      "orse": 5897,
      "Ġviolent": 5898,
      "ĠWeek": 5899,
      "Ġemails": 5900,
      "Ġfraud": 5901,
      "Ġweather": 5902,
      "Ġsecretary": 5903,
      "ÑĤ": 5904,
      "esters": 5905,
      "Ġstands": 5906,
      "Ġpitch": 5907,
      "Ġmessages": 5908,
      "Ġenemy": 5909,
      "Ġleaves": 5910,
      "ĠLin": 5911,
      "cribe": 5912,
      "Ġwalking": 5913,
      "ĠGames": 5914,
      "LS": 5915,
      "abin": 5916,
      "Ġcloud": 5917,
      "Ġsam": 5918,
      "ĠYear": 5919,
      "Ġcooper": 5920,
      "orry": 5921,
      "ĠBat": 5922,
      "dule": 5923,
      "Ġtun": 5924,
      "Ġreportedly": 5925,
      "called": 5926,
      "plom": 5927,
      "Ġcontains": 5928,
      "Ġlawyer": 5929,
      "42": 5930,
      "illy": 5931,
      "ucks": 5932,
      "Ġdoctor": 5933,
      "fere": 5934,
      "ilit": 5935,
      "ionally": 5936,
      "formation": 5937,
      "Ġincor": 5938,
      "adow": 5939,
      "Ġdelivered": 5940,
      "Ġexamples": 5941,
      "ĠCarl": 5942,
      "Ġgiant": 5943,
      "Ġmagazine": 5944,
      "=\"": 5945,
      "Ġtemperature": 5946,
      "Ġemphas": 5947,
      "Ġmand": 5948,
      "Ġneither": 5949,
      "Ġfly": 5950,
      "ĠWars": 5951,
      "ounded": 5952,
      "Ġsession": 5953,
      "ena": 5954,
      "ĠBob": 5955,
      "ooth": 5956,
      "Ġindustrial": 5957,
      "Äĥ": 5958,
      "char": 5959,
      "Ġexcell": 5960,
      "law": 5961,
      "ĠRev": 5962,
      "05": 5963,
      "rd": 5964,
      "edy": 5965,
      "aints": 5966,
      "Ġcauses": 5967,
      "Ġconsumer": 5968,
      "essor": 5969,
      "ĠUpd": 5970,
      "arters": 5971,
      "ala": 5972,
      "Ġresolution": 5973,
      "Ġsubsequ": 5974,
      "Ġlie": 5975,
      "Ġdesire": 5976,
      "Ġdebut": 5977,
      "ĠAv": 5978,
      "ĠAff": 5979,
      "ĠBest": 5980,
      "ĠAnn": 5981,
      "Ġincreases": 5982,
      "Ġradical": 5983,
      "Ġprin": 5984,
      "IM": 5985,
      "ĠExp": 5986,
      "Ġgovernor": 5987,
      "ĠThree": 5988,
      "Ġ36": 5989,
      "Ġactivists": 5990,
      "Ġappropriate": 5991,
      "Ġnearby": 5992,
      "Ġscheduled": 5993,
      "Ġapplied": 5994,
      "uild": 5995,
      "ĠSoviet": 5996,
      "ĠBarack": 5997,
      "Ġske": 5998,
      "ĠFil": 5999,
      "bur": 6000,
      "ĠVide": 6001,
      "hew": 6002,
      "acter": 6003,
      "ĠDi": 6004,
      "Ġdeclined": 6005,
      "gia": 6006,
      "Ġ33": 6007,
      "Ġargue": 6008,
      "long": 6009,
      "Ġoutput": 6010,
      "Ġphen": 6011,
      "ĠSeattle": 6012,
      "Ġrealize": 6013,
      "itors": 6014,
      "ĠCard": 6015,
      "enda": 6016,
      "abled": 6017,
      "ĠStory": 6018,
      "Ġinput": 6019,
      "Ġrot": 6020,
      "Ġlegit": 6021,
      "Ġresident": 6022,
      "ĠDiv": 6023,
      "Ġpool": 6024,
      "ĠAut": 6025,
      "Ġlinked": 6026,
      "ĠElect": 6027,
      "ĠShare": 6028,
      "Ġperman": 6029,
      "ĠClub": 6030,
      "Ġadvert": 6031,
      "Ġflag": 6032,
      "Ġplane": 6033,
      "Ġisland": 6034,
      "Ġsurprised": 6035,
      "Ġthinks": 6036,
      "ĠPolit": 6037,
      "Ġinitially": 6038,
      "Ġstring": 6039,
      "icing": 6040,
      "Ġdynam": 6041,
      "Ġedge": 6042,
      "Ġclient": 6043,
      "Ġtrib": 6044,
      "enture": 6045,
      "uls": 6046,
      "ĠMen": 6047,
      "Ġsongs": 6048,
      "ĠWin": 6049,
      "Ġeval": 6050,
      "Ġreaders": 6051,
      "Ġcann": 6052,
      "Ġmissed": 6053,
      "Ġterrorist": 6054,
      "ĠSaudi": 6055,
      "rid": 6056,
      "Ġsought": 6057,
      "esh": 6058,
      "Ñģ": 6059,
      "ĠWik": 6060,
      "Ġtotally": 6061,
      "ĠBlue": 6062,
      "Ġperformed": 6063,
      "OD": 6064,
      "Ġfaced": 6065,
      "ĠCop": 6066,
      "ĠVol": 6067,
      "Ġpray": 6068,
      "ERS": 6069,
      "Ġfindings": 6070,
      "ĠMuslims": 6071,
      "Ġfacts": 6072,
      "ĠKorean": 6073,
      "Ġhell": 6074,
      "etroit": 6075,
      "Ġsquare": 6076,
      "Ġessentially": 6077,
      "Ġshop": 6078,
      "ĠWild": 6079,
      "Ġlawsuit": 6080,
      "LA": 6081,
      "Ġinterpret": 6082,
      "Ġrail": 6083,
      "whel": 6084,
      "Ġing": 6085,
      "Ġ37": 6086,
      "Ġguilty": 6087,
      "41": 6088,
      "Ġrepresents": 6089,
      "Ġsuc": 6090,
      "Ġwear": 6091,
      "Ġexercise": 6092,
      "Ġdecre": 6093,
      "Ġquarterback": 6094,
      "ĠBoy": 6095,
      "PU": 6096,
      "Ġwarned": 6097,
      "estival": 6098,
      "ĠRights": 6099,
      "Ġwarm": 6100,
      "gent": 6101,
      "Ġfort": 6102,
      "ĠEconom": 6103,
      "Ġsuffering": 6104,
      "agers": 6105,
      "Ġprohib": 6106,
      "orders": 6107,
      "Ġexplan": 6108,
      "ĠSar": 6109,
      "usal": 6110,
      "Ġannouncement": 6111,
      "Ġaf": 6112,
      "Ġ=>": 6113,
      "asure": 6114,
      "ĠPerhaps": 6115,
      "Ġdiscussed": 6116,
      "Ġyesterday": 6117,
      "ĠFurther": 6118,
      "angers": 6119,
      "ĠGM": 6120,
      "Ġmir": 6121,
      "Ġjoint": 6122,
      "oked": 6123,
      "active": 6124,
      "rip": 6125,
      "esc": 6126,
      "Ġtalent": 6127,
      "lo": 6128,
      "stood": 6129,
      "Ġobjects": 6130,
      "Ġtow": 6131,
      "Ġphilosop": 6132,
      "Ġmyster": 6133,
      "Ġlabel": 6134,
      "Ġpure": 6135,
      "mates": 6136,
      "Ġdemocracy": 6137,
      "rist": 6138,
      "ĠAuthor": 6139,
      "Ġboss": 6140,
      "ĠEnergy": 6141,
      "born": 6142,
      "Ġexpression": 6143,
      "Ġfranch": 6144,
      "Ġtech": 6145,
      "SS": 6146,
      "ourney": 6147,
      "Ġfollows": 6148,
      "Ġdeaths": 6149,
      "Ġlisted": 6150,
      "Ġpra": 6151,
      "Ġinvestors": 6152,
      "Ġroute": 6153,
      "\":": 6154,
      "ĠStephen": 6155,
      "ĠTit": 6156,
      "atell": 6157,
      "Ġrein": 6158,
      "Ġadds": 6159,
      "greg": 6160,
      "Ġbare": 6161,
      "Ġexistence": 6162,
      "Ġbond": 6163,
      "ician": 6164,
      "Ġstorm": 6165,
      "Ġalt": 6166,
      "Ġfairly": 6167,
      "rich": 6168,
      "Ġshots": 6169,
      "Ġnetworks": 6170,
      "Ġchart": 6171,
      "ĠISIS": 6172,
      "Ġ38": 6173,
      "ĠAriz": 6174,
      "ĠiPhone": 6175,
      "ĠHome": 6176,
      "Ġstood": 6177,
      "Ġinjuries": 6178,
      "Ġrain": 6179,
      "ĠEll": 6180,
      "level": 6181,
      "Ġeverybody": 6182,
      "athan": 6183,
      "Ġwarning": 6184,
      "ican": 6185,
      "Ġnations": 6186,
      "Ġsav": 6187,
      "Ġyounger": 6188,
      "ĠYoung": 6189,
      "Ġdivision": 6190,
      "Ġgraph": 6191,
      "Ġaccepted": 6192,
      "Ġroughly": 6193,
      "ĠFig": 6194,
      "Ġarticles": 6195,
      "Ġconsequences": 6196,
      "dis": 6197,
      "ship": 6198,
      "edia": 6199,
      "Ġmaterials": 6200,
      "Ġmoves": 6201,
      "Ġfunctions": 6202,
      "Ġcreative": 6203,
      "west": 6204,
      "Ġcorrespond": 6205,
      "ĠBoard": 6206,
      "Ġresc": 6207,
      "Ġdrivers": 6208,
      "Ġempt": 6209,
      "Ġsplit": 6210,
      "Ġessential": 6211,
      "Ġclasses": 6212,
      "Ġanywhere": 6213,
      "Ġfill": 6214,
      "Ġentered": 6215,
      "Ġcurrency": 6216,
      "Ġbegins": 6217,
      "gs": 6218,
      "adel": 6219,
      "ĠFam": 6220,
      "gas": 6221,
      "Ġmetal": 6222,
      "iat": 6223,
      "ĠAD": 6224,
      "Ġcolleagues": 6225,
      "ĠDavis": 6226,
      "Ġremark": 6227,
      "hetic": 6228,
      "Ġreturns": 6229,
      "Ġmoral": 6230,
      "Tube": 6231,
      "ĠTake": 6232,
      "otic": 6233,
      "Ġcommunication": 6234,
      "Ġcampus": 6235,
      "ĠDetroit": 6236,
      "ĠID": 6237,
      "Ġdistribution": 6238,
      "rum": 6239,
      "Ġheads": 6240,
      "Ġlibrary": 6241,
      "Ġintention": 6242,
      "Ġadvanced": 6243,
      "Ġlaugh": 6244,
      "Ġallegations": 6245,
      "umber": 6246,
      "Ġliqu": 6247,
      "Ġ300": 6248,
      "Ġthreats": 6249,
      "Ġsucceed": 6250,
      "Ġhardware": 6251,
      "Ġstores": 6252,
      "Ġmanufacture": 6253,
      "Ġmine": 6254,
      "Ġrising": 6255,
      "II": 6256,
      "Ġbull": 6257,
      "Ġevolution": 6258,
      "bel": 6259,
      "xy": 6260,
      "ĠMot": 6261,
      "ĠDaniel": 6262,
      "Ġscored": 6263,
      "ĠRomney": 6264,
      "Ġtiny": 6265,
      "Ġtom": 6266,
      "Ġimproved": 6267,
      "Ġrestaurant": 6268,
      "Ġtournament": 6269,
      "ĠBell": 6270,
      "Ġsurveillance": 6271,
      "Ġheavily": 6272,
      "ua": 6273,
      "ĠSociety": 6274,
      "Ġmeat": 6275,
      "Ġenh": 6276,
      "Ġspons": 6277,
      "Ġcombination": 6278,
      "erate": 6279,
      "Ġboys": 6280,
      "Ġbuying": 6281,
      "Ġnecessarily": 6282,
      "Ġsick": 6283,
      "Ġhoping": 6284,
      "ĠCIA": 6285,
      "Ġbon": 6286,
      "emen": 6287,
      "ocket": 6288,
      "irty": 6289,
      "Ġcheap": 6290,
      "Ġrelevant": 6291,
      "Con": 6292,
      "ĠDie": 6293,
      "esome": 6294,
      "ĠEric": 6295,
      "Ġsym": 6296,
      "Ġbrings": 6297,
      "Ġreplaced": 6298,
      "Ġsees": 6299,
      "Ġgrown": 6300,
      "ĠLord": 6301,
      "Ġshif": 6302,
      "TA": 6303,
      "icious": 6304,
      "Ġdoctors": 6305,
      "ĠItal": 6306,
      "Ġdiplom": 6307,
      "comm": 6308,
      "Ã³": 6309,
      "ĠCy": 6310,
      "ĠGra": 6311,
      "ĠVan": 6312,
      "Ġride": 6313,
      "Ġcycle": 6314,
      "nam": 6315,
      "Ġ2002": 6316,
      "ĠCharles": 6317,
      "IF": 6318,
      "Ð½": 6319,
      "Ġfeatured": 6320,
      "Ġstorage": 6321,
      "Ġimmediate": 6322,
      "Ġunlikely": 6323,
      "ywood": 6324,
      "Ġnav": 6325,
      "Ġplayoff": 6326,
      "Ġentry": 6327,
      "Ġextent": 6328,
      "Ġskill": 6329,
      "Ġbright": 6330,
      "Ġbutton": 6331,
      "Ġtargets": 6332,
      "ĠLib": 6333,
      "',": 6334,
      "Ġnative": 6335,
      "ĠWay": 6336,
      "Ġsharing": 6337,
      "Ġauthors": 6338,
      "Ġmarketing": 6339,
      "omin": 6340,
      "ĠAdam": 6341,
      "icer": 6342,
      "Ġrum": 6343,
      "Ġcausing": 6344,
      "Ġpled": 6345,
      "Ġflo": 6346,
      "Ġuniverse": 6347,
      "Ġsomewhat": 6348,
      "Ġallegedly": 6349,
      "Ġblow": 6350,
      "ĠReal": 6351,
      "Ġimportance": 6352,
      "obb": 6353,
      "ĠAsia": 6354,
      "ĠWilson": 6355,
      "fortunately": 6356,
      "pan": 6357,
      "amin": 6358,
      "arden": 6359,
      "Ġrow": 6360,
      "Ġconfront": 6361,
      "68": 6362,
      "Ġpromise": 6363,
      "style": 6364,
      "Ġalcohol": 6365,
      "iques": 6366,
      "Ġpushed": 6367,
      "Ġcircumstances": 6368,
      "acle": 6369,
      "Ġurban": 6370,
      "Ġteachers": 6371,
      "Ġserving": 6372,
      "Ġstrange": 6373,
      "Ġfewer": 6374,
      "ĠBrook": 6375,
      "ĠFord": 6376,
      "Ġholds": 6377,
      "ĠIns": 6378,
      "Ġmanage": 6379,
      "Ġisol": 6380,
      "Ġfavour": 6381,
      "ette": 6382,
      "water": 6383,
      "Ġhat": 6384,
      "uzz": 6385,
      "Ġtrick": 6386,
      "luding": 6387,
      "Ġplot": 6388,
      "ĠPS": 6389,
      "Ġegg": 6390,
      "Ġbehavi": 6391,
      "Ġanalyst": 6392,
      "Ġgrab": 6393,
      "Le": 6394,
      "sembly": 6395,
      "cho": 6396,
      "efully": 6397,
      "Ġconsistent": 6398,
      "ĠInvest": 6399,
      "Ġsquad": 6400,
      "Ġped": 6401,
      "ĠLove": 6402,
      "</": 6403,
      "Get": 6404,
      "New": 6405,
      "olve": 6406,
      "ĠKevin": 6407,
      "Ġregulations": 6408,
      "Ġdetailed": 6409,
      "Ġopposite": 6410,
      "ĠMic": 6411,
      "ĠYouTube": 6412,
      "duc": 6413,
      "Ġ48": 6414,
      "Ġmoments": 6415,
      "Ġbike": 6416,
      "chen": 6417,
      "alle": 6418,
      "ĠNBA": 6419,
      "Ġsyn": 6420,
      "Ġcommitment": 6421,
      "ĠHou": 6422,
      "Ġfacility": 6423,
      "ez": 6424,
      "Ġmechanism": 6425,
      "stone": 6426,
      "Ġdefined": 6427,
      "Ġhighlight": 6428,
      "Ġmotor": 6429,
      "game": 6430,
      "Ġì": 6431,
      "Ġintent": 6432,
      "Ġcustomer": 6433,
      "Ġwalked": 6434,
      "Ġprotests": 6435,
      "Ġobserv": 6436,
      "Ġparliament": 6437,
      "kel": 6438,
      "ĠItaly": 6439,
      "Ġflu": 6440,
      "Ġwaste": 6441,
      "Ġcontest": 6442,
      "Ġoffense": 6443,
      "Ġvice": 6444,
      "Ġclassic": 6445,
      "Ġrally": 6446,
      "power": 6447,
      "anges": 6448,
      "ixt": 6449,
      "ĠRog": 6450,
      "Ġvolunte": 6451,
      "Ġattempted": 6452,
      "Ġgang": 6453,
      "Ġversions": 6454,
      "boy": 6455,
      "Ġdownt": 6456,
      "Ġchain": 6457,
      "ĠPalestinian": 6458,
      "Ġadapt": 6459,
      "Ġwinter": 6460,
      "def": 6461,
      "Ġbird": 6462,
      "ĠJesus": 6463,
      "ĠOld": 6464,
      "Ġconfig": 6465,
      "ĠSP": 6466,
      "apse": 6467,
      "ĠDefense": 6468,
      "Ġfundamental": 6469,
      "Ġrepeatedly": 6470,
      "friend": 6471,
      "ĠTay": 6472,
      "Ġslowly": 6473,
      "Ġlinks": 6474,
      "ologist": 6475,
      "Ġwake": 6476,
      "utch": 6477,
      "Ġterrorism": 6478,
      "ĠRam": 6479,
      "ugh": 6480,
      "Ġusual": 6481,
      "Ġnarr": 6482,
      "Ġacts": 6483,
      "ĠSC": 6484,
      "Ġhousehold": 6485,
      "ĠArizona": 6486,
      "Ġrape": 6487,
      "Ġcrazy": 6488,
      "ĠCast": 6489,
      "Ġassets": 6490,
      "ĠMiller": 6491,
      "Ġshel": 6492,
      "ĠLand": 6493,
      "ĠNASA": 6494,
      "certain": 6495,
      "erves": 6496,
      "ĠPan": 6497,
      "Ġmanner": 6498,
      "----------------": 6499,
      "nic": 6500,
      "Ġsurrounding": 6501,
      "Ġhall": 6502,
      "ĠBas": 6503,
      "ockey": 6504,
      "ĠView": 6505,
      "Ġembr": 6506,
      "Ġreferred": 6507,
      "lar": 6508,
      "andal": 6509,
      "Ġbreaking": 6510,
      "Ġcere": 6511,
      "sters": 6512,
      "lock": 6513,
      "Ġdedicated": 6514,
      "Ġsymbol": 6515,
      "anish": 6516,
      "ĠRet": 6517,
      "ĠSteven": 6518,
      "ÃŃ": 6519,
      "ulous": 6520,
      "Ġformed": 6521,
      "Ġsample": 6522,
      "ĠSpecial": 6523,
      "ati": 6524,
      "Ġunus": 6525,
      "Ġacknowled": 6526,
      "Ġcarrying": 6527,
      "ĠCatholic": 6528,
      "Ġancient": 6529,
      "uated": 6530,
      "Ġsister": 6531,
      "ĠSports": 6532,
      "Ġefficient": 6533,
      "mes": 6534,
      "Ġanx": 6535,
      "Ġselection": 6536,
      "ĠJews": 6537,
      "Ġacting": 6538,
      "Ġpushing": 6539,
      "chers": 6540,
      "Ġadults": 6541,
      "Ġfashion": 6542,
      "ĠWomen": 6543,
      "awa": 6544,
      "Ġclosely": 6545,
      "ĠPutin": 6546,
      "iger": 6547,
      "ĠStand": 6548,
      "Ġzero": 6549,
      "Ġowned": 6550,
      "Ġfrequently": 6551,
      "ĠLu": 6552,
      "Ġcontroversial": 6553,
      "Ġ34": 6554,
      "Ġemotional": 6555,
      "agan": 6556,
      "Ġsand": 6557,
      "Ġbag": 6558,
      "hus": 6559,
      "ĠMax": 6560,
      "ĠBrad": 6561,
      "Ġsustain": 6562,
      "Ġcert": 6563,
      "iami": 6564,
      "otal": 6565,
      "iciency": 6566,
      "Ġoverwhel": 6567,
      "Ġharder": 6568,
      "Ġexcellent": 6569,
      "bar": 6570,
      "ĠFinally": 6571,
      "Ġpenal": 6572,
      "ĠGi": 6573,
      "Ġorders": 6574,
      "ĠAh": 6575,
      "OC": 6576,
      "Ġproperly": 6577,
      "Ġmotion": 6578,
      "ÑĢ": 6579,
      "Ġfuck": 6580,
      "ĠDam": 6581,
      "TM": 6582,
      "allas": 6583,
      "Ġblame": 6584,
      "Ġtargeted": 6585,
      "Ġtermin": 6586,
      "Ġartists": 6587,
      "rome": 6588,
      "Ġkinds": 6589,
      "ulture": 6590,
      "ĠRoman": 6591,
      "Ġreceiving": 6592,
      "Ġalongside": 6593,
      "Ġ1970": 6594,
      "Ġparticipants": 6595,
      "ĠWat": 6596,
      "Ġkit": 6597,
      "Ġphenomen": 6598,
      "Ġabortion": 6599,
      "Ġdesk": 6600,
      "Ġhur": 6601,
      "ĠDNA": 6602,
      "ceived": 6603,
      "Ġ49": 6604,
      "Ġdescribe": 6605,
      "oration": 6606,
      "Ġmouth": 6607,
      "Ġsentence": 6608,
      "Ġeating": 6609,
      "Ġguide": 6610,
      "Ġearned": 6611,
      "Ġhistorical": 6612,
      "Ġthread": 6613,
      "ĠCH": 6614,
      "ĠBrian": 6615,
      "Ġprotected": 6616,
      "Ġproperties": 6617,
      "Ġrequests": 6618,
      "rison": 6619,
      "Ġschedule": 6620,
      "Ġsnow": 6621,
      "Ġregional": 6622,
      "Ġstruck": 6623,
      "azi": 6624,
      "85": 6625,
      "Ġdatabase": 6626,
      "Ġdu": 6627,
      "ĠMat": 6628,
      "ĠWater": 6629,
      "ensus": 6630,
      "ko": 6631,
      "Ġflat": 6632,
      "Ġrequirements": 6633,
      "Ġwatched": 6634,
      "ĠTO": 6635,
      "Ġlies": 6636,
      "Ġreward": 6637,
      "ference": 6638,
      "chain": 6639,
      "ora": 6640,
      "Ġcongress": 6641,
      "Ġdealing": 6642,
      "Ġinspired": 6643,
      "Ġ75": 6644,
      "iscons": 6645,
      "Ġcolumn": 6646,
      "uable": 6647,
      "ĠJord": 6648,
      "Ġupcoming": 6649,
      "Ġcrash": 6650,
      "Ġreput": 6651,
      "Ġpassion": 6652,
      "isconsin": 6653,
      "Ġlock": 6654,
      "avor": 6655,
      "rence": 6656,
      "iveness": 6657,
      "ĠPy": 6658,
      "ĠFort": 6659,
      "ĠLar": 6660,
      "ĠEp": 6661,
      "Ġresistance": 6662,
      "Ġwave": 6663,
      "Ġwins": 6664,
      "ĠCat": 6665,
      "Ġopponents": 6666,
      "Ġhotel": 6667,
      "Ġchairman": 6668,
      "Ġpip": 6669,
      "Ġpregn": 6670,
      "Ġinstru": 6671,
      "Ġstudio": 6672,
      "FP": 6673,
      "Ġsho": 6674,
      "ĠAR": 6675,
      "Ġathlet": 6676,
      "Ġknowing": 6677,
      "Ġstream": 6678,
      "Ġliterally": 6679,
      "print": 6680,
      "Ġpromised": 6681,
      "Ġsimpl": 6682,
      "Ġapproximately": 6683,
      "Ġcategory": 6684,
      "foot": 6685,
      "Ġsubsid": 6686,
      "Ġcomfortable": 6687,
      "ĠCamer": 6688,
      "fire": 6689,
      "ĠJr": 6690,
      "Ġcolon": 6691,
      "Ġaside": 6692,
      "ĠEnd": 6693,
      "ĠIT": 6694,
      "ĠBru": 6695,
      "Ġsuddenly": 6696,
      "Ġagenda": 6697,
      "Ġrealized": 6698,
      "ĠInf": 6699,
      "Ġterritory": 6700,
      "Ġnorthern": 6701,
      "Ġunemploy": 6702,
      "wan": 6703,
      "Ġforth": 6704,
      "ĠArch": 6705,
      "Ġprecise": 6706,
      "burg": 6707,
      "pool": 6708,
      "Ġdecline": 6709,
      "Ġprote": 6710,
      "Ġconver": 6711,
      "Ġring": 6712,
      "ĠOrgan": 6713,
      "ĠBusiness": 6714,
      "Ġnewslet": 6715,
      "ĠDark": 6716,
      "Ġsigning": 6717,
      "po": 6718,
      "Ġexplore": 6719,
      "Ġposts": 6720,
      "77": 6721,
      "ĠNetwork": 6722,
      "Ġdiscover": 6723,
      "ellect": 6724,
      "ĠCheck": 6725,
      "Ġcoffee": 6726,
      "ĠJava": 6727,
      "ĠDid": 6728,
      "Ġdeeply": 6729,
      "ĠCruz": 6730,
      "ĠHouston": 6731,
      "Ġneut": 6732,
      "ographic": 6733,
      "ĠAgency": 6734,
      "Pro": 6735,
      "enger": 6736,
      "Ġschol": 6737,
      "ether": 6738,
      ".\"[": 6739,
      "erry": 6740,
      "ĠJosh": 6741,
      "ĠWisconsin": 6742,
      "Ġremote": 6743,
      "Ġlocations": 6744,
      "Ġdrag": 6745,
      "Ġfighters": 6746,
      "Ġsoul": 6747,
      "Ġapproval": 6748,
      "ingu": 6749,
      "Ġgap": 6750,
      "Ġnoticed": 6751,
      "Ġfemin": 6752,
      "She": 6753,
      "ighter": 6754,
      "Ġmainstream": 6755,
      "ĠAmong": 6756,
      "ĠMiami": 6757,
      "Ġworried": 6758,
      "Ġanyway": 6759,
      "Ġconscious": 6760,
      "aze": 6761,
      "va": 6762,
      "Ġrisks": 6763,
      "Ġcomparison": 6764,
      "ĠColorado": 6765,
      "ĠClick": 6766,
      "Ġtypical": 6767,
      "Ġwelcome": 6768,
      "cers": 6769,
      "Ġupdated": 6770,
      "Ġimmigrants": 6771,
      "Ġmaximum": 6772,
      "onymous": 6773,
      "Ġcompetitive": 6774,
      "Ġmerely": 6775,
      "Ġhits": 6776,
      "Ġtheme": 6777,
      "iform": 6778,
      "weight": 6779,
      "Ġlatter": 6780,
      "ĠSk": 6781,
      "Ġobtained": 6782,
      "ocratic": 6783,
      "anchester": 6784,
      "ĠCub": 6785,
      "Ġsending": 6786,
      "Ġteacher": 6787,
      "adelph": 6788,
      "ĠCivil": 6789,
      "ĠSpanish": 6790,
      "ĠNations": 6791,
      "Ġlikes": 6792,
      "pres": 6793,
      "Ġinvolving": 6794,
      "Ġalive": 6795,
      "Ġuncle": 6796,
      "Ġfixed": 6797,
      "ĠNY": 6798,
      "asks": 6799,
      "dit": 6800,
      "ĠKey": 6801,
      "ĠScient": 6802,
      "ĠValley": 6803,
      "ĠDun": 6804,
      "Ġmatches": 6805,
      "88": 6806,
      "Ġwire": 6807,
      "How": 6808,
      "Ġwid": 6809,
      "Ġjourney": 6810,
      "Ġcourts": 6811,
      "Ġchannel": 6812,
      "ĠAdministr": 6813,
      "ĠContin": 6814,
      "Ġjournalists": 6815,
      "Ġeast": 6816,
      "ums": 6817,
      "Ġunw": 6818,
      "Ġbattery": 6819,
      "Ġtopic": 6820,
      "Ġtested": 6821,
      "ĠLew": 6822,
      "Ġrub": 6823,
      "Cl": 6824,
      "uan": 6825,
      "Ġselected": 6826,
      "Ġtort": 6827,
      "Ġtrees": 6828,
      "Ġlicense": 6829,
      "Ġking": 6830,
      "Ġnomine": 6831,
      "izz": 6832,
      "Ġrecognize": 6833,
      "Ġobserved": 6834,
      "Ġdress": 6835,
      "Ġfasc": 6836,
      "American": 6837,
      "Ġextended": 6838,
      "ĠJersey": 6839,
      "ĠAttorney": 6840,
      "Ar": 6841,
      "Ġconstant": 6842,
      "Ġexhib": 6843,
      "Ġimpressive": 6844,
      "Ġbasket": 6845,
      "orted": 6846,
      "Ġmedic": 6847,
      "Ġpal": 6848,
      "iments": 6849,
      "Ġunderstood": 6850,
      "Ġattacked": 6851,
      "rors": 6852,
      "lder": 6853,
      "Ġbunch": 6854,
      "ORE": 6855,
      "asts": 6856,
      "Ġpover": 6857,
      "twitter": 6858,
      "woman": 6859,
      "celer": 6860,
      "Ġillustr": 6861,
      "Ġsouthern": 6862,
      "Ġamounts": 6863,
      "rehens": 6864,
      "ĠHollywood": 6865,
      "Ġbat": 6866,
      "ĠDar": 6867,
      "aug": 6868,
      "Ġretire": 6869,
      "ĠDallas": 6870,
      "Ġsuicide": 6871,
      "Ġunknown": 6872,
      "ĠCD": 6873,
      "ĠScotland": 6874,
      "ĠChild": 6875,
      "Ġdiagn": 6876,
      "rimination": 6877,
      "54": 6878,
      "anes": 6879,
      "ĠKn": 6880,
      "Ġextract": 6881,
      "ĠIrish": 6882,
      "ĠIP": 6883,
      "Ġdestroyed": 6884,
      "adelphia": 6885,
      "ding": 6886,
      "Ġpoverty": 6887,
      "Ġmurd": 6888,
      "ĠThus": 6889,
      "Ġdeck": 6890,
      "Ġemployee": 6891,
      "Ġwage": 6892,
      "Ġfolks": 6893,
      "Ġdry": 6894,
      "Ġphase": 6895,
      "Ġexciting": 6896,
      "TS": 6897,
      "Ġruled": 6898,
      "Ġnarrow": 6899,
      "ĠHas": 6900,
      "ensity": 6901,
      "Ġregions": 6902,
      "Ġheight": 6903,
      "Ġchose": 6904,
      "sole": 6905,
      "ĠÎ": 6906,
      "ĠViet": 6907,
      "Ġbrew": 6908,
      "Ġrelationships": 6909,
      "Ġassume": 6910,
      "Ġsky": 6911,
      "ĠWhich": 6912,
      "Ġpaint": 6913,
      "Ġsomehow": 6914,
      "Ġallies": 6915,
      "Ġoblig": 6916,
      "Ġplug": 6917,
      "regon": 6918,
      "Ġsole": 6919,
      "Ġdisag": 6920,
      "ĠSuch": 6921,
      "ĠColl": 6922,
      "Ġmistake": 6923,
      "To": 6924,
      "Ġcontrolled": 6925,
      "Ġcommunications": 6926,
      "olt": 6927,
      "Ġflex": 6928,
      "ĠUnfortunately": 6929,
      "59": 6930,
      "ao": 6931,
      "ded": 6932,
      "Ġvolume": 6933,
      "86": 6934,
      "type": 6935,
      "Ġatmosphere": 6936,
      "ĠNight": 6937,
      "Ġenemies": 6938,
      "All": 6939,
      "Ġgotten": 6940,
      "Ġhonor": 6941,
      "Ġemissions": 6942,
      "Ġstrongly": 6943,
      "rive": 6944,
      "Ġcritics": 6945,
      "Ġarguments": 6946,
      "Ġstretch": 6947,
      "sm": 6948,
      "ĠGeorgia": 6949,
      "Ġfranchise": 6950,
      "Ġopponent": 6951,
      "igation": 6952,
      "Ġempty": 6953,
      "ĠCam": 6954,
      "%)": 6955,
      "ĠManchester": 6956,
      "post": 6957,
      "Ġlimits": 6958,
      "Ġaspects": 6959,
      "ĠJordan": 6960,
      "ĠCare": 6961,
      "ĠSea": 6962,
      "Ġputs": 6963,
      "Ġpromote": 6964,
      "GBT": 6965,
      "acc": 6966,
      "ĠIndeed": 6967,
      "oric": 6968,
      "list": 6969,
      "Ã¶": 6970,
      "Ġvillage": 6971,
      "Ġdefeat": 6972,
      "Ġfacilities": 6973,
      "isp": 6974,
      "ĠJoseph": 6975,
      "aa": 6976,
      "Ġchoices": 6977,
      "isan": 6978,
      "bal": 6979,
      "Ġsatell": 6980,
      "Ġwest": 6981,
      "ĠHot": 6982,
      "ĠNever": 6983,
      "Ġfinds": 6984,
      "Ġpurposes": 6985,
      "dro": 6986,
      "ĠBalt": 6987,
      "redit": 6988,
      "gery": 6989,
      "you": 6990,
      "unning": 6991,
      "owered": 6992,
      "Ġprofit": 6993,
      "Ġstronger": 6994,
      "Ġcutting": 6995,
      "otes": 6996,
      "Ġimper": 6997,
      "Ġconstit": 6998,
      "Ġsignal": 6999,
      "Ġretain": 7000,
      "ems": 7001,
      "Ġemployment": 7002,
      "ĠPhiladelphia": 7003,
      "Ġgoods": 7004,
      "azz": 7005,
      "Ġdefinition": 7006,
      "ĠOper": 7007,
      "ĠMcCain": 7008,
      "ĠBudd": 7009,
      "icken": 7010,
      "Ġexposed": 7011,
      "gor": 7012,
      "Ġending": 7013,
      "acking": 7014,
      "Ġtransp": 7015,
      "Ġicon": 7016,
      "Ġreveal": 7017,
      "Ġcaptured": 7018,
      "ni": 7019,
      "Ġclaiming": 7020,
      "rary": 7021,
      "Ġencoun": 7022,
      "han": 7023,
      "ipl": 7024,
      "Ġescape": 7025,
      "Ġties": 7026,
      "Ġequival": 7027,
      "ĠTony": 7028,
      "Ġdogs": 7029,
      "Ġdrawn": 7030,
      "anny": 7031,
      "Ġsupports": 7032,
      "Ġrejected": 7033,
      "Ġprotesters": 7034,
      "ĠVictor": 7035,
      "Ġoutcome": 7036,
      "raid": 7037,
      "Ġanswers": 7038,
      "ĠLabor": 7039,
      "Ġprimarily": 7040,
      "aser": 7041,
      "Ġchampion": 7042,
      "ĠCome": 7043,
      "Ġsomewhere": 7044,
      "Ġinqu": 7045,
      "Ġtruck": 7046,
      "Ġscheme": 7047,
      "ĠBowl": 7048,
      "Ġ42": 7049,
      "Ġflying": 7050,
      "ĠDead": 7051,
      "Ġfalling": 7052,
      "Ġfees": 7053,
      "Ġwinner": 7054,
      "Ġdeals": 7055,
      "Ġreasonable": 7056,
      "Ġdollar": 7057,
      "ĠTurk": 7058,
      "tle": 7059,
      "Ġdesper": 7060,
      "inson": 7061,
      "oming": 7062,
      "Ġcontributed": 7063,
      "Ġrefugees": 7064,
      "ĠNBC": 7065,
      "Ġpic": 7066,
      "Photo": 7067,
      "owed": 7068,
      "Ġ39": 7069,
      "gender": 7070,
      "obile": 7071,
      "tes": 7072,
      "phy": 7073,
      "Ġbear": 7074,
      "ĠOregon": 7075,
      "Ġthreatened": 7076,
      "Ġstim": 7077,
      "Ġconstantly": 7078,
      "ĠHun": 7079,
      "ĠOF": 7080,
      "pected": 7081,
      "Ġdeveloper": 7082,
      "itarian": 7083,
      "Ġengage": 7084,
      "UR": 7085,
      "ĠTurn": 7086,
      "Ġplastic": 7087,
      "axy": 7088,
      "69": 7089,
      "Our": 7090,
      "Ġcup": 7091,
      "ĠNE": 7092,
      "Ġpersonally": 7093,
      "ĠFull": 7094,
      "Ġdirected": 7095,
      "vy": 7096,
      "Ġanymore": 7097,
      "ĠForeign": 7098,
      "Ġwal": 7099,
      "ciples": 7100,
      "aire": 7101,
      "Ġdrinking": 7102,
      "Ġbid": 7103,
      "ĠId": 7104,
      "Ġble": 7105,
      "ĠSource": 7106,
      "ĠItalian": 7107,
      "Ġru": 7108,
      "Ġproof": 7109,
      "essed": 7110,
      "Ġven": 7111,
      "Ġclar": 7112,
      "57": 7113,
      "Ġrival": 7114,
      "Ġdriven": 7115,
      "Ġsweet": 7116,
      "========": 7117,
      "Ġbitcoin": 7118,
      "Ġdeleg": 7119,
      "ĠMoore": 7120,
      "ĠFC": 7121,
      "Ġsituations": 7122,
      "mod": 7123,
      "Ø§": 7124,
      "NC": 7125,
      "Ġdistinct": 7126,
      "ĠDisney": 7127,
      "elect": 7128,
      "itar": 7129,
      "Ġnewly": 7130,
      "ĠClass": 7131,
      "Ġgear": 7132,
      "Ġletters": 7133,
      "07": 7134,
      "arn": 7135,
      "ĠCross": 7136,
      "Ġregistered": 7137,
      "Ġofficially": 7138,
      "ĠAcadem": 7139,
      "ima": 7140,
      "Ġupper": 7141,
      "ĠStart": 7142,
      "ĠSenator": 7143,
      "ĠRose": 7144,
      "Ġhabit": 7145,
      "04": 7146,
      "Ġbench": 7147,
      "Ġapartment": 7148,
      "zens": 7149,
      "Ã¼": 7150,
      "Ġpin": 7151,
      "Ġestimates": 7152,
      "Ġdemands": 7153,
      "Ġtherap": 7154,
      "ĠFund": 7155,
      "Ġnobody": 7156,
      "Ġticket": 7157,
      "Ġok": 7158,
      "Ġmixed": 7159,
      "Ġtall": 7160,
      "Ġdegrees": 7161,
      "Ġfifth": 7162,
      "inem": 7163,
      "Ġencourage": 7164,
      "Ġmyth": 7165,
      "Ġregularly": 7166,
      "++": 7167,
      "Ġconven": 7168,
      "Ġhouses": 7169,
      "âĢĻ.": 7170,
      "osis": 7171,
      "Ġagric": 7172,
      "ĠProgram": 7173,
      "ĠTaylor": 7174,
      "owa": 7175,
      "Ġideal": 7176,
      "Ġfeedback": 7177,
      "ads": 7178,
      "ilarly": 7179,
      "ĠLight": 7180,
      "Ġcontem": 7181,
      "era": 7182,
      "ĠFre": 7183,
      "Ġrecon": 7184,
      "Ġangry": 7185,
      "mont": 7186,
      "Ġcomprom": 7187,
      "ĠMarc": 7188,
      "Ġgenerate": 7189,
      "Ġformat": 7190,
      "ĠVideo": 7191,
      "inations": 7192,
      "Ġextensive": 7193,
      "ĠHard": 7194,
      "Ġcapture": 7195,
      "ĠKelly": 7196,
      "Ġboot": 7197,
      "Ġenthus": 7198,
      "rett": 7199,
      "iscal": 7200,
      "ĠBry": 7201,
      "oster": 7202,
      "Ġvirtual": 7203,
      "ĠMoh": 7204,
      "Ġengaged": 7205,
      "Ġconsumption": 7206,
      "ĠFair": 7207,
      "Ġexists": 7208,
      "Ġkil": 7209,
      "ĠGreek": 7210,
      "asters": 7211,
      "keep": 7212,
      "ogan": 7213,
      "06": 7214,
      "Ġrecovery": 7215,
      "Ġtaught": 7216,
      "ĠDig": 7217,
      "ocation": 7218,
      "ĠSouthern": 7219,
      "Ġincredibly": 7220,
      "Ġweird": 7221,
      "Ġloan": 7222,
      "Ġsympt": 7223,
      "Ġreturning": 7224,
      "Ġprofile": 7225,
      "Ġcondem": 7226,
      "Ġrig": 7227,
      "Ġfold": 7228,
      "Ġcontrols": 7229,
      "Ġprovince": 7230,
      "Ġ?": 7231,
      "Ġ($": 7232,
      "ĠLive": 7233,
      "iro": 7234,
      "Ġiron": 7235,
      "ĠOak": 7236,
      "Ġresulting": 7237,
      "Ġmeetings": 7238,
      "Ġconcluded": 7239,
      "dr": 7240,
      "Ġblocks": 7241,
      "Ġinstalled": 7242,
      "An": 7243,
      "ĠChampionship": 7244,
      "Ġinformed": 7245,
      "Ġtrading": 7246,
      "Ġpolls": 7247,
      "ĠKir": 7248,
      "Ġkeeps": 7249,
      "DS": 7250,
      "Ġcomic": 7251,
      "Ġparam": 7252,
      "Ġchosen": 7253,
      "Ġevil": 7254,
      "ĠMarket": 7255,
      "enders": 7256,
      "Ġfields": 7257,
      "Ġmanip": 7258,
      "Ġmayor": 7259,
      "Ġsolutions": 7260,
      "uts": 7261,
      "Ġparking": 7262,
      "ĠConstitution": 7263,
      "Ġreporter": 7264,
      "On": 7265,
      "bell": 7266,
      "ker": 7267,
      "uine": 7268,
      "Ġcrucial": 7269,
      "sea": 7270,
      "Ġterrible": 7271,
      "Ġwestern": 7272,
      "lls": 7273,
      "ura": 7274,
      "Ġphr": 7275,
      "Ġtitles": 7276,
      "Ġnarrative": 7277,
      "abis": 7278,
      "Ġelectricity": 7279,
      "08": 7280,
      "ivery": 7281,
      "ĠFood": 7282,
      "Ġsomebody": 7283,
      "Ġdecent": 7284,
      "rete": 7285,
      "ĠGall": 7286,
      "Ġcounty": 7287,
      "ĠEduc": 7288,
      "ĠOrig": 7289,
      "Ġelsewhere": 7290,
      "Ġcollected": 7291,
      "ĠMajor": 7292,
      "Ġcomponents": 7293,
      "idelines": 7294,
      "eda": 7295,
      "ĠAL": 7296,
      "ĠGreg": 7297,
      "ĠJac": 7298,
      "Ġharass": 7299,
      "ĠKent": 7300,
      "ĠKurd": 7301,
      "Ġcorruption": 7302,
      "Ġteaching": 7303,
      "Ġdozen": 7304,
      "Ġunp": 7305,
      "Ġinfect": 7306,
      "iner": 7307,
      "Ġcontinuing": 7308,
      "Ġcomplaint": 7309,
      "Ġstead": 7310,
      "ĠNation": 7311,
      "Ġintellect": 7312,
      "Ġpayments": 7313,
      "Ġaccurate": 7314,
      "oil": 7315,
      "Ġperfectly": 7316,
      "Ġtied": 7317,
      "Ġfake": 7318,
      "âĢ²": 7319,
      "etary": 7320,
      "Ġchances": 7321,
      "Ġconclusion": 7322,
      "ifications": 7323,
      "Ġestablish": 7324,
      "ĠCompany": 7325,
      "Ġincl": 7326,
      "Ġroutine": 7327,
      "ĠFollowing": 7328,
      "Ġshares": 7329,
      "ĠUt": 7330,
      "Ġpossession": 7331,
      "Ġ44": 7332,
      "Ġgrant": 7333,
      "Ġincredible": 7334,
      "lvan": 7335,
      "ĠVis": 7336,
      "ĠSpain": 7337,
      "ĠMinnes": 7338,
      "ĠRuby": 7339,
      "Ġsight": 7340,
      "ĠNick": 7341,
      "Ġmonit": 7342,
      "Ġfounder": 7343,
      "Ġclubs": 7344,
      "ml": 7345,
      "Ġestate": 7346,
      "Ġsanctions": 7347,
      "ĠFred": 7348,
      "ĠAnth": 7349,
      "Ġwriters": 7350,
      "fast": 7351,
      "ĠThrough": 7352,
      "ĠAsian": 7353,
      "Ġraising": 7354,
      "Ġautomatically": 7355,
      "Ġgranted": 7356,
      "Ġsuccessfully": 7357,
      "Ġtank": 7358,
      "Ġracial": 7359,
      "ĠData": 7360,
      "02": 7361,
      "Ġpayment": 7362,
      "Ġnegotiations": 7363,
      "Ġtaste": 7364,
      "Ġstuck": 7365,
      "ĠLGBT": 7366,
      "Ġbrowser": 7367,
      "ĠESP": 7368,
      "inder": 7369,
      "Ġinev": 7370,
      "Ġgonna": 7371,
      "Ġtaxpay": 7372,
      "Ġ1999": 7373,
      "________________": 7374,
      "%.": 7375,
      "Ġwithdraw": 7376,
      "67": 7377,
      "ĠLittle": 7378,
      "ĠUlt": 7379,
      "intend": 7380,
      "Ġbills": 7381,
      "alo": 7382,
      "ĠHave": 7383,
      "Ġextrem": 7384,
      "pes": 7385,
      "ĠZeal": 7386,
      "Ġtechnologies": 7387,
      "ĠSever": 7388,
      "Ġattended": 7389,
      "car": 7390,
      "ĠCall": 7391,
      "Ġworldwide": 7392,
      "Ġgro": 7393,
      "Ġhadn": 7394,
      "Ġcompens": 7395,
      "Ġregardless": 7396,
      "300": 7397,
      "Ġexcess": 7398,
      "ĠJam": 7399,
      "ĠJason": 7400,
      "ĠHistory": 7401,
      "Ġveget": 7402,
      "Ġorganized": 7403,
      "Ġ55": 7404,
      "star": 7405,
      "Ġaggressive": 7406,
      "ĠPay": 7407,
      "ĠOS": 7408,
      "ĠPremier": 7409,
      "ules": 7410,
      "ĠReport": 7411,
      "ĠPhotos": 7412,
      "Ġfir": 7413,
      "quarters": 7414,
      "prise": 7415,
      "Ġsufficient": 7416,
      "Ġcomplicated": 7417,
      "Ġproved": 7418,
      "ĠWithout": 7419,
      "Ġassistant": 7420,
      "sex": 7421,
      "ĠHom": 7422,
      "Ġpilot": 7423,
      "Ġ00": 7424,
      "Ġcoalition": 7425,
      "Ġrepresented": 7426,
      "Ġtracks": 7427,
      "Ġactor": 7428,
      "Ġassistance": 7429,
      "Ġlawyers": 7430,
      "cow": 7431,
      "ÙĦ": 7432,
      "onic": 7433,
      "ĠDet": 7434,
      "ĠPacific": 7435,
      "Ġborrow": 7436,
      "Ġaimed": 7437,
      "Ġpartnership": 7438,
      "Ġmainly": 7439,
      "ĠâĢĻ": 7440,
      "Ġdefence": 7441,
      "Ġfunny": 7442,
      "ĠDoes": 7443,
      "ĠMake": 7444,
      "Ġexplanation": 7445,
      "Ġroot": 7446,
      "Ġtechniques": 7447,
      "Ġcited": 7448,
      "Ġvisited": 7449,
      "ĠSnow": 7450,
      "ĠOs": 7451,
      "orne": 7452,
      "ĠParliament": 7453,
      "Ġinspir": 7454,
      "ĠJudge": 7455,
      "Ġgall": 7456,
      "Ġyield": 7457,
      "Ġads": 7458,
      "agram": 7459,
      "Ġoverse": 7460,
      "Ġsolve": 7461,
      "ĠMu": 7462,
      "ĠRa": 7463,
      "acked": 7464,
      "Ġrecording": 7465,
      "ĠMinnesota": 7466,
      "Ġvacc": 7467,
      ">>": 7468,
      "ĠFoot": 7469,
      "apes": 7470,
      "Ġcrypt": 7471,
      "ĠTem": 7472,
      "ĠNorthern": 7473,
      "ĠKeep": 7474,
      "Ġaccomp": 7475,
      "ĠMS": 7476,
      "cling": 7477,
      "Ġimplementation": 7478,
      "Man": 7479,
      "Ġdisaster": 7480,
      "rage": 7481,
      "ĠTest": 7482,
      "ushed": 7483,
      "Ġmachines": 7484,
      "idency": 7485,
      "there": 7486,
      "ĠPolicy": 7487,
      "ĠSeries": 7488,
      "Ġinnoc": 7489,
      "Ġsharp": 7490,
      "ĠVR": 7491,
      "Ġindex": 7492,
      "Ġoperate": 7493,
      "Ġawesome": 7494,
      "http": 7495,
      "ĠCapt": 7496,
      "Ġspin": 7497,
      "ĠNHL": 7498,
      "Ġblind": 7499,
      "VER": 7500,
      "ĠRick": 7501,
      "ĠNC": 7502,
      "rypt": 7503,
      "des": 7504,
      "she": 7505,
      "ĠLuc": 7506,
      "ĠAlbert": 7507,
      "Ġseats": 7508,
      "Ġ400": 7509,
      "Ġthousand": 7510,
      "Ġpace": 7511,
      "Ġmarked": 7512,
      "ĠRay": 7513,
      "Ġpenalty": 7514,
      "Ġthin": 7515,
      "Ġju": 7516,
      "Ġclients": 7517,
      "mann": 7518,
      "Ġcompete": 7519,
      "pread": 7520,
      "text": 7521,
      "ĠCoast": 7522,
      "Ġmagic": 7523,
      "Ġportion": 7524,
      "ĠServices": 7525,
      "iel": 7526,
      "Ġelite": 7527,
      "Ġprominent": 7528,
      "Ġvisible": 7529,
      "dy": 7530,
      "Ġloud": 7531,
      "ĠAvenue": 7532,
      "ĠReview": 7533,
      "inity": 7534,
      "ĠDevelopment": 7535,
      "lers": 7536,
      "Ġstadium": 7537,
      "sylvan": 7538,
      "ogen": 7539,
      "Ġcameras": 7540,
      "Oh": 7541,
      "ĠEastern": 7542,
      "Ġenjoyed": 7543,
      "bro": 7544,
      "ĠSn": 7545,
      "ĠMid": 7546,
      "Ġminority": 7547,
      "Ġscenes": 7548,
      "umin": 7549,
      "ĠLinux": 7550,
      "lla": 7551,
      "Ġcoordin": 7552,
      "Ġrelief": 7553,
      "98": 7554,
      "xic": 7555,
      "ĠIowa": 7556,
      "Ġenable": 7557,
      "CE": 7558,
      "Ġsaved": 7559,
      "ĠSometimes": 7560,
      "bn": 7561,
      "Ġacademic": 7562,
      "ibilities": 7563,
      "Ġreputation": 7564,
      "imore": 7565,
      "Ġentit": 7566,
      "ĠGlobal": 7567,
      "Ġuncertain": 7568,
      "Ġroster": 7569,
      "Ġemerged": 7570,
      "Ġprinciples": 7571,
      "Ġafraid": 7572,
      "aturally": 7573,
      "ĠKingdom": 7574,
      "Donald": 7575,
      "Ġ65": 7576,
      "Ġprocesses": 7577,
      "idespread": 7578,
      "Ġbaseball": 7579,
      "Ġadopted": 7580,
      "Ġstrict": 7581,
      "lights": 7582,
      "Ġaudio": 7583,
      "Ġpatterns": 7584,
      "Un": 7585,
      "Ġmail": 7586,
      "Ġdict": 7587,
      "))": 7588,
      "Ġfought": 7589,
      "Ð¾Ð": 7590,
      "ĠHenry": 7591,
      "gun": 7592,
      "Ġhidden": 7593,
      "Ġequivalent": 7594,
      "Ġshit": 7595,
      "Ġlawmakers": 7596,
      "Ġrating": 7597,
      "Ġformal": 7598,
      "Ġmedium": 7599,
      "Ġ1998": 7600,
      "ĠColumbia": 7601,
      "Ġpermanent": 7602,
      "ĠZealand": 7603,
      "ifies": 7604,
      "ĠPennsylvan": 7605,
      "Ġgaming": 7606,
      "Tile": 7607,
      "ĠAsh": 7608,
      "upid": 7609,
      "ilipp": 7610,
      "Ġgenuine": 7611,
      "viously": 7612,
      "itals": 7613,
      "Ġduty": 7614,
      "Ġvaluable": 7615,
      "ĠHon": 7616,
      "Ġstrikes": 7617,
      "ĠMah": 7618,
      "Ġcorporations": 7619,
      "Ġdescribes": 7620,
      "ĠUse": 7621,
      "Ġapolog": 7622,
      "Ġdowntown": 7623,
      "Ġrecip": 7624,
      "ras": 7625,
      "Ġsup": 7626,
      "ĠBlake": 7627,
      "Ġcounsel": 7628,
      "Ġmel": 7629,
      "Ġdepending": 7630,
      "Ġlaid": 7631,
      "Ġbusy": 7632,
      "core": 7633,
      "Ġshock": 7634,
      "uce": 7635,
      "ali": 7636,
      "Ġintense": 7637,
      "Ġsurvive": 7638,
      "03": 7639,
      "inking": 7640,
      "Ġwarming": 7641,
      "rently": 7642,
      "Ġrarely": 7643,
      "ĠBuild": 7644,
      "aron": 7645,
      "Ġmilk": 7646,
      "ĠNob": 7647,
      "Ġanticip": 7648,
      "ĠList": 7649,
      "ĠMir": 7650,
      "orough": 7651,
      "ĠReuters": 7652,
      "Ġunusual": 7653,
      "Ġ64": 7654,
      "ĠMayor": 7655,
      "ĠAS": 7656,
      "iana": 7657,
      "Ġbehalf": 7658,
      "ĠSir": 7659,
      "istent": 7660,
      "Bl": 7661,
      "icate": 7662,
      "Ġexception": 7663,
      "Ġtroub": 7664,
      "ĠMusic": 7665,
      "veary": 7666,
      "imm": 7667,
      "Alveary": 7668,
      "TileAlveary": 7669,
      "ls": 7670,
      "Ġlosses": 7671,
      "ĠHo": 7672,
      "Ġenorm": 7673,
      "56": 7674,
      "Ġdistr": 7675,
      "ĠIR": 7676,
      "Ġacceler": 7677,
      "Ġpersonnel": 7678,
      "Ġresulted": 7679,
      "ĠMcG": 7680,
      "month": 7681,
      "Ġbes": 7682,
      "ĠSeveral": 7683,
      "Ġpod": 7684,
      "ĠKat": 7685,
      "Ġconspir": 7686,
      "ĠHoward": 7687,
      "Ġpropag": 7688,
      "Ġtor": 7689,
      "Ġtur": 7690,
      "Ġexpectations": 7691,
      "ĠConservative": 7692,
      "ĠLo": 7693,
      "Ġshortly": 7694,
      "Ġphones": 7695,
      "Ġextension": 7696,
      "inding": 7697,
      "Ġcrop": 7698,
      "imp": 7699,
      "olis": 7700,
      "earing": 7701,
      "writ": 7702,
      "ĠLA": 7703,
      "ĠProfessor": 7704,
      "Ġdim": 7705,
      "Ġrecru": 7706,
      "Ġdiscipl": 7707,
      "fr": 7708,
      "ĠBull": 7709,
      "ĠPennsylvania": 7710,
      "Ġ43": 7711,
      "ĠMedical": 7712,
      "Ġcyber": 7713,
      "Ġveteran": 7714,
      "09": 7715,
      "LC": 7716,
      "ĠGiven": 7717,
      "Ġ47": 7718,
      "front": 7719,
      "etts": 7720,
      "Ġfault": 7721,
      "Ġfinance": 7722,
      "Ġcable": 7723,
      "Ġdestruction": 7724,
      "Ġchampionship": 7725,
      "athered": 7726,
      "gorith": 7727,
      "ĠOK": 7728,
      "anna": 7729,
      "Ġphilosophy": 7730,
      "Ġarrange": 7731,
      "ureau": 7732,
      "Ġcomputers": 7733,
      "ĠWalker": 7734,
      "ĠDiego": 7735,
      "ĠPen": 7736,
      "Ġparticipate": 7737,
      "Ġbom": 7738,
      "ĠFormer": 7739,
      "ĠEmail": 7740,
      "58": 7741,
      "da": 7742,
      "At": 7743,
      "Ġhired": 7744,
      "asion": 7745,
      "Ġstations": 7746,
      "ĠLatin": 7747,
      "Ġdinner": 7748,
      "ĠSus": 7749,
      "Ġpermission": 7750,
      "!!!!!!!!!!!!!!!!": 7751,
      "bec": 7752,
      "ĠAp": 7753,
      "ĠNavy": 7754,
      "Ġexplicit": 7755,
      "âĢĺ": 7756,
      "Ġcreates": 7757,
      "Ġthick": 7758,
      "Ġbrut": 7759,
      "Ġprivile": 7760,
      "Ġfounded": 7761,
      "ione": 7762,
      "Ġstable": 7763,
      "Ġsynt": 7764,
      "Ġfeelings": 7765,
      "rient": 7766,
      "arsh": 7767,
      "Ġmagn": 7768,
      "umer": 7769,
      "Ġentering": 7770,
      "Ġconvicted": 7771,
      "olen": 7772,
      "Ġhistoric": 7773,
      "Ġvulnerable": 7774,
      "cles": 7775,
      "ĠHor": 7776,
      "Ġuniform": 7777,
      "ounced": 7778,
      "ja": 7779,
      "izon": 7780,
      "Ġeverywhere": 7781,
      "Ġadvis": 7782,
      "Ġneighb": 7783,
      "ĠRand": 7784,
      "ĠPrice": 7785,
      "olves": 7786,
      "ĠHD": 7787,
      "Ġreduction": 7788,
      "Ġcontracts": 7789,
      "uma": 7790,
      "Ġwonderful": 7791,
      "ĠAdministration": 7792,
      "Ġ1960": 7793,
      "Ġmo": 7794,
      "ĠBattle": 7795,
      "Ġsurgery": 7796,
      "Ġproducer": 7797,
      "Ġwidespread": 7798,
      "cr": 7799,
      "making": 7800,
      "Ex": 7801,
      "Ġexposure": 7802,
      "interest": 7803,
      "otted": 7804,
      "ĠSaf": 7805,
      "ria": 7806,
      "ĠHarry": 7807,
      "Ġbeliefs": 7808,
      "97": 7809,
      "ĠRoyal": 7810,
      "ĠCost": 7811,
      "Ġlights": 7812,
      "ĠBaltimore": 7813,
      "Ġobst": 7814,
      "Ġdiscrimination": 7815,
      "Ġelectronic": 7816,
      "ĠNAT": 7817,
      "53": 7818,
      "ogether": 7819,
      "Ġ150": 7820,
      "ĠMedicine": 7821,
      "ulating": 7822,
      "ĠESPN": 7823,
      "MP": 7824,
      "ĠAdv": 7825,
      "Ġliked": 7826,
      "aun": 7827,
      "Ġincent": 7828,
      "hent": 7829,
      "ĠTenn": 7830,
      "Ġstruggling": 7831,
      "Ġbath": 7832,
      "ĠHay": 7833,
      "een": 7834,
      "oured": 7835,
      "igen": 7836,
      "agger": 7837,
      "Ġprinciple": 7838,
      "lan": 7839,
      "away": 7840,
      "Ġheaded": 7841,
      "zy": 7842,
      "Ġdeliber": 7843,
      "Ġcollapse": 7844,
      "Ġdrawing": 7845,
      "lah": 7846,
      "Ġprogramming": 7847,
      "Ġ46": 7848,
      "Ġachieved": 7849,
      "Ġwww": 7850,
      "ashes": 7851,
      "Ġrif": 7852,
      "Ġroles": 7853,
      "Ġaffili": 7854,
      "ĠCentre": 7855,
      "FF": 7856,
      "etime": 7857,
      "ĠNic": 7858,
      "Ġ41": 7859,
      "Ġhang": 7860,
      "athy": 7861,
      "world": 7862,
      "Ġpasses": 7863,
      "Ġrely": 7864,
      "Ġdoors": 7865,
      "Ġspark": 7866,
      "Ġworker": 7867,
      "ĠCommunity": 7868,
      "Ġdozens": 7869,
      "Ġprofession": 7870,
      "ba": 7871,
      "rific": 7872,
      "enny": 7873,
      "ĠUsing": 7874,
      "Ġridic": 7875,
      "Ġnominee": 7876,
      "ouch": 7877,
      "enth": 7878,
      "ĠRos": 7879,
      "Ġbail": 7880,
      "Ġrestrictions": 7881,
      "Ġhole": 7882,
      "Ġgenerated": 7883,
      "Ġjournalist": 7884,
      "Ġwebsites": 7885,
      "ĠPatrick": 7886,
      "rical": 7887,
      "Ġspr": 7888,
      "ĠGov": 7889,
      "Ġmanufacturing": 7890,
      "profit": 7891,
      "Ġcomponent": 7892,
      "Ġfee": 7893,
      "gets": 7894,
      "Ġsensitive": 7895,
      "oice": 7896,
      "antic": 7897,
      "ologists": 7898,
      "ĠMoscow": 7899,
      "Ġaver": 7900,
      "ĠAlab": 7901,
      "usse": 7902,
      "ĠEs": 7903,
      "Ġcampaigns": 7904,
      "Ġpounds": 7905,
      "amber": 7906,
      "ĠPhilipp": 7907,
      "Ġindicate": 7908,
      "Ġengineering": 7909,
      "Ġscenario": 7910,
      "Ġinterface": 7911,
      "Ġnormally": 7912,
      "abinet": 7913,
      "ilton": 7914,
      "Ġgrass": 7915,
      "Ġtoler": 7916,
      "Ġrecognition": 7917,
      "Ġpriority": 7918,
      "portion": 7919,
      "Ġcarefully": 7920,
      "Ġ->": 7921,
      "esy": 7922,
      "ĠBrother": 7923,
      "Ġships": 7924,
      "Ġmovements": 7925,
      "Ġrecognized": 7926,
      "MS": 7927,
      "Ġcaptain": 7928,
      "lete": 7929,
      "ca": 7930,
      "ãĢ": 7931,
      "Ġphotograph": 7932,
      "Ġscores": 7933,
      "Ġbegun": 7934,
      "ikes": 7935,
      "ĠLiver": 7936,
      "52": 7937,
      "Be": 7938,
      "Ġtail": 7939,
      "Ġgenetic": 7940,
      "Ġfirms": 7941,
      "ĠRoss": 7942,
      "ĠIndepend": 7943,
      "ĠSet": 7944,
      "Ġprogressive": 7945,
      "ATE": 7946,
      "Ġbanned": 7947,
      "osexual": 7948,
      "Ġanger": 7949,
      "ĠWhether": 7950,
      "One": 7951,
      "teen": 7952,
      "ye": 7953,
      "usive": 7954,
      "Ġrecover": 7955,
      "Ġneutral": 7956,
      "ĠMatthew": 7957,
      "ĠExt": 7958,
      "Ġfoundation": 7959,
      "\".[": 7960,
      "ester": 7961,
      "Ġrose": 7962,
      "ĠUFC": 7963,
      "Ġminds": 7964,
      "Ġtickets": 7965,
      "Ġho": 7966,
      "Ġgrounds": 7967,
      "Ġrapidly": 7968,
      "ĠAud": 7969,
      "Ġsin": 7970,
      "Ġren": 7971,
      "ĠLewis": 7972,
      "eland": 7973,
      "ĠArm": 7974,
      "ĠRen": 7975,
      "found": 7976,
      "Ġexceed": 7977,
      "Ġcontaining": 7978,
      "ĠEducation": 7979,
      "ĠWas": 7980,
      "achus": 7981,
      "Ġelev": 7982,
      "Ġupset": 7983,
      "Ġforever": 7984,
      "Ġdeeper": 7985,
      "engers": 7986,
      "Ġproducing": 7987,
      "Ġlistening": 7988,
      "ĠRadio": 7989,
      "then": 7990,
      "Ġpump": 7991,
      "ĠTed": 7992,
      "pat": 7993,
      "ĠCirc": 7994,
      "ĠHit": 7995,
      "Ġunex": 7996,
      "Ġsettlement": 7997,
      "ĠHell": 7998,
      "Ġgained": 7999,
      "Ġplate": 8000,
      "ĠStone": 8001,
      "aching": 8002,
      "Ġprocessing": 8003,
      "Ġfarmers": 8004,
      "Ġuncom": 8005,
      "Ġstructures": 8006,
      "Ġreaching": 8007,
      "mate": 8008,
      "this": 8009,
      "abil": 8010,
      "Ġfootage": 8011,
      "senal": 8012,
      "ĠTurkish": 8013,
      "ĠLy": 8014,
      "ĠEarlier": 8015,
      "adi": 8016,
      "Ġratio": 8017,
      "fall": 8018,
      "Ġcasual": 8019,
      "Ġalgorith": 8020,
      "Ġflaw": 8021,
      "Ġcivilians": 8022,
      "Ġracist": 8023,
      "riers": 8024,
      "ĠPrince": 8025,
      "ushing": 8026,
      "Ġfriendly": 8027,
      "Ġexclusive": 8028,
      "Ġtag": 8029,
      "Ġasks": 8030,
      "icket": 8031,
      "Ġeastern": 8032,
      "ĠGreece": 8033,
      "ystem": 8034,
      "Ġtip": 8035,
      "96": 8036,
      "Ġwed": 8037,
      "weet": 8038,
      "Ġhumanity": 8039,
      "ĠAcademy": 8040,
      "Ġperpet": 8041,
      "who": 8042,
      "Ġlayer": 8043,
      "ĠRelated": 8044,
      "heast": 8045,
      "Ġcontained": 8046,
      "CS": 8047,
      "oen": 8048,
      "Ġhide": 8049,
      "Ġlegend": 8050,
      "Ġsmooth": 8051,
      "Ġbasketball": 8052,
      "Ġlobby": 8053,
      "Ġlandsc": 8054,
      "Ġcha": 8055,
      "Ġsoil": 8056,
      "Ġ1996": 8057,
      "ĠAlabama": 8058,
      "Ġocean": 8059,
      "ĠNSA": 8060,
      "Ġchallenging": 8061,
      "âĢĻ,": 8062,
      "ĠLyn": 8063,
      "ĠJustin": 8064,
      "Ġinterviews": 8065,
      "Ġneighbour": 8066,
      "ĠBernie": 8067,
      "ĠAtlanta": 8068,
      "ĠCre": 8069,
      "Ġbranch": 8070,
      "Ġdevast": 8071,
      "TH": 8072,
      "ĠAllen": 8073,
      "achusetts": 8074,
      "Ġvary": 8075,
      "87": 8076,
      "Ġprepare": 8077,
      "ĠForm": 8078,
      "Ġscream": 8079,
      "Ġreducing": 8080,
      "Ġadvertising": 8081,
      "ĠLind": 8082,
      "appy": 8083,
      "ĠAction": 8084,
      "ĠGaza": 8085,
      "Ġbacked": 8086,
      "Ġequally": 8087,
      "kill": 8088,
      "Ġfiscal": 8089,
      "plete": 8090,
      "Ġsuggesting": 8091,
      "Ġpractical": 8092,
      "ĠDeath": 8093,
      "Ġrobot": 8094,
      "rine": 8095,
      "wr": 8096,
      "Ġanybody": 8097,
      "Ġassociation": 8098,
      "Ġfears": 8099,
      "Ġpapers": 8100,
      "Ġunemployment": 8101,
      "Ġepisodes": 8102,
      "Ġtackle": 8103,
      "ĠHaving": 8104,
      "ĠPlus": 8105,
      "ĠRoy": 8106,
      "ĠInformation": 8107,
      "Ġwing": 8108,
      "Ġlists": 8109,
      "Ġbridge": 8110,
      "Ġconstitutional": 8111,
      "Ġbra": 8112,
      "Ġscoring": 8113,
      "page": 8114,
      "ĠField": 8115,
      "Ġinteract": 8116,
      "ĠDivision": 8117,
      "EA": 8118,
      "ĠCO": 8119,
      "Ġcontribute": 8120,
      "Ġwalls": 8121,
      "ĠQueen": 8122,
      "ĠConference": 8123,
      "Ġhitting": 8124,
      "Ġmining": 8125,
      "Ġhandful": 8126,
      "ĠSyd": 8127,
      "Ġterrorists": 8128,
      "Ġliquid": 8129,
      "ĠDev": 8130,
      "ĠSix": 8131,
      "ĠCore": 8132,
      "Ġnotion": 8133,
      "ĠOtt": 8134,
      "udes": 8135,
      "ĠTri": 8136,
      "unior": 8137,
      "angel": 8138,
      "ĠMarvel": 8139,
      "Ġutil": 8140,
      "abs": 8141,
      "Ġestablishment": 8142,
      "ifest": 8143,
      "Ġexternal": 8144,
      "ĠON": 8145,
      "ĠAmendment": 8146,
      "ĠAustin": 8147,
      "Ġfinger": 8148,
      "ipal": 8149,
      "Ġairport": 8150,
      "Ġindicated": 8151,
      "ĠSquare": 8152,
      "vard": 8153,
      "Ġfoss": 8154,
      "ĠConnect": 8155,
      "Ġindependence": 8156,
      "ĠMassachusetts": 8157,
      "51": 8158,
      "har": 8159,
      "ĠKansas": 8160,
      "Ġ1997": 8161,
      "Ġproven": 8162,
      "Ġconnections": 8163,
      "ouver": 8164,
      "ĠiP": 8165,
      "rolled": 8166,
      "ĠHind": 8167,
      "aka": 8168,
      "Ġdescription": 8169,
      "Ġflash": 8170,
      "Ġconvin": 8171,
      "ami": 8172,
      "Ġunclear": 8173,
      "Ġwelf": 8174,
      "Ġsugar": 8175,
      "inois": 8176,
      "worth": 8177,
      "Ġedition": 8178,
      "Ġdeputy": 8179,
      "EE": 8180,
      "ked": 8181,
      "owing": 8182,
      "ĠWH": 8183,
      "Ġbarely": 8184,
      "Ġhook": 8185,
      "ĠTown": 8186,
      "Ġsteel": 8187,
      "ĠOklah": 8188,
      "Ġoverwhelming": 8189,
      "Ġalien": 8190,
      "ĠProv": 8191,
      "Ġtechnique": 8192,
      "Ġroads": 8193,
      "PG": 8194,
      "arrass": 8195,
      "dem": 8196,
      "ĠPoint": 8197,
      "Getty": 8198,
      "ĠCameron": 8199,
      "ĠDesign": 8200,
      "Ġsettle": 8201,
      "Ġincorpor": 8202,
      "ĠHead": 8203,
      "including": 8204,
      "ĠEnvironment": 8205,
      "fare": 8206,
      "Ġprosec": 8207,
      "obs": 8208,
      "lessly": 8209,
      "Ġstatistics": 8210,
      "Ġinvolvement": 8211,
      "Ġwelfare": 8212,
      "ĠYemen": 8213,
      "Ġgathered": 8214,
      "ĠStadium": 8215,
      "aska": 8216,
      "ĠNon": 8217,
      "Ġinvited": 8218,
      "Ġdelivery": 8219,
      "Im": 8220,
      "Ġsmoke": 8221,
      "burgh": 8222,
      "Ġthrown": 8223,
      "ĠBon": 8224,
      "ĠFreedom": 8225,
      "Ġusage": 8226,
      "Ġ%": 8227,
      "Ġhardly": 8228,
      "acon": 8229,
      "Ġrural": 8230,
      "Ġreviews": 8231,
      "ĠIraqi": 8232,
      "ĠAle": 8233,
      "ĠLater": 8234,
      "Ġreferring": 8235,
      "ĠSS": 8236,
      "ĠArk": 8237,
      "ancouver": 8238,
      "ĠAnthony": 8239,
      "from": 8240,
      "ĠSH": 8241,
      "ĠTour": 8242,
      "Ġelig": 8243,
      "ĠExec": 8244,
      "Ġsubjects": 8245,
      "Ġinvent": 8246,
      "ĠGuardian": 8247,
      "Ġloyal": 8248,
      "Ġremem": 8249,
      "ĠMinistry": 8250,
      "iti": 8251,
      "ixed": 8252,
      "ĠFamily": 8253,
      "mal": 8254,
      "Ġownership": 8255,
      "Ġjury": 8256,
      "uer": 8257,
      "Ġstupid": 8258,
      "Ġpurchased": 8259,
      "Ġversus": 8260,
      "Ġriver": 8261,
      "Ġchat": 8262,
      "rous": 8263,
      "Ġentr": 8264,
      "Ġlegs": 8265,
      "Ġporn": 8266,
      "ĠBall": 8267,
      "ĠSpring": 8268,
      "uties": 8269,
      "Ġserves": 8270,
      "Ġrepresentative": 8271,
      "Ġplatforms": 8272,
      "Pe": 8273,
      "ho": 8274,
      "Ġgam": 8275,
      "Ġsymptoms": 8276,
      "Ġignore": 8277,
      "ĠMexican": 8278,
      "kind": 8279,
      "Ġcos": 8280,
      "Ġhanded": 8281,
      "Ġbrown": 8282,
      "ĠTech": 8283,
      "eman": 8284,
      "CA": 8285,
      "Ġtasks": 8286,
      "ĠPerson": 8287,
      "Ġinvestigate": 8288,
      "Ġexpanded": 8289,
      "Ġaffairs": 8290,
      "Ġfailing": 8291,
      "Ġillness": 8292,
      "Ġcollective": 8293,
      "ĠIllinois": 8294,
      "Ġovert": 8295,
      "ultural": 8296,
      "Ġbrothers": 8297,
      "Ġvital": 8298,
      "ĠOklahoma": 8299,
      "ĠBang": 8300,
      "Ġintellectual": 8301,
      "Ġwars": 8302,
      "ĠBad": 8303,
      "ĠStat": 8304,
      "ĠSat": 8305,
      "ĠYeah": 8306,
      "iversary": 8307,
      "ĠABC": 8308,
      "ogs": 8309,
      "Ġcomprehens": 8310,
      "Ġtransm": 8311,
      "Ġretired": 8312,
      "Ġmathem": 8313,
      "BO": 8314,
      "ĠBra": 8315,
      "umes": 8316,
      "Ġviewers": 8317,
      "Ġimprovements": 8318,
      "Ġdisagree": 8319,
      "ĠSydney": 8320,
      "ferences": 8321,
      "Ġsoph": 8322,
      "ĠNOT": 8323,
      "Ġcitizen": 8324,
      "Ġreferend": 8325,
      "usted": 8326,
      "wered": 8327,
      "Ġremarks": 8328,
      "ĠShort": 8329,
      "Ġrespectively": 8330,
      "Ġattacking": 8331,
      "Ġdefine": 8332,
      "yer": 8333,
      "ĠBa": 8334,
      "ĠIranian": 8335,
      "ĠIII": 8336,
      "ĠLiverpool": 8337,
      "Ġtransgender": 8338,
      "Ġimplemented": 8339,
      "400": 8340,
      "ĠAnton": 8341,
      "Ġastron": 8342,
      "hour": 8343,
      "ĠDave": 8344,
      "Ġattached": 8345,
      "Ġestimate": 8346,
      "ĠCooper": 8347,
      "::": 8348,
      "Ġovers": 8349,
      "ĠVancouver": 8350,
      "Ġlicens": 8351,
      "Ġfiction": 8352,
      "ĠChair": 8353,
      "aver": 8354,
      "ĠPent": 8355,
      "Ġjoining": 8356,
      "Ġscreens": 8357,
      "Ġconvinced": 8358,
      "Ġpublication": 8359,
      "Ġsamples": 8360,
      "Ġdiscovery": 8361,
      "AG": 8362,
      "Ġfab": 8363,
      "ĠCow": 8364,
      "Ġstayed": 8365,
      "Ġadmit": 8366,
      "eding": 8367,
      "Ġraw": 8368,
      "Ġfrag": 8369,
      "%,": 8370,
      "Ġ52": 8371,
      "Ġregistr": 8372,
      "Ġregister": 8373,
      "Ġsuspected": 8374,
      "Ġreven": 8375,
      "Ġgift": 8376,
      "ĠSony": 8377,
      "Ġsuffer": 8378,
      "Ġcovers": 8379,
      "Ġspiritual": 8380,
      "ĠPot": 8381,
      "Ġjoy": 8382,
      "Ġwheel": 8383,
      "Ġaccus": 8384,
      "Ġcareful": 8385,
      "Ġlanguages": 8386,
      "ĠCustom": 8387,
      "Ġcannabis": 8388,
      "Ġtone": 8389,
      "ĠSeason": 8390,
      "ĠBroad": 8391,
      "Ġtrigger": 8392,
      "Ġluck": 8393,
      "ĠJay": 8394,
      "Ġawareness": 8395,
      "dri": 8396,
      "hot": 8397,
      "Ġfallen": 8398,
      "Ġdepos": 8399,
      "Ġethnic": 8400,
      "Ġcoc": 8401,
      "ĠAz": 8402,
      "ĠHop": 8403,
      "cover": 8404,
      "Ġstrategic": 8405,
      "Ġfro": 8406,
      "Ġtestim": 8407,
      "olph": 8408,
      "Ġneck": 8409,
      "Ġcontroversy": 8410,
      "ĠTai": 8411,
      "ĠAk": 8412,
      "ira": 8413,
      "Ġholiday": 8414,
      "xit": 8415,
      "oding": 8416,
      "Ġinvolves": 8417,
      "Ġinvestigating": 8418,
      "Ġparalle": 8419,
      "Ġtemporary": 8420,
      "ĠNATO": 8421,
      "Ġultimate": 8422,
      "wo": 8423,
      "agh": 8424,
      "Ġdepends": 8425,
      "UL": 8426,
      "uten": 8427,
      "Ġpoly": 8428,
      "Ġinvestigators": 8429,
      "Ġdiscussions": 8430,
      "Ġscandal": 8431,
      "ĠIce": 8432,
      "Ġbarrel": 8433,
      "Ġfeaturing": 8434,
      "Ġprotein": 8435,
      "Ġwarrant": 8436,
      "ĠBeach": 8437,
      "Ġmenu": 8438,
      "Ġenormous": 8439,
      "irlf": 8440,
      "uits": 8441,
      "Ġtomorrow": 8442,
      "ĠUnlike": 8443,
      "With": 8444,
      "Ġreader": 8445,
      "ĠCredit": 8446,
      "Ġ2019": 8447,
      "icking": 8448,
      "cut": 8449,
      "ĠMoon": 8450,
      "Ġsilver": 8451,
      "Ġdynamic": 8452,
      "irlfriend": 8453,
      "ĠUr": 8454,
      "rik": 8455,
      "ĠCorpor": 8456,
      "ĠâĤ¬": 8457,
      "ĠBelg": 8458,
      "ĠUpdate": 8459,
      "Ġsalt": 8460,
      "Ġbread": 8461,
      "ĠBuff": 8462,
      "ĠPack": 8463,
      "Ġabandoned": 8464,
      "ĠCook": 8465,
      "tering": 8466,
      "Ġpeak": 8467,
      "annels": 8468,
      "Ġconversations": 8469,
      "Ġamid": 8470,
      "Ġdepression": 8471,
      "Ġsettings": 8472,
      "Ġregulation": 8473,
      "aus": 8474,
      "cific": 8475,
      "Ġfactory": 8476,
      "Ġsorry": 8477,
      "Ġefficiency": 8478,
      "Ġaddressed": 8479,
      "Ġguest": 8480,
      "Ġmuscle": 8481,
      "Ġfantastic": 8482,
      "App": 8483,
      "ĠBrew": 8484,
      "ĠPop": 8485,
      "Ġextend": 8486,
      "Ġsubstantial": 8487,
      "Ġthrew": 8488,
      "ijing": 8489,
      "Ġsuspended": 8490,
      "log": 8491,
      "ĠEngine": 8492,
      "Ġlegitimate": 8493,
      "aning": 8494,
      "ĠMaster": 8495,
      "Ġpreced": 8496,
      "Ġactors": 8497,
      "Ġoffices": 8498,
      "inch": 8499,
      "ĠMain": 8500,
      "raph": 8501,
      "ĠExper": 8502,
      "ĠArabia": 8503,
      "Ġinitiative": 8504,
      "Ġingred": 8505,
      "'.": 8506,
      "Ġdomain": 8507,
      "Ġvisitors": 8508,
      "Ġcust": 8509,
      "Ġprofits": 8510,
      "ĠExpl": 8511,
      "mo": 8512,
      "ĠCBS": 8513,
      "Every": 8514,
      "ĠGolden": 8515,
      "ais": 8516,
      "Ġclimb": 8517,
      "Ġdramatic": 8518,
      "Ġstone": 8519,
      "ĠFront": 8520,
      "gener": 8521,
      "Ġje": 8522,
      "Ġcovering": 8523,
      "Ġrecommended": 8524,
      "ĠCreat": 8525,
      "ĠCopy": 8526,
      "Ġsatellite": 8527,
      "Ġmembership": 8528,
      "Ġanxiety": 8529,
      "ĠCommon": 8530,
      "Ġresource": 8531,
      "Ġpetition": 8532,
      "Ġcomplaints": 8533,
      "FA": 8534,
      "ĠAge": 8535,
      "uros": 8536,
      "Ġdiversity": 8537,
      "Ġbrill": 8538,
      "Ġattempting": 8539,
      "ĠTechnology": 8540,
      "Ġstake": 8541,
      "Ġincidents": 8542,
      "Ġmortg": 8543,
      "Ġbehaviour": 8544,
      "veland": 8545,
      "Ġpromises": 8546,
      "Ġfruit": 8547,
      "ĠSams": 8548,
      "ĠPD": 8549,
      "Ġjur": 8550,
      "Ġguarantee": 8551,
      "Ġinject": 8552,
      "ĠGun": 8553,
      "abeth": 8554,
      "ĠEth": 8555,
      "ective": 8556,
      "claim": 8557,
      "Ġabsence": 8558,
      "ĠGetty": 8559,
      "Ġframework": 8560,
      ".-": 8561,
      "Well": 8562,
      "Ġembarrass": 8563,
      "Ġtweeted": 8564,
      "rets": 8565,
      "Ġbub": 8566,
      "Ġbars": 8567,
      "Ġinner": 8568,
      "ĠChel": 8569,
      "ĠPo": 8570,
      "Ġfantasy": 8571,
      "Ġfed": 8572,
      "Ġraces": 8573,
      "ĠYang": 8574,
      "Ġadvocates": 8575,
      "Ġ51": 8576,
      "oln": 8577,
      "Ġnoise": 8578,
      "Ġpresum": 8579,
      "Ġhorror": 8580,
      "Ġfulf": 8581,
      "itionally": 8582,
      "Ġentertainment": 8583,
      "\")": 8584,
      "ĠLow": 8585,
      "ivals": 8586,
      "Ġ1994": 8587,
      "Ġreplacement": 8588,
      "ĠBron": 8589,
      "76": 8590,
      "PP": 8591,
      "lad": 8592,
      "Ġcontributions": 8593,
      "HS": 8594,
      "case": 8595,
      "sels": 8596,
      "ĠHarvard": 8597,
      "mary": 8598,
      "Ġham": 8599,
      "ĠAnderson": 8600,
      "ĠBatman": 8601,
      "Ġinquir": 8602,
      "Ġlucky": 8603,
      "ĠWolf": 8604,
      "unes": 8605,
      "ĠOnt": 8606,
      "Ġheading": 8607,
      "Ġactivist": 8608,
      "Ġimprovement": 8609,
      "ĠTen": 8610,
      "ĠAst": 8611,
      "ĠMORE": 8612,
      "Ġintervention": 8613,
      "EST": 8614,
      "Ġwages": 8615,
      "Ġmic": 8616,
      "pload": 8617,
      "Ġranks": 8618,
      "Ġdemocratic": 8619,
      "Ġles": 8620,
      "Ġconce": 8621,
      "ĠAND": 8622,
      "79": 8623,
      "itary": 8624,
      "Ġhint": 8625,
      "ĠEvent": 8626,
      "Ġpassengers": 8627,
      "ĠFinal": 8628,
      "Ġmedicine": 8629,
      "Ġpersonality": 8630,
      "ĠBeijing": 8631,
      "Ġimproving": 8632,
      "Ġreferendum": 8633,
      "Ġstolen": 8634,
      "ĠEqu": 8635,
      "ĠProp": 8636,
      "otype": 8637,
      "Ġdeficit": 8638,
      "Ġpopulations": 8639,
      "ĠAbb": 8640,
      "oval": 8641,
      "Ġ1995": 8642,
      "Ġscholars": 8643,
      "BM": 8644,
      "iy": 8645,
      "Ġviewed": 8646,
      "ĠHospital": 8647,
      "Ġtrained": 8648,
      "ources": 8649,
      "Ġscope": 8650,
      "Ġdistributed": 8651,
      "Ġnoting": 8652,
      "Ġresign": 8653,
      "Ġtwenty": 8654,
      "Ġtries": 8655,
      "Ġvirtually": 8656,
      "Ġgrav": 8657,
      "utive": 8658,
      "iability": 8659,
      "ĠâĢĿ": 8660,
      "Ġspaces": 8661,
      "Ġencouraged": 8662,
      "Ġclothes": 8663,
      "Ġappreciate": 8664,
      "ĠPass": 8665,
      "Ġmonitor": 8666,
      "Ġsmile": 8667,
      "Ġheadquarters": 8668,
      "ĠAssad": 8669,
      "ĠMuseum": 8670,
      "ĠSweden": 8671,
      "Ġdump": 8672,
      "Ġportray": 8673,
      "Not": 8674,
      "RI": 8675,
      "ammed": 8676,
      "mat": 8677,
      "Ġattitude": 8678,
      "Ġ_": 8679,
      "Ġdisrupt": 8680,
      "ĠChristians": 8681,
      "Ġsalary": 8682,
      "Ġthrowing": 8683,
      "ĠMarsh": 8684,
      "Ġrevel": 8685,
      "Ġcoaches": 8686,
      "Ġbreaks": 8687,
      "ĠRevolution": 8688,
      "alling": 8689,
      "ĠiOS": 8690,
      "Ġinnovation": 8691,
      "iban": 8692,
      "Ġprotecting": 8693,
      "Ġpersons": 8694,
      "Ġbacter": 8695,
      "ĠSure": 8696,
      "ethe": 8697,
      "Ġseemingly": 8698,
      "Ġjoke": 8699,
      "Ġopinions": 8700,
      "Ġpremium": 8701,
      "Ġlying": 8702,
      "ĠSon": 8703,
      "ĠIndust": 8704,
      "ĠSilver": 8705,
      "Ġlowest": 8706,
      "Ġtransportation": 8707,
      "erted": 8708,
      "ĠBase": 8709,
      "don": 8710,
      "Ġstages": 8711,
      "Ġrational": 8712,
      "aeda": 8713,
      "ika": 8714,
      "Ġranked": 8715,
      "Ġmountain": 8716,
      "Do": 8717,
      "Ð»": 8718,
      "Ġcommonly": 8719,
      "Ġhomeless": 8720,
      "Ġmidfield": 8721,
      "Ġlogic": 8722,
      "Ġtemperatures": 8723,
      "ĠCleveland": 8724,
      "Ġdance": 8725,
      "Ġyellow": 8726,
      "geon": 8727,
      "Ġdispl": 8728,
      "ĠVegas": 8729,
      "ta": 8730,
      "iture": 8731,
      "ĠMun": 8732,
      "Ġvoter": 8733,
      "Ġdrew": 8734,
      "Ġarrive": 8735,
      "####": 8736,
      "Ġjudges": 8737,
      "Ġreplied": 8738,
      "ĠMaryland": 8739,
      "Ġmad": 8740,
      "Ġlocked": 8741,
      "Ġshout": 8742,
      "Ġbug": 8743,
      "Ġgains": 8744,
      "These": 8745,
      "Ġshoulder": 8746,
      "Ġhypot": 8747,
      "Ġsurvival": 8748,
      "Ġinflation": 8749,
      "ĠSupport": 8750,
      "ĠSanta": 8751,
      "lay": 8752,
      "Ġloans": 8753,
      "Ġgal": 8754,
      "Ġclosing": 8755,
      "Ġmissile": 8756,
      "Ġtrave": 8757,
      "Ġassessment": 8758,
      "BN": 8759,
      "Ġtheat": 8760,
      "itage": 8761,
      "ĠAward": 8762,
      "Ġunc": 8763,
      "ĠEliz": 8764,
      "Ġdivided": 8765,
      "Ã¢": 8766,
      "Ġ),": 8767,
      "uted": 8768,
      "Ġouts": 8769,
      "ĠBruce": 8770,
      "!)": 8771,
      "Ġspeaks": 8772,
      "Ġwine": 8773,
      "Ġappointed": 8774,
      "Ġchapter": 8775,
      "Ġspoken": 8776,
      "Ġfunded": 8777,
      "Ġshopping": 8778,
      "PM": 8779,
      "ifer": 8780,
      "Ġrhet": 8781,
      "resent": 8782,
      "cience": 8783,
      "maker": 8784,
      "ĠSamsung": 8785,
      "iences": 8786,
      "Ġconsistently": 8787,
      "aware": 8788,
      "Ġguitar": 8789,
      "ieties": 8790,
      "Ġignored": 8791,
      "ĠGraham": 8792,
      "isons": 8793,
      "Ġdad": 8794,
      "ĠLine": 8795,
      "Ġcomedy": 8796,
      "Ġ1992": 8797,
      "ĠIndiana": 8798,
      "bi": 8799,
      "ĠUC": 8800,
      "zing": 8801,
      "ĠMill": 8802,
      "Ġtrem": 8803,
      "ĠDoctor": 8804,
      "ĠControl": 8805,
      "rimin": 8806,
      "yard": 8807,
      "ĠDer": 8808,
      "hesis": 8809,
      "ÂĴ": 8810,
      "Ġchest": 8811,
      "Ġinsisted": 8812,
      "ĠEmpire": 8813,
      "ĠTrib": 8814,
      "ĠPitt": 8815,
      "EG": 8816,
      "ĠWW": 8817,
      "iano": 8818,
      "Ġtransit": 8819,
      "Ġrescue": 8820,
      "Ġmonitoring": 8821,
      "Ġinequ": 8822,
      "ĠUnt": 8823,
      "jo": 8824,
      "phones": 8825,
      "********": 8826,
      "sub": 8827,
      "Ġcogn": 8828,
      "ĠLas": 8829,
      "Ġhandling": 8830,
      "Ġskept": 8831,
      "iculture": 8832,
      "Ġproposals": 8833,
      "Ġsubsequent": 8834,
      "ĠFive": 8835,
      "ĠKar": 8836,
      "ĠCarter": 8837,
      "inating": 8838,
      "usalem": 8839,
      "PC": 8840,
      "fund": 8841,
      "zed": 8842,
      "Ġtoxic": 8843,
      "Ġexch": 8844,
      "ĠAli": 8845,
      "comes": 8846,
      "Ġcolors": 8847,
      "Ġperforming": 8848,
      "eters": 8849,
      "ila": 8850,
      "Ġmarks": 8851,
      "State": 8852,
      "Ġspokesperson": 8853,
      "Ġmistakes": 8854,
      "Ġokay": 8855,
      "72": 8856,
      "isk": 8857,
      "nedy": 8858,
      "ĠMrs": 8859,
      "Ġcriticized": 8860,
      "Ġconservatives": 8861,
      "ropri": 8862,
      "ĠIntel": 8863,
      "ĠVietnam": 8864,
      "Ġstored": 8865,
      "Ġscan": 8866,
      "ĠDutch": 8867,
      "iece": 8868,
      "Ġmonthly": 8869,
      "Ġacknowledged": 8870,
      "74": 8871,
      "89": 8872,
      "mad": 8873,
      "sa": 8874,
      "Ġblocked": 8875,
      "ĠEveryone": 8876,
      "âĢĶâĢĶâĢĶâĢĶâĢĶâĢĶâĢĶâĢĶ": 8877,
      "stract": 8878,
      "amac": 8879,
      "Ġgrade": 8880,
      "Ġinsist": 8881,
      "Ġauto": 8882,
      "Ġracism": 8883,
      "Ġpursue": 8884,
      "ĠPriv": 8885,
      "door": 8886,
      "Ġrequested": 8887,
      "ĠLink": 8888,
      "aret": 8889,
      "Ġboat": 8890,
      "Ġdrone": 8891,
      "ĠMetro": 8892,
      "ille": 8893,
      "Ġcenters": 8894,
      "Ġvariable": 8895,
      "Ġconcrete": 8896,
      "ĠPortland": 8897,
      "ĠCaption": 8898,
      "oded": 8899,
      "Er": 8900,
      "Ġcopies": 8901,
      "Ġsty": 8902,
      "Ġproviders": 8903,
      "ĠFootball": 8904,
      "Ġexport": 8905,
      "Script": 8906,
      "rec": 8907,
      "repre": 8908,
      "agic": 8909,
      "Ġplain": 8910,
      "Ġstudied": 8911,
      "Ġrom": 8912,
      "Ġ56": 8913,
      "ĠCaptain": 8914,
      "Ġupgrade": 8915,
      "Ġgig": 8916,
      "ĠEdward": 8917,
      "ĠIron": 8918,
      "ĠQuest": 8919,
      "max": 8920,
      "Ġinvestigations": 8921,
      "Ġsurf": 8922,
      "Ġlegacy": 8923,
      "say": 8924,
      "isa": 8925,
      "ington": 8926,
      "arms": 8927,
      "Ġassign": 8928,
      "Ġvisiting": 8929,
      "mans": 8930,
      "Ġthorough": 8931,
      "Ġconsole": 8932,
      "Ġcompe": 8933,
      "ĠNorm": 8934,
      "Ġ2020": 8935,
      "Ġentitled": 8936,
      "Ġapproached": 8937,
      "Ġdivor": 8938,
      "Ġbuff": 8939,
      "Ġwealthy": 8940,
      "ĠTro": 8941,
      "ultane": 8942,
      "issue": 8943,
      "Ġauthent": 8944,
      "Ġhockey": 8945,
      "Ġlunch": 8946,
      "Ġconspiracy": 8947,
      "ĠRather": 8948,
      "Ġexit": 8949,
      "ĠIntelligence": 8950,
      "Ġuniversal": 8951,
      "ught": 8952,
      "reprene": 8953,
      "ui": 8954,
      "sect": 8955,
      "ĠEarly": 8956,
      "Ġlanding": 8957,
      "ommod": 8958,
      "Ġliterature": 8959,
      "Ġdismissed": 8960,
      "omes": 8961,
      "pled": 8962,
      "assador": 8963,
      "bridge": 8964,
      "Ġurged": 8965,
      "ĠBelow": 8966,
      "Ġwrest": 8967,
      "ĠSel": 8968,
      "Ġrender": 8969,
      "Ġprisoners": 8970,
      "ĠChelsea": 8971,
      "Ġsmell": 8972,
      "ĠTele": 8973,
      "ĠOakland": 8974,
      "Ġtea": 8975,
      "Ġordinary": 8976,
      "ĠXbox": 8977,
      "ĠAssociated": 8978,
      "Ġtap": 8979,
      "Ġdiverse": 8980,
      "Ġnaturally": 8981,
      "ĠSound": 8982,
      "aga": 8983,
      "ĠSpeaking": 8984,
      "73": 8985,
      "Ġmos": 8986,
      "ailed": 8987,
      "Ġdrama": 8988,
      "ĠWarren": 8989,
      "Ġwaters": 8990,
      "ĠHold": 8991,
      "rows": 8992,
      "Ġ~": 8993,
      "iler": 8994,
      "theless": 8995,
      "Ġabsor": 8996,
      "Ġfighter": 8997,
      "walk": 8998,
      "Ġtargeting": 8999,
      "ĠJonathan": 9000,
      "intendo": 9001,
      "iden": 9002,
      "Ġflags": 9003,
      "Ġsavings": 9004,
      "ĠGary": 9005,
      "backs": 9006,
      "ĠGovernor": 9007,
      "ĠElizabeth": 9008,
      "inf": 9009,
      "ordinary": 9010,
      "aval": 9011,
      "Ġresponses": 9012,
      "amacare": 9013,
      "Ġgrid": 9014,
      "ĠJerusalem": 9015,
      "ihad": 9016,
      "WS": 9017,
      "ĠDream": 9018,
      "Ġtactics": 9019,
      "Ġ(âĢľ": 9020,
      "Ġweekly": 9021,
      "Ġfalls": 9022,
      "Ġphrase": 9023,
      "Ġmarch": 9024,
      "ĠCro": 9025,
      "thon": 9026,
      "Ġchannels": 9027,
      "Ġprepar": 9028,
      "Ġreads": 9029,
      "Ġsupplies": 9030,
      "Ġlets": 9031,
      "Ġwhenever": 9032,
      "ounce": 9033,
      "Ġconventional": 9034,
      "ĠOlympic": 9035,
      "Ġcongressional": 9036,
      "UN": 9037,
      "]:": 9038,
      "ĠRoberts": 9039,
      "ĠLear": 9040,
      "ĠJean": 9041,
      "Ġhorse": 9042,
      "ĠAlexander": 9043,
      "ĠSean": 9044,
      "Ġclassified": 9045,
      "Ġcro": 9046,
      "Ġdust": 9047,
      "Ġappearances": 9048,
      "Ġbreath": 9049,
      "hop": 9050,
      "Ġdeny": 9051,
      "Ġhyper": 9052,
      "Ġsenator": 9053,
      "rooms": 9054,
      "ĠBal": 9055,
      "ĠPict": 9056,
      "Ġquoted": 9057,
      "ĠBloom": 9058,
      "ĠBeing": 9059,
      "press": 9060,
      "Ġtape": 9061,
      "Ġbeauty": 9062,
      "ped": 9063,
      "ĠVice": 9064,
      "Ġactively": 9065,
      "Ġhoped": 9066,
      "Ġdemonstrated": 9067,
      "Ġmaps": 9068,
      "odox": 9069,
      "ĠKennedy": 9070,
      "ĠFigure": 9071,
      "Ġpolitically": 9072,
      "ĠOthers": 9073,
      "tc": 9074,
      "Ġmun": 9075,
      "Ġrear": 9076,
      "irts": 9077,
      "RL": 9078,
      "iate": 9079,
      "ĠHur": 9080,
      "Ġcounts": 9081,
      "ĠNone": 9082,
      "ĠThings": 9083,
      "onder": 9084,
      "Ġguidelines": 9085,
      "ĠLinc": 9086,
      "asty": 9087,
      "ĠPatri": 9088,
      "esty": 9089,
      "ĠGirl": 9090,
      "ĠHawai": 9091,
      "icism": 9092,
      "Ġdrove": 9093,
      "ĠLiberal": 9094,
      "Ġmole": 9095,
      "ĠAccess": 9096,
      "Ġhealthcare": 9097,
      "Ġ1993": 9098,
      "Ġveterans": 9099,
      "ĠTennes": 9100,
      "ĠLeon": 9101,
      "Ġmusical": 9102,
      "Ġrepresenting": 9103,
      "Ġpopularity": 9104,
      "Ġphotograp": 9105,
      "62": 9106,
      "orship": 9107,
      "Ġcivilian": 9108,
      "trans": 9109,
      "hatt": 9110,
      "mers": 9111,
      "âĸ": 9112,
      "ĠEver": 9113,
      "Ġabroad": 9114,
      "Ġblast": 9115,
      "Ġchecks": 9116,
      "Ġequality": 9117,
      "ĠPalestinians": 9118,
      "acted": 9119,
      "Ġpatch": 9120,
      "Ġ(\"": 9121,
      "Ġmarg": 9122,
      "Ġswing": 9123,
      "bow": 9124,
      "ĠTaliban": 9125,
      "Ġencounter": 9126,
      "Ġtestimony": 9127,
      "ĠGT": 9128,
      "Ġuniversities": 9129,
      "Ġmoon": 9130,
      "Ġaccommod": 9131,
      "Ġtonight": 9132,
      "Ġramp": 9133,
      "Ġcelebrate": 9134,
      "high": 9135,
      "Ġhung": 9136,
      "acts": 9137,
      "ĠKong": 9138,
      "Ġfossil": 9139,
      "shire": 9140,
      "Ġbonus": 9141,
      "Ġprogramme": 9142,
      "Ġballot": 9143,
      "Ġdub": 9144,
      "Ġweigh": 9145,
      "ĠGulf": 9146,
      "plate": 9147,
      "Ġviolation": 9148,
      "rapped": 9149,
      "Ġwarn": 9150,
      "ĠDenver": 9151,
      "encing": 9152,
      "ahu": 9153,
      "ĠKhan": 9154,
      "through": 9155,
      "izer": 9156,
      "ordon": 9157,
      "Ġmaintained": 9158,
      "Ġawarded": 9159,
      "Ġbutt": 9160,
      "Ġclock": 9161,
      "Ġshr": 9162,
      "Ġunpre": 9163,
      "Ġcream": 9164,
      "Ġdisturb": 9165,
      "Ġdiscount": 9166,
      "TER": 9167,
      "Ġwaves": 9168,
      "Ġbowl": 9169,
      "ĠCra": 9170,
      "ĠBud": 9171,
      "Ġ53": 9172,
      "Ġprovision": 9173,
      "Ġreveals": 9174,
      "Ġintroduce": 9175,
      "ĠLt": 9176,
      "enez": 9177,
      "ĠBible": 9178,
      "Ġpresidency": 9179,
      "Ġemployed": 9180,
      "Ġphenomenon": 9181,
      "yo": 9182,
      "emed": 9183,
      "Ġunions": 9184,
      "Ġrook": 9185,
      "ĠMcK": 9186,
      "Ġnomination": 9187,
      "Ġoverseas": 9188,
      "Ġarguing": 9189,
      "flix": 9190,
      "ĠAtlantic": 9191,
      "Ġfool": 9192,
      "ela": 9193,
      "Ġtrillion": 9194,
      "Ġcompare": 9195,
      "ses": 9196,
      "ìĿ": 9197,
      "Ġdates": 9198,
      "minute": 9199,
      "Ġmeasured": 9200,
      "Ġbanking": 9201,
      "Ġsubmitted": 9202,
      "ĠMuch": 9203,
      "ĠScottish": 9204,
      "Ġsaving": 9205,
      "Ġacquired": 9206,
      "oenix": 9207,
      "inals": 9208,
      "Ġwider": 9209,
      "was": 9210,
      "Ġages": 9211,
      "Ġhelpful": 9212,
      "Ġreleases": 9213,
      "ĠMoreover": 9214,
      "Ġdocumentary": 9215,
      "ĠSarah": 9216,
      "Ġpreparing": 9217,
      "uction": 9218,
      "Ġtie": 9219,
      "âĢĲ": 9220,
      "Ġgirlfriend": 9221,
      "Ġpipeline": 9222,
      "Ġinstrument": 9223,
      "ĠTax": 9224,
      "ĪĴ": 9225,
      "Ġtips": 9226,
      "Ġcul": 9227,
      "ĠNintendo": 9228,
      "Star": 9229,
[...]
