{
  "version": "1.0",
  "truncation": null,
  "padding": null,
  "added_tokens": [
    {
      "id": 0,
      "content": "[PAD]",
      "single_word": false,
      "lstrip": false,
      "rstrip": false,
      "normalized": false,
      "special": true
    },
    {
      "id": 1,
      "content": "[UNK]",
      "single_word": false,
      "lstrip": false,
      "rstrip": false,
      "normalized": false,
      "special": true
    },
    {
      "id": 2,
      "content": "[BOS]",
      "single_word": false,
      "lstrip": false,
      "rstrip": false,
      "normalized": false,
      "special": true
    },
    {
      "id": 3,
      "content": "[EOS]",
      "single_word": false,
      "lstrip": false,
      "rstrip": false,
      "normalized": false,
      "special": true
    }
  ],
  "normalizer": {
    "type": "Sequence",
    "normalizers": [
      {
        "type": "NFKC"
      }
    ]
  },
  "pre_tokenizer": {
    "type": "ByteLevel",
    "add_prefix_space": true,
    "trim_offsets": true,
    "use_regex": true
  },
  "post_processor": {
    "type": "TemplateProcessing",
    "single": [
      {
        "SpecialToken": {
          "id": "[BOS]",
          "type_id": 0
        }
      },
      {
        "Sequence": {
          "id": "A",
          "type_id": 0
        }
      },
      {
        "SpecialToken": {
          "id": "[EOS]",
          "type_id": 0
        }
      }
    ],
    "pair": [
      {
        "Sequence": {
          "id": "A",
          "type_id": 0
        }
      },
      {
        "Sequence": {
          "id": "B",
          "type_id": 1
        }
      }
    ],
    "special_tokens": {
      "[BOS]": {
        "id": "[BOS]",
        "ids": [
          2
        ],
        "tokens": [
          "[BOS]"
        ]
      },
      "[EOS]": {
        "id": "[EOS]",
        "ids": [
          3
        ],
        "tokens": [
          "[EOS]"
        ]
      }
    }
  },
  "decoder": {
    "type": "ByteLevel",
    "add_prefix_space": true,
    "trim_offsets": true,
    "use_regex": true
  },
  "model": {
    "type": "BPE",
    "dropout": null,
    "unk_token": "[UNK]",
    "continuing_subword_prefix": null,
    "end_of_word_suffix": null,
    "fuse_unk": false,
    "byte_fallback": false,
    "ignore_merges": false,
    "vocab": {
      "[PAD]": 0,
      "[UNK]": 1,
      "[BOS]": 2,
      "[EOS]": 3,
      "!": 4,
      "\"": 5,
      "$": 6,
      "&": 7,
      "'": 8,
      "(": 9,
      ")": 10,
      "*": 11,
      "+": 12,
      ",": 13,
      "-": 14,
      ".": 15,
      "/": 16,
      "0": 17,
      "1": 18,
      "2": 19,
      "3": 20,
      "4": 21,
      "5": 22,
      "6": 23,
      "7": 24,
      "8": 25,
      "9": 26,
      ":": 27,
      ";": 28,
      "?": 29,
      "A": 30,
      "B": 31,
      "C": 32,
      "D": 33,
      "E": 34,
      "F": 35,
      "G": 36,
      "H": 37,
      "I": 38,
      "J": 39,
      "K": 40,
      "L": 41,
      "M": 42,
      "N": 43,
      "O": 44,
      "P": 45,
      "Q": 46,
      "R": 47,
      "S": 48,
      "T": 49,
      "U": 50,
      "V": 51,
      "W": 52,
      "X": 53,
      "Y": 54,
      "Z": 55,
      "_": 56,
      "`": 57,
      "a": 58,
      "b": 59,
      "c": 60,
      "d": 61,
      "e": 62,
      "f": 63,
      "g": 64,
      "h": 65,
      "i": 66,
      "j": 67,
      "k": 68,
      "l": 69,
      "m": 70,
      "n": 71,
      "o": 72,
      "p": 73,
      "q": 74,
      "r": 75,
      "s": 76,
      "t": 77,
      "u": 78,
      "v": 79,
      "w": 80,
      "x": 81,
      "y": 82,
      "z": 83,
      "¡": 84,
      "¢": 85,
      "¦": 86,
      "©": 87,
      "«": 88,
      "¬": 89,
      "°": 90,
      "±": 91,
      "»": 92,
      "Â": 93,
      "Ã": 94,
      "Å": 95,
      "Ì": 96,
      "â": 97,
      "Ġ": 98,
      "Ģ": 99,
      "ģ": 100,
      "Ĥ": 101,
      "ĥ": 102,
      "ĵ": 103,
      "ľ": 104,
      "Ŀ": 105,
      "ł": 106,
      "he": 107,
      "Ġt": 108,
      "Ġa": 109,
      "Ġs": 110,
      "Ġw": 111,
      "nd": 112,
      "Ġthe": 113,
      "ed": 114,
      "Ġand": 115,
      "Ġto": 116,
      "Ġb": 117,
      "in": 118,
      "Ġh": 119,
      "Ġwa": 120,
      "re": 121,
      "Ġf": 122,
      "ou": 123,
      "it": 124,
      "ĠT": 125,
      "Ġl": 126,
      "Ġc": 127,
      "Ġd": 128,
      "er": 129,
      "Ġhe": 130,
      "Ġm": 131,
      "Ġp": 132,
      "Ġwas": 133,
      "om": 134,
      "Ġo": 135,
      "ay": 136,
      "ĠThe": 137,
      "ar": 138,
      "is": 139,
      "ing": 140,
      "il": 141,
      "Ġg": 142,
      "id": 143,
      "ĠS": 144,
      "at": 145,
      "en": 146,
      "Ġn": 147,
      "Ġsa": 148,
      "Ġha": 149,
      "an": 150,
      "im": 151,
      "or": 152,
      "on": 153,
      "Ġit": 154,
      "ĠH": 155,
      "Ġth": 156,
      "ll": 157,
      "le": 158,
      "Ġ\"": 159,
      "Ġher": 160,
      "ĠShe": 161,
      "ot": 162,
      "et": 163,
      "ir": 164,
      "ĠHe": 165,
      "ĠThey": 166,
      "es": 167,
      "Ġin": 168,
      "ver": 169,
      "ut": 170,
      "ow": 171,
      "ĠL": 172,
      "ck": 173,
      "Ġe": 174,
      "Ġu": 175,
      "ld": 176,
      "ily": 177,
      "Ġy": 178,
      "oo": 179,
      "Ġsaid": 180,
      "ig": 181,
      "Ġr": 182,
      "am": 183,
      "Ġbe": 184,
      "Ġst": 185,
      "ĠI": 186,
      "ce": 187,
      "Ġshe": 188,
      "ke": 189,
      "pp": 190,
      "ith": 191,
      "ve": 192,
      "Ġwith": 193,
      "ĠO": 194,
      "ĠLily": 195,
      "ĠOn": 196,
      "Ġon": 197,
      "Ġof": 198,
      "ri": 199,
      "ked": 200,
      "Ġhis": 201,
      "Ġyou": 202,
      "Ġpl": 203,
      "Ġso": 204,
      "nt": 205,
      "very": 206,
      "ad": 207,
      "ĠB": 208,
      "Ġday": 209,
      "Ġthat": 210,
      "Ġup": 211,
      "Ġplay": 212,
      "Ġhad": 213,
      "Ġthey": 214,
      "st": 215,
      "Ġwe": 216,
      "Ġmom": 217,
      "Ġfor": 218,
      "el": 219,
      "my": 220,
      "ould": 221,
      "un": 222,
      "ĠM": 223,
      "'s": 224,
      "Ġli": 225,
      "Ġhapp": 226,
      "ch": 227,
      "ent": 228,
      "itt": 229,
      "Ġwant": 230,
      "her": 231,
      "Ġsh": 232,
      "out": 233,
      "Ġdo": 234,
      "Ġnot": 235,
      "Ġvery": 236,
      "ome": 237,
      "ly": 238,
      "all": 239,
      "ound": 240,
      "end": 241,
      "ittle": 242,
      "ime": 243,
      "se": 244,
      "Ġwh": 245,
      "Ġk": 246,
      "Ġlittle": 247,
      "Ġtime": 248,
      "Ġthere": 249,
      "al": 250,
      "Ġne": 251,
      "ht": 252,
      "ĠA": 253,
      "Ġhappy": 254,
      "Ġbig": 255,
      "Ġre": 256,
      "ĠIt": 257,
      "Ġis": 258,
      "Ġsm": 259,
      "Ġbut": 260,
      "ra": 261,
      "Ġsaw": 262,
      "riend": 263,
      "Ġfriend": 264,
      "Ġan": 265,
      "ry": 266,
      "Ġas": 267,
      "ack": 268,
      ".\"": 269,
      "ĠTim": 270,
      "ĠOne": 271,
      "ide": 272,
      "ake": 273,
      "'t": 274,
      "ved": 275,
      "ter": 276,
      "ug": 277,
      "ĠOnce": 278,
      "Ġlo": 279,
      "Ġloo": 280,
      "Ġwere": 281,
      "ore": 282,
      "!\"": 283,
      "ec": 284,
      "Ġhim": 285,
      "Ġbo": 286,
      "Ġtoo": 287,
      "ĠJ": 288,
      "Ġse": 289,
      "Ġgo": 290,
      "irl": 291,
      "Ġupon": 292,
      "Ġwanted": 293,
      "Ġj": 294,
      "ard": 295,
      "Ġgirl": 296,
      "ill": 297,
      "Ġare": 298,
      "Ġthem": 299,
      "Ġout": 300,
      "Ġat": 301,
      "Ġtheir": 302,
      "ind": 303,
      "Ġsp": 304,
      "way": 305,
      "fu": 306,
      "ĠTom": 307,
      "Ġdid": 308,
      "ur": 309,
      "Ġcould": 310,
      "ĠBen": 311,
      "hen": 312,
      "Ġsmil": 313,
      "ain": 314,
      "Ġhave": 315,
      "art": 316,
      "Ġwent": 317,
      "hed": 318,
      "Ġex": 319,
      "rom": 320,
      "ic": 321,
      "round": 322,
      "lp": 323,
      "ĠW": 324,
      "Ġnam": 325,
      "Ġcan": 326,
      "ful": 327,
      "Ġfriends": 328,
      "hing": 329,
      "Ġhelp": 330,
      "ĠBut": 331,
      "Ġkn": 332,
      "Ġall": 333,
      "ood": 334,
      "ight": 335,
      "?\"": 336,
      "ĠTimmy": 337,
      "um": 338,
      "ark": 339,
      "one": 340,
      "Ġback": 341,
      "Ġfun": 342,
      "Ġcl": 343,
      "are": 344,
      "Ġsay": 345,
      "Ġle": 346,
      "You": 347,
      "Ġnamed": 348,
      "Ġno": 349,
      "Ġloved": 350,
      "op": 351,
      "elt": 352,
      "oug": 353,
      "Ġal": 354,
      "Ġsc": 355,
      "side": 356,
      "Ġfelt": 357,
      "Ġtoy": 358,
      "ick": 359,
      "Ġsmiled": 360,
      "Ġman": 361,
      "Ġfe": 362,
      "Ġasked": 363,
      "Ġsee": 364,
      "ame": 365,
      "Ġlooked": 366,
      "Ġlike": 367,
      "Ġaround": 368,
      "Ġsome": 369,
      "omet": 370,
      "ure": 371,
      "Ġro": 372,
      "Ġboy": 373,
      "Ġbr": 374,
      "get": 375,
      "Ġwould": 376,
      "Ġme": 377,
      "Ġbir": 378,
      "ong": 379,
      "ice": 380,
      "Ġstart": 381,
      "ss": 382,
      "Ġsomet": 383,
      "Ġbird": 384,
      "ings": 385,
      "Ġfa": 386,
      "Ġwor": 387,
      "Ġag": 388,
      "ade": 389,
      "Ġmake": 390,
      "Ġwhat": 391,
      "Ġtre": 392,
      "dd": 393,
      "king": 394,
      "gether": 395,
      "own": 396,
      "Ġaway": 397,
      "Ġran": 398,
      "ag": 399,
      "Ġstarted": 400,
      ",\"": 401,
      "ĠYou": 402,
      "oud": 403,
      "Ġmade": 404,
      "ared": 405,
      "ĠMom": 406,
      "ie": 407,
      "Ġtogether": 408,
      "Ã¢": 409,
      "âĤ": 410,
      "âĤ¬": 411,
      "Ġco": 412,
      "Ġsays": 413,
      "Ġpark": 414,
      "Ġsomething": 415,
      "if": 416,
      "Ġcar": 417,
      "ther": 418,
      "ited": 419,
      "Ġsad": 420,
      "Ġput": 421,
      "Ġnew": 422,
      "Ġother": 423,
      "ĠE": 424,
      "Ġpr": 425,
      "ĠF": 426,
      "ble": 427,
      "Ġagain": 428,
      "Ġfrom": 429,
      "Ġexc": 430,
      "Ġhug": 431,
      "Ġmu": 432,
      "Ġhome": 433,
      "Ġla": 434,
      "ell": 435,
      "Ġwhen": 436,
      "Ġwho": 437,
      "ook": 438,
      "Ġgood": 439,
      "est": 440,
      "ried": 441,
      "Ġfound": 442,
      "Ġthen": 443,
      "ach": 444,
      "ep": 445,
      "Ġdec": 446,
      "Ġfl": 447,
      "pped": 448,
      "Ġch": 449,
      "as": 450,
      "Ġplaying": 451,
      "ought": 452,
      "Ġwal": 453,
      "Ġget": 454,
      "qu": 455,
      "ally": 456,
      "hat": 457,
      "Ġthings": 458,
      "Ġsw": 459,
      "uck": 460,
      "Ġgot": 461,
      "pl": 462,
      "ous": 463,
      "Ġliked": 464,
      "nn": 465,
      "Ġevery": 466,
      "ĠD": 467,
      "Ġdecid": 468,
      "Ġexcited": 469,
      "ave": 470,
      "ĠSu": 471,
      "Ġdecided": 472,
      "ro": 473,
      "Ġcame": 474,
      "ĠSam": 475,
      "ax": 476,
      "Ġbl": 477,
      "Ġbec": 478,
      "Ġdown": 479,
      "Ġyour": 480,
      "Ġfind": 481,
      "Ġcare": 482,
      "Ġdog": 483,
      "ust": 484,
      "ĠAnn": 485,
      "Ġscared": 486,
      "Ġone": 487,
      "Ġfeel": 488,
      "Ġv": 489,
      "Ġthan": 490,
      "ist": 491,
      "ouse": 492,
      "ny": 493,
      "Ġdad": 494,
      "ap": 495,
      "Ġab": 496,
      "arn": 497,
      "ara": 498,
      "ways": 499,
      "Ġdidn": 500,
      "ĠMax": 501,
      "Ġgra": 502,
      "Ġmy": 503,
      "Ġalways": 504,
      "ant": 505,
      "Ġtook": 506,
      "ers": 507,
      "Ġke": 508,
      "Ġmommy": 509,
      "ess": 510,
      "ĠAnna": 511,
      "fe": 512,
      "Ġabout": 513,
      "our": 514,
      "Ġlot": 515,
      "Ġtoys": 516,
      "Ġtree": 517,
      "Ġpo": 518,
      "Ġkne": 519,
      "Ġball": 520,
      "Ġlook": 521,
      "Ġwill": 522,
      "nder": 523,
      "Ġoutside": 524,
      "ĠSara": 525,
      "ite": 526,
      "ĠSo": 527,
      "Ġthought": 528,
      "eci": 529,
      "Ġbu": 530,
      "ened": 531,
      "Ġta": 532,
      "Ġlearn": 533,
      "bb": 534,
      "ise": 535,
      "ched": 536,
      "ĠWhen": 537,
      "Ġmore": 538,
      "Ġpre": 539,
      "Ġknow": 540,
      "Ġho": 541,
      "Ġint": 542,
      "Ġpu": 543,
      "ged": 544,
      "ecial": 545,
      "Ġspecial": 546,
      "Ġold": 547,
      "Ġtake": 548,
      "Ġsor": 549,
      "ĠHer": 550,
      "Ġlaug": 551,
      "Ġpe": 552,
      "Ġknew": 553,
      "au": 554,
      "ive": 555,
      "Ġcat": 556,
      "ma": 557,
      "fter": 558,
      "Ġhow": 559,
      "Ġany": 560,
      "dden": 561,
      "Ġshow": 562,
      "ĠJo": 563,
      "Ġtr": 564,
      "Ġmuch": 565,
      "ia": 566,
      "ddenly": 567,
      "ĠEvery": 568,
      "Ġsorry": 569,
      "and": 570,
      "Ġsl": 571,
      "ink": 572,
      "ish": 573,
      "Ġrun": 574,
      "Ġhouse": 575,
      "Ġtw": 576,
      "ĠJack": 577,
      "ven": 578,
      "Ġtold": 579,
      "Ġor": 580,
      "Ġsk": 581,
      "Ġop": 582,
      "Ġhand": 583,
      "Ġsun": 584,
      "Ġinside": 585,
      "Ġgave": 586,
      "Ġtried": 587,
      "Ġmo": 588,
      "Ġclo": 589,
      "Ġinto": 590,
      "Ġwater": 591,
      "Ġproud": 592,
      "ank": 593,
      "Ġcouldn": 594,
      "Ġover": 595,
      "Ġqu": 596,
      "ause": 597,
      "ate": 598,
      "Ġnever": 599,
      "ump": 600,
      "here": 601,
      "ty": 602,
      "other": 603,
      "Ġen": 604,
      "Ġeat": 605,
      "Ġif": 606,
      "ace": 607,
      "Ġroom": 608,
      "Ġplayed": 609,
      "etter": 610,
      "Ġheard": 611,
      "ge": 612,
      "Ġexpl": 613,
      "ĠFrom": 614,
      "Ġeach": 615,
      "Ġpick": 616,
      "Ġpret": 617,
      "ion": 618,
      "Ġthis": 619,
      "by": 620,
      "ĠWe": 621,
      "dy": 622,
      "ak": 623,
      "Ġbecause": 624,
      "ĠSuddenly": 625,
      "Ġhugged": 626,
      "Ġstr": 627,
      "Ġcom": 628,
      "Ġwat": 629,
      "Ġgre": 630,
      "Ġbox": 631,
      "ĠThen": 632,
      "Ġjust": 633,
      "Ġnice": 634,
      "ile": 635,
      "oth": 636,
      "ue": 637,
      "Ġneed": 638,
      "ĠHis": 639,
      "iz": 640,
      "ĠMia": 641,
      "Ġjo": 642,
      "Ġoff": 643,
      "ĠAnd": 644,
      "Ġmany": 645,
      "Ġlong": 646,
      "Ġbear": 647,
      "Ġsmall": 648,
      "Ġfo": 649,
      "sed": 650,
      "ving": 651,
      "Ġsn": 652,
      "ough": 653,
      "Ġlearned": 654,
      "'m": 655,
      "ort": 656,
      "ine": 657,
      "Ġunt": 658,
      "uc": 659,
      "imal": 660,
      "Ġanimal": 661,
      "gry": 662,
      "Ġtry": 663,
      "Ġbetter": 664,
      "ild": 665,
      "sel": 666,
      "Ġuntil": 667,
      "Ġlove": 668,
      "urt": 669,
      "ĠC": 670,
      "ft": 671,
      "Ġim": 672,
      "em": 673,
      "Ġdre": 674,
      "Ġend": 675,
      "Ġkind": 676,
      "Ġcall": 677,
      "Ġcle": 678,
      "ber": 679,
      "Ġflow": 680,
      "Ġad": 681,
      "Ġbest": 682,
      "urn": 683,
      "vent": 684,
      "aut": 685,
      "ars": 686,
      "Ġfi": 687,
      "ady": 688,
      "Ġcareful": 689,
      "Ġsky": 690,
      "Ġfast": 691,
      "Ġgr": 692,
      "ves": 693,
      "Ġthanked": 694,
      "Ġeven": 695,
      "Ġbeaut": 696,
      "Yes": 697,
      "Ġbra": 698,
      "urp": 699,
      "arden": 700,
      "Ġgarden": 701,
      "Ġdon": 702,
      "pt": 703,
      "lly": 704,
      "Ġche": 705,
      "Ġcu": 706,
      "Ġte": 707,
      "Ġby": 708,
      "self": 709,
      "Ġlots": 710,
      "ies": 711,
      "iny": 712,
      "Ġgl": 713,
      "Ġloud": 714,
      "Ġlaughed": 715,
      "Ġfam": 716,
      "Ġjump": 717,
      "ase": 718,
      "ĠÃ¢": 719,
      "Ġbeauti": 720,
      "lew": 721,
      "Ġlist": 722,
      "Ġstill": 723,
      "wn": 724,
      "Ġbeautiful": 725,
      "rm": 726,
      "Th": 727,
      "Ġhard": 728,
      "Ġway": 729,
      "Ġcome": 730,
      "Ġhurt": 731,
      "Ġwo": 732,
      "Ġanimals": 733,
      "ct": 734,
      "Ġra": 735,
      "sh": 736,
      "ast": 737,
      "hes": 738,
      "Ġcol": 739,
      "Ġunder": 740,
      "Ġrem": 741,
      "Åĵ": 742,
      "ĠP": 743,
      "ning": 744,
      "Ġsafe": 745,
      "Ġstay": 746,
      "ect": 747,
      "ĠAs": 748,
      "be": 749,
      "Ġlet": 750,
      "ĠJoh": 751,
      "Ġlived": 752,
      "Ġboth": 753,
      "ool": 754,
      "ĠAfter": 755,
      "ople": 756,
      "Ġimp": 757,
      "Ġbrave": 758,
      "Ġfamily": 759,
      "Ġits": 760,
      "kay": 761,
      "Ġbad": 762,
      "ob": 763,
      "Ġdan": 764,
      "Ġred": 765,
      "Ġstor": 766,
      "ished": 767,
      "Ġbook": 768,
      "ane": 769,
      "Ġtwo": 770,
      "Ġfin": 771,
      "ree": 772,
      "Ġpeople": 773,
      "Ġsu": 774,
      "ucy": 775,
      "Ġshould": 776,
      "urpr": 777,
      "ock": 778,
      "Ġcalled": 779,
      "Ġflew": 780,
      "ĠLucy": 781,
      "Ġfly": 782,
      "Ġpic": 783,
      "igh": 784,
      "Ġwalked": 785,
      "Ġsurpr": 786,
      "Ġangry": 787,
      "Ġsoon": 788,
      "Ġfore": 789,
      "Ġdoll": 790,
      "xt": 791,
      "led": 792,
      "Ġkept": 793,
      "Ġclean": 794,
      "Ġshare": 795,
      "It": 796,
      "fore": 797,
      "ised": 798,
      "Ġrock": 799,
      "Ġpretty": 800,
      "No": 801,
      "Ġdra": 802,
      "Ġgoing": 803,
      "ip": 804,
      "Ġdoor": 805,
      "Let": 806,
      "Ġcon": 807,
      "ĠG": 808,
      "Ġkeep": 809,
      "Ġground": 810,
      "Ġshiny": 811,
      "Ġopened": 812,
      "dded": 813,
      "Ġadvent": 814,
      "ummy": 815,
      "Ġreal": 816,
      "Ġnow": 817,
      "ĠJohn": 818,
      "Ġwind": 819,
      "Ġcry": 820,
      "illy": 821,
      "Ġexplore": 822,
      "age": 823,
      "Ġcre": 824,
      "Ġsto": 825,
      "Ġide": 826,
      "Ġbefore": 827,
      "Ġnoise": 828,
      "Ġfr": 829,
      "Ġcolor": 830,
      "Ġturn": 831,
      "ary": 832,
      "les": 833,
      "so": 834,
      "Ġfar": 835,
      "ture": 836,
      "Ġalso": 837,
      "Ġpicked": 838,
      "Ġfeeling": 839,
      "ied": 840,
      "Ġwhile": 841,
      "ĠBob": 842,
      "Ġey": 843,
      "Ġidea": 844,
      "ĠDad": 845,
      "imb": 846,
      "Ġclimb": 847,
      "Ġnext": 848,
      "ff": 849,
      "thing": 850,
      "Ġbed": 851,
      "Ġun": 852,
      "ĠMommy": 853,
      "Ġwr": 854,
      "oy": 855,
      "eet": 856,
      "Ġthr": 857,
      "Ġhas": 858,
      "What": 859,
      "Ġwalking": 860,
      "Ġsmile": 861,
      "Ġpicture": 862,
      "ger": 863,
      "iced": 864,
      "Ġtruck": 865,
      "Ġnodded": 866,
      "Ġadventure": 867,
      "th": 868,
      "Ġma": 869,
      "aybe": 870,
      "ĠN": 871,
      "TM": 872,
      "kes": 873,
      "Ġbeing": 874,
      "ember": 875,
      "ted": 876,
      "Thank": 877,
      "ious": 878,
      "joy": 879,
      "ac": 880,
      "Ġclos": 881,
      "ting": 882,
      "Ġgive": 883,
      "ĠSp": 884,
      "Ġfood": 885,
      "Ġtra": 886,
      "Ġlooking": 887,
      "Ġwait": 888,
      "ĠR": 889,
      "Ġlisten": 890,
      "Ġstopped": 891,
      "That": 892,
      "Ġblue": 893,
      "ized": 894,
      "ught": 895,
      "Ġtow": 896,
      "Ġremember": 897,
      "Ġbre": 898,
      "Ġdif": 899,
      "Ġafter": 900,
      "Ġbro": 901,
      "Ġhands": 902,
      "Ġnoticed": 903,
      "Ġthink": 904,
      "maz": 905,
      "Ġeyes": 906,
      "Ġamaz": 907,
      "Ġdel": 908,
      "Ġwalk": 909,
      "able": 910,
      "Ġquick": 911,
      "Ġown": 912,
      "Ġenjoy": 913,
      "Ġforest": 914,
      "Ġdis": 915,
      "Ġslide": 916,
      "Ġgreat": 917,
      "Ġever": 918,
      "Ġshowed": 919,
      "Ġrepl": 920,
      "Ġwatch": 921,
      "irst": 922,
      "Ġstrong": 923,
      "Ġflowers": 924,
      "Ġapp": 925,
      "bbit": 926,
      "Ġeveryone": 927,
      "Ġimport": 928,
      "Ġwonder": 929,
      "Ġrain": 930,
      "Ġfish": 931,
      "Ġwork": 932,
      "llow": 933,
      "Ġvo": 934,
      "Ġac": 935,
      "Ġtal": 936,
      "Ġboat": 937,
      "Ġnear": 938,
      "Ġstick": 939,
      "Ġask": 940,
      "Ġokay": 941,
      "Ġhead": 942,
      "Ġimportant": 943,
      "Ġwhere": 944,
      "Ġshout": 945,
      "Ġmean": 946,
      "oon": 947,
      "ĠSue": 948,
      "Ġrabbit": 949,
      "gan": 950,
      "Ġright": 951,
      "Ġplace": 952,
      "Ġus": 953,
      "bye": 954,
      "Ġsound": 955,
      "bbed": 956,
      "Ġru": 957,
      "Ġquickly": 958,
      "Ġyell": 959,
      "Ġfollow": 960,
      "Ġreplied": 961,
      "Ġuse": 962,
      "Ġbright": 963,
      "lease": 964,
      "Ġwatched": 965,
      "Ġdress": 966,
      "ĠSpot": 967,
      "Ġde": 968,
      "fere": 969,
      "ange": 970,
      "Ġbecame": 971,
      "Ġtou": 972,
      "day": 973,
      "Ġdiffere": 974,
      "ath": 975,
      "Ġmor": 976,
      "ered": 977,
      "Ġar": 978,
      "co": 979,
      "Ġsure": 980,
      "ndma": 981,
      "Ġcake": 982,
      "We": 983,
      "Ġchild": 984,
      "Ġhigh": 985,
      "Ġcuri": 986,
      "Ġbeen": 987,
      "Ġmag": 988,
      "ount": 989,
      "ĠJane": 990,
      "Ġstore": 991,
      "Ġour": 992,
      "Ġwarm": 993,
      "Ġye": 994,
      "aught": 995,
      "Ġsqu": 996,
      "Ġhop": 997,
      "Ġface": 998,
      "Ġgoodbye": 999,
      "Ġforg": 1000,
      "more": 1001,
      "Ġdifferent": 1002,
      "Ġanymore": 1003,
      "ĠTh": 1004,
      "Ġcloser": 1005,
      "Ġdoes": 1006,
      "Look": 1007,
      "leep": 1008,
      "ng": 1009,
      "Ġcurious": 1010,
      "Ġcook": 1011,
      "Ġtell": 1012,
      "Ġam": 1013,
      "Ġvoice": 1014,
      "Ġnight": 1015,
      "itc": 1016,
      "ila": 1017,
      "imes": 1018,
      "ĠSarah": 1019,
      "Ġpain": 1020,
      "Ġbel": 1021,
      "ired": 1022,
      "Ġbutter": 1023,
      "Ġopen": 1024,
      "ached": 1025,
      "Ġfav": 1026,
      "ey": 1027,
      "ass": 1028,
      "Ġhelped": 1029,
      "Ġfirst": 1030,
      "ĠLila": 1031,
      "Ġfell": 1032,
      "ull": 1033,
      "ĠEveryone": 1034,
      "Ġcont": 1035,
      "Ġhappened": 1036,
      "Ġz": 1037,
      "Ġlea": 1038,
      "Ġthree": 1039,
      "Ġsees": 1040,
      "iss": 1041,
      "Can": 1042,
      "Ġkitc": 1043,
      "Ġkitchen": 1044,
      "Ġpull": 1045,
      "Ġfire": 1046,
      "Ġflo": 1047,
      "Ġbirds": 1048,
      "Ġblock": 1049,
      "Ġgrabbed": 1050,
      "Ġsweet": 1051,
      "Ġstory": 1052,
      "Ġhere": 1053,
      "Ġonly": 1054,
      "Ġkid": 1055,
      "Ġbrother": 1056,
      "Ġdr": 1057,
      "Ġsand": 1058,
      "unny": 1059,
      "Ġglad": 1060,
      "Ġbit": 1061,
      "Ġgrass": 1062,
      "Ġrealized": 1063,
      "ppy": 1064,
      "ĠIn": 1065,
      "ater": 1066,
      "Ġjumped": 1067,
      "orn": 1068,
      "Ġbeh": 1069,
      "Ġmon": 1070,
      "Ġper": 1071,
      "Ġdraw": 1072,
      "Ġstop": 1073,
      "Ġreached": 1074,
      "ĠDo": 1075,
      "Ġcra": 1076,
      "Ġsing": 1077,
      "ins": 1078,
      "ĠThat": 1079,
      "Ġhaving": 1080,
      "Ġcr": 1081,
      "Ġmess": 1082,
      "zy": 1083,
      "nts": 1084,
      "Ġrest": 1085,
      "Ġba": 1086,
      "Ġthrough": 1087,
      "Ġtri": 1088,
      "Ġprin": 1089,
      "air": 1090,
      "Ġate": 1091,
      "Ġsoft": 1092,
      "Ġless": 1093,
      "Ġpap": 1094,
      "isy": 1095,
      "Ġready": 1096,
      "Ġyummy": 1097,
      "where": 1098,
      "Mom": 1099,
      "Ġworld": 1100,
      "'re": 1101,
      "Ġhat": 1102,
      "akes": 1103,
      "Ġgame": 1104,
      "Ġfix": 1105,
      "ĠLet": 1106,
      "Ġreally": 1107,
      "Ġlady": 1108,
      "Ġshouted": 1109,
      "Ġpare": 1110,
      "Ġfavor": 1111,
      "Ġbegan": 1112,
      "Ġfavorite": 1113,
      "Ġhimself": 1114,
      "Ġunderst": 1115,
      "Ġcut": 1116,
      "Ġtired": 1117,
      "Ġmagic": 1118,
      "Ġduck": 1119,
      "fully": 1120,
      "Ġpretend": 1121,
      "ken": 1122,
      "Ġused": 1123,
      "Ġmum": 1124,
      "Ġtast": 1125,
      "ather": 1126,
      "Ġbutterf": 1127,
      "uff": 1128,
      "Ġthing": 1129,
      "Ġdone": 1130,
      "Ġworry": 1131,
      "Ġcoming": 1132,
      "ign": 1133,
      "Ġmaking": 1134,
      "illed": 1135,
      "Ġcatch": 1136,
      "ĠCan": 1137,
      "Ġkids": 1138,
      "Ġfunny": 1139,
      "Ġname": 1140,
      "eddy": 1141,
      "Wow": 1142,
      "ĠJoe": 1143,
      "Ġseen": 1144,
      "ĠSally": 1145,
      "ĠFin": 1146,
      "ster": 1147,
      "Ġpond": 1148,
      "Ġlooks": 1149,
      "Ġcars": 1150,
      "Ġcried": 1151,
      "Ġfro": 1152,
      "Ġste": 1153,
      "Ġanother": 1154,
      "ient": 1155,
      "Ġtop": 1156,
      "Ġwhy": 1157,
      "Ġprom": 1158,
      "olly": 1159,
      "Ġwaved": 1160,
      "Ġflower": 1161,
      "Ġbag": 1162,
      "Ġpart": 1163,
      "Ġbunny": 1164,
      "Ġhair": 1165,
      "Ġparents": 1166,
      "Ġtouch": 1167,
      "bo": 1168,
      "ards": 1169,
      "Ġpaper": 1170,
      "Ġgi": 1171,
      "Ġdin": 1172,
      "Don": 1173,
      "ĠTommy": 1174,
      "Ġlight": 1175,
      "Ġgreen": 1176,
      "Ġdri": 1177,
      "Ġcool": 1178,
      "Ġdelic": 1179,
      "Ġdro": 1180,
      "ĠBenny": 1181,
      "Ġlesson": 1182,
      "Ġhole": 1183,
      "Ġswim": 1184,
      "Ġtrees": 1185,
      "iver": 1186,
      "Ġsurprise": 1187,
      "Ġyellow": 1188,
      "Ġremembered": 1189,
      "Ġbehind": 1190,
      "Ġfloor": 1191,
      "oney": 1192,
      "Ġhold": 1193,
      "ely": 1194,
      "hy": 1195,
      "ued": 1196,
      "Ġworked": 1197,
      "mer": 1198,
      "Ġfull": 1199,
      "Ġthank": 1200,
      "Ġrunning": 1201,
      "rel": 1202,
      "Ġhopped": 1203,
      "ation": 1204,
      "Ġsleep": 1205,
      "andy": 1206,
      "Ġwished": 1207,
      "Ġspot": 1208,
      "Ġsmell": 1209,
      "Ġset": 1210,
      "ike": 1211,
      "Ġblocks": 1212,
      "Ġcold": 1213,
      "Ġlost": 1214,
      "Ġsat": 1215,
      "Ġhappily": 1216,
      "us": 1217,
      "Ġread": 1218,
      "Ġwear": 1219,
      "Ġdoing": 1220,
      "Ġneeded": 1221,
      "Ġdream": 1222,
      "Ġdark": 1223,
      "Ġmouse": 1224,
      "Ġstre": 1225,
      "Ġbow": 1226,
      "aisy": 1227,
      "Ġwood": 1228,
      "ĠEm": 1229,
      "Ġslow": 1230,
      "Ġlaugh": 1231,
      "ren": 1232,
      "Ġbutterfly": 1233,
      "Ġsho": 1234,
      "ĠAt": 1235,
      "Ġcarefully": 1236,
      "Ġtall": 1237,
      "Ġyears": 1238,
      "Ġ-": 1239,
      "Ġleft": 1240,
      "Ġlikes": 1241,
      "Ġsurprised": 1242,
      "Ġhill": 1243,
      "Ġwindow": 1244,
      "Ġfrog": 1245,
      "Ġswing": 1246,
      "Ġenjoyed": 1247,
      "Ġheld": 1248,
      "Ġfinished": 1249,
      "Ġsnow": 1250,
      "Ġhear": 1251,
      "Ġmove": 1252,
      "ĠThere": 1253,
      "Ġbuy": 1254,
      "ens": 1255,
      "\".": 1256,
      "Ġwrong": 1257,
      "ĠK": 1258,
      "Ġice": 1259,
      "Ġperf": 1260,
      "ined": 1261,
      "Ġfollowed": 1262,
      "Ġair": 1263,
      "ĠFinally": 1264,
      "Ġarri": 1265,
      "Ġlion": 1266,
      "ul": 1267,
      "Ġfair": 1268,
      "ĠJim": 1269,
      "Ġherself": 1270,
      "ĠNow": 1271,
      "Ġhid": 1272,
      "Ġanything": 1273,
      "Ġcontin": 1274,
      "ĠBilly": 1275,
      "Hell": 1276,
      "Hello": 1277,
      "Ġhun": 1278,
      "Ġclose": 1279,
      "Ġdir": 1280,
      "ĠTo": 1281,
      "Ġchildren": 1282,
      "Ġbug": 1283,
      "Ġfriendly": 1284,
      "cess": 1285,
      "Ġcast": 1286,
      "Ġrel": 1287,
      "Ġtable": 1288,
      "asure": 1289,
      "TMs": 1290,
      "sy": 1291,
      "Ġbuild": 1292,
      "Ġarm": 1293,
      "Ġwonderful": 1294,
      "Ġforgot": 1295,
      "ĠDaisy": 1296,
      "Ġmight": 1297,
      "Ġarrived": 1298,
      "ds": 1299,
      "ield": 1300,
      "Ġunderstand": 1301,
      "Ġdelicious": 1302,
      "ĠJen": 1303,
      "Ġagre": 1304,
      "Ġel": 1305,
      "Ġtight": 1306,
      "Ġhot": 1307,
      "ross": 1308,
      "Ġplease": 1309,
      "Ġcolors": 1310,
      "Ġgrandma": 1311,
      "Ġsomeone": 1312,
      "ĠMolly": 1313,
      "ner": 1314,
      "Ġsong": 1315,
      "ĠGra": 1316,
      "Ġcount": 1317,
      "Ġbooks": 1318,
      "Ġfilled": 1319,
      "Ġgone": 1320,
      "Ġcontinued": 1321,
      "Ġbroken": 1322,
      "Ġable": 1323,
      "Ġleaves": 1324,
      "Ġscre": 1325,
      "Ġgent": 1326,
      "av": 1327,
      "Ġelse": 1328,
      "sp": 1329,
      "Ġwants": 1330,
      "Ġcreat": 1331,
      "ask": 1332,
      "ĠThis": 1333,
      "Ġvis": 1334,
      "Ġwall": 1335,
      "lf": 1336,
      "shed": 1337,
      "Ġyes": 1338,
      "Ġbaby": 1339,
      "uffy": 1340,
      "Ġpink": 1341,
      "atter": 1342,
      "Ġbreak": 1343,
      "room": 1344,
      "man": 1345,
      "ich": 1346,
      "Ġpoin": 1347,
      "gon": 1348,
      "Ġamazing": 1349,
      "Ġgu": 1350,
      "'ll": 1351,
      "ries": 1352,
      "Ġmar": 1353,
      "ĠMaybe": 1354,
      "Ġgetting": 1355,
      "icy": 1356,
      "Ġenough": 1357,
      "Ġpictures": 1358,
      "Ġfight": 1359,
      "Ġwhite": 1360,
      "oup": 1361,
      "Ġcomp": 1362,
      "Ġcastle": 1363,
      "Ġdinner": 1364,
      "Ġagreed": 1365,
      "row": 1366,
      "irrel": 1367,
      "Ġmus": 1368,
      "Ġmoment": 1369,
      "Ġmother": 1370,
      "Ġstayed": 1371,
      "Ġfall": 1372,
      "ash": 1373,
      "Ġmorning": 1374,
      "Ġcookies": 1375,
      "app": 1376,
      "ced": 1377,
      "ĠAmy": 1378,
      "Ġscary": 1379,
      "Ġtrying": 1380,
      "Ġfinally": 1381,
      "Ġclimbed": 1382,
      "Ġfur": 1383,
      "Ġsometimes": 1384,
      "Ġsail": 1385,
      "Ġothers": 1386,
      "Ġwet": 1387,
      "Ġpi": 1388,
      "Ġju": 1389,
      "Ġsmiles": 1390,
      "Ġhungry": 1391,
      "ctor": 1392,
      "Ġsquirrel": 1393,
      "ĠJill": 1394,
      "Ġtalk": 1395,
      "ence": 1396,
      "ons": 1397,
      "Ġclot": 1398,
      "Ġmet": 1399,
      "Ġclothes": 1400,
      "Ġbrought": 1401,
      "ama": 1402,
      "apped": 1403,
      "ister": 1404,
      "red": 1405,
      "oom": 1406,
      "Ġturned": 1407,
      "Ġroll": 1408,
      "Ġperfect": 1409,
      "ere": 1410,
      "Ġdaddy": 1411,
      "lc": 1412,
      "Ġmakes": 1413,
      "Ġcream": 1414,
      "Ġfew": 1415,
      "Ġlistened": 1416,
      "oring": 1417,
      "ee": 1418,
      "Ġtail": 1419,
      "Ġeverything": 1420,
      "ance": 1421,
      "Ġwasn": 1422,
      "Ġspl": 1423,
      "Ġstrange": 1424,
      "rot": 1425,
      "Ġsear": 1426,
      "Ġballoon": 1427,
      "Ġbeach": 1428,
      "Ġpol": 1429,
      "Ġpuppy": 1430,
      "Ġjoy": 1431,
      "Ġsit": 1432,
      "ated": 1433,
      "ĠWhat": 1434,
      "ower": 1435,
      "Ġride": 1436,
      "der": 1437,
      "zz": 1438,
      "Ġwaited": 1439,
      "Ġspark": 1440,
      "Ġthre": 1441,
      "Ġmusic": 1442,
      "wl": 1443,
      "Ġamazed": 1444,
      "ever": 1445,
      "ĠFl": 1446,
      "Ġalone": 1447,
      "amp": 1448,
      "os": 1449,
      "Ġvisit": 1450,
      "Ġsilly": 1451,
      "Ġdanger": 1452,
      "ucky": 1453,
      "Ġteddy": 1454,
      "key": 1455,
      "ĠSoon": 1456,
      "ott": 1457,
      "Ġasks": 1458,
      "Ġpet": 1459,
      "Ġwoods": 1460,
      "ope": 1461,
      "Ġdeep": 1462,
      "ĠAll": 1463,
      "ang": 1464,
      "Ġhide": 1465,
      "eter": 1466,
      "Ġgrow": 1467,
      "Ġleave": 1468,
      "Ġsister": 1469,
      "Ġside": 1470,
      "Ġpie": 1471,
      "ugg": 1472,
      "Oh": 1473,
      "Ġcloud": 1474,
      "amed": 1475,
      "ssed": 1476,
      "Ġflying": 1477,
      "med": 1478,
      "Ġlake": 1479,
      "Ġpulled": 1480,
      "This": 1481,
      "Ġfox": 1482,
      "Ġpromised": 1483,
      "Ġpat": 1484,
      "gg": 1485,
      "ix": 1486,
      "Ġdance": 1487,
      "Ġtowards": 1488,
      "eces": 1489,
      "Ġtreasure": 1490,
      "me": 1491,
      "Ġsec": 1492,
      "Ġfield": 1493,
      "ames": 1494,
      "ph": 1495,
      "Ġpieces": 1496,
      "ises": 1497,
      "Ġplan": 1498,
      "Ġruns": 1499,
      "Ġshared": 1500,
      "Maybe": 1501,
      "Ġbigger": 1502,
      "cket": 1503,
      "ained": 1504,
      "Ġve": 1505,
      "Ġwon": 1506,
      "Ġthinks": 1507,
      "Ġem": 1508,
      "Ġland": 1509,
      "Ġmoral": 1510,
      "thy": 1511,
      "Ġtreat": 1512,
      "But": 1513,
      "Ġowner": 1514,
      "Ġliving": 1515,
      "Ġpen": 1516,
      "Ġele": 1517,
      "Ġbran": 1518,
      "Ġgrate": 1519,
      "Ġbott": 1520,
      "Ġdolls": 1521,
      "Ġshar": 1522,
      "Ġcandy": 1523,
      "igg": 1524,
      "avy": 1525,
      "Ġparty": 1526,
      "Okay": 1527,
      "Ġeverywhere": 1528,
      "Ġgrateful": 1529,
      "cle": 1530,
      "set": 1531,
      "Ġcup": 1532,
      "Ġblank": 1533,
      "Ġbike": 1534,
      "Ġslowly": 1535,
      "outh": 1536,
      "Ġpaint": 1537,
      "Ġjob": 1538,
      "Ġsuch": 1539,
      "sw": 1540,
      "ĠMr": 1541,
      "Ġbelie": 1542,
      "Ġworried": 1543,
      "Ġmouth": 1544,
      "Ġwelc": 1545,
      "Ġjoin": 1546,
      "Ġblanket": 1547,
      "Ġfaster": 1548,
      "Ġplant": 1549,
      "fort": 1550,
      "ret": 1551,
      "ually": 1552,
      "Ġansw": 1553,
      "Ġbroke": 1554,
      "Ġmoney": 1555,
      "unch": 1556,
      "ling": 1557,
      "iet": 1558,
      "Ġshap": 1559,
      "Ġgif": 1560,
      "Ġreach": 1561,
      "Ġmagical": 1562,
      "ĠMama": 1563,
      "Ġsnack": 1564,
      "Ġbar": 1565,
      "Ġcolorful": 1566,
      "ire": 1567,
      "ident": 1568,
      "uit": 1569,
      "Ġhelping": 1570,
      "ased": 1571,
      "Ġprincess": 1572,
      "Ġdoctor": 1573,
      "Ġcho": 1574,
      "Ġrace": 1575,
      "Ġdragon": 1576,
      "Ġacc": 1577,
      "Ġriver": 1578,
      "Ġnap": 1579,
      "Ġpro": 1580,
      "Ġsign": 1581,
      "less": 1582,
      "Ġquiet": 1583,
      "Ġcrying": 1584,
      "orm": 1585,
      "ipped": 1586,
      "Ġblack": 1587,
      "ze": 1588,
      "Ġmost": 1589,
      "ol": 1590,
      "Ġdangerous": 1591,
      "Sure": 1592,
      "Ġstepped": 1593,
      "Ġtrain": 1594,
      "Ġsmart": 1595,
      "Ġatt": 1596,
      "Ġbowl": 1597,
      "Ġfarmer": 1598,
      "Ġmix": 1599,
      "Ġpa": 1600,
      "Ġheavy": 1601,
      "ĠJimmy": 1602,
      "Ġpot": 1603,
      "Ġmonster": 1604,
      "ored": 1605,
      "Ġstu": 1606,
      "Ġje": 1607,
      "ming": 1608,
      "bble": 1609,
      "Ġtwins": 1610,
      "Ġwords": 1611,
      "ĠDaddy": 1612,
      "Mommy": 1613,
      "ear": 1614,
      "Ġacross": 1615,
      "Ġdirty": 1616,
      "Ġdisapp": 1617,
      "ĠEmma": 1618,
      "Ġeating": 1619,
      "Ġsame": 1620,
      "Ġstuck": 1621,
      "Ġclosed": 1622,
      "OK": 1623,
      "ĠJust": 1624,
      "Ġfruit": 1625,
      "Ġthrew": 1626,
      "Ġmust": 1627,
      "Ġtower": 1628,
      "Ġpass": 1629,
      "Ġwouldn": 1630,
      "Ġbuck": 1631,
      "cked": 1632,
      "ĠFluffy": 1633,
      "Ġspr": 1634,
      "Ġhig": 1635,
      "Ġwin": 1636,
      "Ġaccident": 1637,
      "The": 1638,
      "Ġcray": 1639,
      "Ġmonkey": 1640,
      "Ġcarrot": 1641,
      "Why": 1642,
      "ord": 1643,
      "Ġbath": 1644,
      "Ġheal": 1645,
      "Ġfeels": 1646,
      "Ġteac": 1647,
      "iting": 1648,
      "Ġbite": 1649,
      "eared": 1650,
      "Hi": 1651,
      "asket": 1652,
      "umb": 1653,
      "Ġpushed": 1654,
      "ĠMary": 1655,
      "Ġbutt": 1656,
      "Ġtown": 1657,
      "chool": 1658,
      "Ġpast": 1659,
      "Ġbasket": 1660,
      "Ġheart": 1661,
      "ipp": 1662,
      "Ġhoped": 1663,
      "br": 1664,
      "Ġwithout": 1665,
      "Ġhit": 1666,
      "Ġcoll": 1667,
      "Ġclapped": 1668,
      "Ġpack": 1669,
      "ĠMum": 1670,
      "Ġbelieve": 1671,
      "ĠGrandma": 1672,
      "Ġstand": 1673,
      "Ġpers": 1674,
      "Ġforget": 1675,
      "Ġschool": 1676,
      "Ġfairy": 1677,
      "Ġcheered": 1678,
      "phant": 1679,
      "Ġbee": 1680,
      "Ġsmo": 1681,
      "Ġfence": 1682,
      "Ġlon": 1683,
      "de": 1684,
      "ĠWh": 1685,
      "orrow": 1686,
      "Ġcour": 1687,
      "Ġyard": 1688,
      "Ġbrown": 1689,
      "ĠTw": 1690,
      "Ġchair": 1691,
      "Ġdrove": 1692,
      "ract": 1693,
      "Ġadventures": 1694,
      "Ġnoises": 1695,
      "ier": 1696,
      "ventually": 1697,
      "Ġhigher": 1698,
      "Ġlonely": 1699,
      "Ġelephant": 1700,
      "Ġteacher": 1701,
      "Ġtoday": 1702,
      "TMt": 1703,
      "ney": 1704,
      "Ġpocket": 1705,
      "Ġupset": 1706,
      "ors": 1707,
      "cy": 1708,
      "vel": 1709,
      "Ġturns": 1710,
      "Ġswings": 1711,
      "Ġgentle": 1712,
      "Ġlonger": 1713,
      "Ġwings": 1714,
      "Ġwelcome": 1715,
      "Ġgames": 1716,
      "ts": 1717,
      "Ġcourse": 1718,
      "Ġben": 1719,
      "Ġexplained": 1720,
      "Ġfree": 1721,
      "Ġneck": 1722,
      "Ġsuddenly": 1723,
      "Ġleg": 1724,
      "ĠInside": 1725,
      "Ġjour": 1726,
      "ead": 1727,
      "Ġsecret": 1728,
      "Ġstar": 1729,
      "issed": 1730,
      "ountain": 1731,
      "Ġwhe": 1732,
      "Ġdry": 1733,
      "Ġcorn": 1734,
      "Ġsoup": 1735,
      "Ġbring": 1736,
      "Ġshop": 1737,
      "Ġinst": 1738,
      "Ġhappen": 1739,
      "Ġneigh": 1740,
      "Ġdropped": 1741,
      "Ġplac": 1742,
      "Ġhugs": 1743,
      "yard": 1744,
      "Ġtrou": 1745,
      "Ġpiece": 1746,
      "Ġmin": 1747,
      "Ġthrow": 1748,
      "Ġneighb": 1749,
      "Ġswam": 1750,
      "ible": 1751,
      "Ġstories": 1752,
      "Ġsang": 1753,
      "Ġbackyard": 1754,
      "itting": 1755,
      "ĠLater": 1756,
      "ĠTheir": 1757,
      "ment": 1758,
      "Ġwish": 1759,
      "Ġrocks": 1760,
      "Ġbucket": 1761,
      "Ġwell": 1762,
      "Ġlate": 1763,
      "ek": 1764,
      "Ġnaught": 1765,
      "Ġapple": 1766,
      "Ġbelong": 1767,
      "Ġowl": 1768,
      "Ġph": 1769,
      "ches": 1770,
      "Ġnaughty": 1771,
      "ces": 1772,
      "Ġtaking": 1773,
      "Ġorange": 1774,
      "Ġalong": 1775,
      "Ġlunch": 1776,
      "ocked": 1777,
      "Ġdrink": 1778,
      "fused": 1779,
      "ung": 1780,
      "Ġjar": 1781,
      "Ġexploring": 1782,
      "Ġexp": 1783,
      "Ġcou": 1784,
      "Ġsea": 1785,
      "Ġes": 1786,
      "Ġyoung": 1787,
      "bow": 1788,
      "Ġdist": 1789,
      "Ġseemed": 1790,
      "ĠAl": 1791,
      "Ġsinging": 1792,
      "oun": 1793,
      "Ġshook": 1794,
      "Ġmat": 1795,
      "Ġca": 1796,
      "Ġcaught": 1797,
      "Ġmoved": 1798,
      "Ġwar": 1799,
      "Ġnearby": 1800,
      "Ġpig": 1801,
      "Ġwise": 1802,
      "Ġkey": 1803,
      "ĠTweet": 1804,
      "Ġshoes": 1805,
      "Ġstars": 1806,
      "ĠSammy": 1807,
      "Ġtiny": 1808,
      "Ġthough": 1809,
      "Ġwoke": 1810,
      "ĠThank": 1811,
      "Ġtom": 1812,
      "Ġdes": 1813,
      "Ġmiss": 1814,
      "Ġaf": 1815,
      "llo": 1816,
      "Ġmail": 1817,
      "ail": 1818,
      "Ġbus": 1819,
      "ions": 1820,
      "vered": 1821,
      "cer": 1822,
      "Ġsick": 1823,
      "col": 1824,
      "Ġbench": 1825,
      "Ġcarry": 1826,
      "ape": 1827,
      "Ġrelie": 1828,
      "Ġresp": 1829,
      "Lily": 1830,
      "Ġnest": 1831,
      "Ġshapes": 1832,
      "cing": 1833,
      "Do": 1834,
      "ittens": 1835,
      "Ġrainbow": 1836,
      "Ġarms": 1837,
      "idge": 1838,
      "Ġbranch": 1839,
      "Ġkite": 1840,
      "Ġmine": 1841,
      "Ġdriver": 1842,
      "Ġjuice": 1843,
      "Ġbusy": 1844,
      "Ġtakes": 1845,
      "Ġob": 1846,
      "aughter": 1847,
      "raid": 1848,
      "Ġafraid": 1849,
      "let": 1850,
      "Ġwondered": 1851,
      "itch": 1852,
      "Ġmad": 1853,
      "ward": 1854,
      "Ġcir": 1855,
      "Ġsitting": 1856,
      "ining": 1857,
      "Ġcow": 1858,
      "Ġmark": 1859,
      "ese": 1860,
      "Ġmil": 1861,
      "cks": 1862,
      "Ġstreet": 1863,
      "Ġcomes": 1864,
      "Ġinv": 1865,
      "Ġaccidentally": 1866,
      "Ġround": 1867,
      "ho": 1868,
      "Ġnose": 1869,
      "Ġdisco": 1870,
      "Ġking": 1871,
      "Ġ3": 1872,
      "Ġforever": 1873,
      "Ġyear": 1874,
      "Ġfarm": 1875,
      "Ġwhist": 1876,
      "Ġband": 1877,
      "Ġpeace": 1878,
      "Ġdaughter": 1879,
      "Ġlift": 1880,
      "Ġsounds": 1881,
      "sting": 1882,
      "Ġgift": 1883,
      "to": 1884,
      "Ġegg": 1885,
      "Ġcute": 1886,
      "bby": 1887,
      "thday": 1888,
      "ball": 1889,
      "Ġexciting": 1890,
      "adow": 1891,
      "Ġcozy": 1892,
      "Ġfit": 1893,
      "ity": 1894,
      "Ġletter": 1895,
      "Ġpurp": 1896,
      "Ġcoat": 1897,
      "Ġwra": 1898,
      "Ġboun": 1899,
      "Ġpower": 1900,
      "ours": 1901,
      "Ġrelieved": 1902,
      "Ġhello": 1903,
      "Ġnothing": 1904,
      "Ġpatient": 1905,
      "Ġintere": 1906,
      "Ġholding": 1907,
      "Ġlaughing": 1908,
      "Ġhuge": 1909,
      "Ġjourney": 1910,
      "pping": 1911,
      "Ġmist": 1912,
      "shine": 1913,
      "Ġimag": 1914,
      "Ġspoon": 1915,
      "Ġswimming": 1916,
      "Ġgigg": 1917,
      "itten": 1918,
      "Ġmilk": 1919,
      "Ġdays": 1920,
      "Ġsunshine": 1921,
      "Ġlife": 1922,
      "Ġcomfort": 1923,
      "Ġfing": 1924,
      "Ġpurple": 1925,
      "gged": 1926,
      "Ġlater": 1927,
      "ĠCome": 1928,
      "Ġtouched": 1929,
      "ĠJenny": 1930,
      "Ġinstead": 1931,
      "Ġact": 1932,
      "Ġbirthday": 1933,
      "Of": 1934,
      "irt": 1935,
      "eth": 1936,
      "Ġroad": 1937,
      "Ġcheese": 1938,
      "Ġinc": 1939,
      "ĠWith": 1940,
      "fish": 1941,
      "Ġear": 1942,
      "Ġsunny": 1943,
      "ped": 1944,
      "unt": 1945,
      "alm": 1946,
      "Ġret": 1947,
      "Ġgives": 1948,
      "Ġsearched": 1949,
      "ness": 1950,
      "Ġbought": 1951,
      "Ġfan": 1952,
      "Ġbread": 1953,
      "Ġpointed": 1954,
      "Ġanyone": 1955,
      "Ġonto": 1956,
      "Ġbottle": 1957,
      "board": 1958,
      "Ġpres": 1959,
      "ose": 1960,
      "Ġducks": 1961,
      "ize": 1962,
      "Ġstorm": 1963,
      "sc": 1964,
      "Ġhope": 1965,
      "Ġreturn": 1966,
      "Ġlucky": 1967,
      "Ġplane": 1968,
      "Ġtasty": 1969,
      "Ġcave": 1970,
      "Ġcreature": 1971,
      "Ġwatching": 1972,
      "blem": 1973,
      "Ġgrab": 1974,
      "Hey": 1975,
      "ĠMittens": 1976,
      "ĠEll": 1977,
      "Ġpudd": 1978,
      "Ġproblem": 1979,
      "Ġce": 1980,
      "Ġsmiling": 1981,
      "ndp": 1982,
      "Ġrope": 1983,
      "ĠSomet": 1984,
      "Ġkick": 1985,
      "Ġspo": 1986,
      "Ġcrayons": 1987,
      "Ġshell": 1988,
      "Ġeas": 1989,
      "Ġsharp": 1990,
      "aur": 1991,
      "Ġspid": 1992,
      "els": 1993,
      "Ġmeet": 1994,
      "Ġpromise": 1995,
      "Ġsnowman": 1996,
      "Ġperson": 1997,
      "Ġhoney": 1998,
      "Ġdanced": 1999,
      "ond": 2000,
      "Ġpuzz": 2001,
      "epend": 2002,
      "Ġinteresting": 2003,
      "ten": 2004,
      "Ġtalked": 2005,
      "Ġsandw": 2006,
      "Ġbutton": 2007,
      "Ġquest": 2008,
      "ĠCh": 2009,
      "Ġcollect": 2010,
      "Ġbush": 2011,
      "og": 2012,
      "ove": 2013,
      "Ġzoom": 2014,
      "Ġtrouble": 2015,
      "Ġwide": 2016,
      "Ġcard": 2017,
      "Ġkiss": 2018,
      "itty": 2019,
      "Ġsmelled": 2020,
      "Ġspin": 2021,
      "Ġpresent": 2022,
      "Ġent": 2023,
      "Ġap": 2024,
      "Ġlovely": 2025,
      "Ġapples": 2026,
      "Ġpract": 2027,
      "Ġadm": 2028,
      "Ġwrite": 2029,
      "Ġgiant": 2030,
      "Ġhealthy": 2031,
      "ont": 2032,
      "Ġclouds": 2033,
      "Ġpill": 2034,
      "Ġshining": 2035,
      "Ġgather": 2036,
      "izz": 2037,
      "Ġpar": 2038,
      "umber": 2039,
      "Ġrolled": 2040,
      "isa": 2041,
      "Ġcheer": 2042,
      "Ġplaces": 2043,
      "Ġfront": 2044,
      "ndpa": 2045,
      "Good": 2046,
      "Ġputs": 2047,
      "ĠEmily": 2048,
      "owed": 2049,
      "Ġwhich": 2050,
      "Ġloves": 2051,
      "Ġsaf": 2052,
      "Ġvill": 2053,
      "Ġsur": 2054,
      "Ġpath": 2055,
      "ĠHow": 2056,
      "Ġspotted": 2057,
      "ub": 2058,
      "Ġtun": 2059,
      "Ġhon": 2060,
      "Ġworm": 2061,
      "Ġimpre": 2062,
      "ĠRe": 2063,
      "Ġclever": 2064,
      "Ġshr": 2065,
      "Ġorgan": 2066,
      "Ġmyster": 2067,
      "bar": 2068,
      "Ġlay": 2069,
      "Ġmatter": 2070,
      "Ġfeather": 2071,
      "up": 2072,
      "Ġtasted": 2073,
      "ĠTogether": 2074,
      "Ġwild": 2075,
      "Ġeag": 2076,
      "Ġzoo": 2077,
      "Ġmed": 2078,
      "Ġtrip": 2079,
      "Ġprot": 2080,
      "Ġrespect": 2081,
      "een": 2082,
      "Ġbark": 2083,
      "Ġdi": 2084,
      "Ġhor": 2085,
      "ĠSt": 2086,
      "Ġcouch": 2087,
      "Ġsuc": 2088,
      "Ġthin": 2089,
      "Ġpop": 2090,
      "Ġwhole": 2091,
      "ching": 2092,
      "Ġfoot": 2093,
      "Ġprotect": 2094,
      "erly": 2095,
      "Ġasleep": 2096,
      "Ġpile": 2097,
      "Ġspent": 2098,
      "ular": 2099,
      "Ġbuilding": 2100,
      "ĠLisa": 2101,
      "Ġdirt": 2102,
      "cean": 2103,
      "Ġocean": 2104,
      "Ġlad": 2105,
      "Ġknee": 2106,
      "Ġgoes": 2107,
      "Ġcoin": 2108,
      "Ġspider": 2109,
      "Ġwearing": 2110,
      "barra": 2111,
      "Ġmountain": 2112,
      "Ġpretended": 2113,
      "Ġembarra": 2114,
      "nic": 2115,
      "Ġslid": 2116,
      "Ġpicnic": 2117,
      "Ġscreamed": 2118,
      "ĠSometimes": 2119,
      "Ġfaces": 2120,
      "Ġteach": 2121,
      "Ġphone": 2122,
      "Ġsack": 2123,
      "Ġsnake": 2124,
      "Ġanswer": 2125,
      "Ġseat": 2126,
      "Ġconfused": 2127,
      "Ġappeared": 2128,
      "Come": 2129,
      "oose": 2130,
      "Ġtalking": 2131,
      "Ġgently": 2132,
      "ife": 2133,
      "Ġsal": 2134,
      "Ġfurry": 2135,
      "eb": 2136,
      "Ġhelpful": 2137,
      "Ġmud": 2138,
      "Ġdrive": 2139,
      "la": 2140,
      "Ġmind": 2141,
      "lex": 2142,
      "Ġpan": 2143,
      "Ġsupp": 2144,
      "Ġladder": 2145,
      "Ġpush": 2146,
      "Ġoven": 2147,
      "Ġign": 2148,
      "Ġcart": 2149,
      "ĠJake": 2150,
      "ale": 2151,
      "Ġser": 2152,
      "Ġrec": 2153,
      "Ġwhenever": 2154,
      "arge": 2155,
      "Ġval": 2156,
      "Ġcorner": 2157,
      "ĠLe": 2158,
      "unk": 2159,
      "ĠGo": 2160,
      "Ġwom": 2161,
      "Ġchocol": 2162,
      "Ġcalm": 2163,
      "ÅĵI": 2164,
      "Ġsplas": 2165,
      "Ġwoman": 2166,
      "Ġban": 2167,
      "ĠBu": 2168,
      "Ġneighbor": 2169,
      "Ġlast": 2170,
      "Ġtool": 2171,
      "ĠPeter": 2172,
      "Ġmach": 2173,
      "Ġblew": 2174,
      "Ġfixed": 2175,
      "read": 2176,
      "Ġring": 2177,
      "Ġfighting": 2178,
      "Ġfinish": 2179,
      "Ġwaiting": 2180,
      "Ġwave": 2181,
      "Ġspicy": 2182,
      "Ġforgive": 2183,
      "Ġtid": 2184,
      "ert": 2185,
      "bbles": 2186,
      "Ġfeet": 2187,
      "Ġminut": 2188,
      "Ġspread": 2189,
      "Ġdelight": 2190,
      "Ġash": 2191,
      "Ġtaste": 2192,
      "ĠBe": 2193,
      "Ġeventually": 2194,
      "Ġteeth": 2195,
      "Ġlive": 2196,
      "Ġembarrassed": 2197,
      "Ġpour": 2198,
      "Ġhorse": 2199,
      "Ġtomorrow": 2200,
      "Ġremind": 2201,
      "Ġbell": 2202,
      "Ġscar": 2203,
      "Ġcookie": 2204,
      "Ġsmooth": 2205,
      "ĠMummy": 2206,
      "Ġrocket": 2207,
      "ones": 2208,
      "ĠTeddy": 2209,
      "per": 2210,
      "Ġant": 2211,
      "Ġshy": 2212,
      "Ġcloth": 2213,
      "Ġfold": 2214,
      "Ġchocolate": 2215,
      "mo": 2216,
      "Ġtries": 2217,
      "ĠWhile": 2218,
      "Ġcolour": 2219,
      "old": 2220,
      "Ġstep": 2221,
      "oph": 2222,
      "Ġlarge": 2223,
      "Ġtea": 2224,
      "Ġsongs": 2225,
      "Ġneckl": 2226,
      "Ġhiding": 2227,
      "Ġbanan": 2228,
      "Tom": 2229,
      "Ġkitten": 2230,
      "Ġpaw": 2231,
      "Ġspray": 2232,
      "Ġspe": 2233,
      "urse": 2234,
      "Ġrob": 2235,
      "Ġhum": 2236,
      "Ġpool": 2237,
      "Ġshirt": 2238,
      "ery": 2239,
      "Ġple": 2240,
      "Ġemp": 2241,
      "Ġwash": 2242,
      "Ġcann": 2243,
      "Ġpizz": 2244,
      "Ġempty": 2245,
      "ungle": 2246,
      "ĠSome": 2247,
      "Ġvillage": 2248,
      "Ġcreative": 2249,
      "lebr": 2250,
      "Ġjungle": 2251,
      "Ġgrew": 2252,
      "Ġbugs": 2253,
      "Ġtightly": 2254,
      "Ġtidy": 2255,
      "als": 2256,
      "getable": 2257,
      "Ġcannot": 2258,
      "dge": 2259,
      "Ġcoo": 2260,
      "Ġknocked": 2261,
      "Ġvegetable": 2262,
      "Ġwhistle": 2263,
      "Ġsol": 2264,
      "Ġrep": 2265,
      "Ġcelebr": 2266,
      "umpy": 2267,
      "airs": 2268,
      "ato": 2269,
      "ĠTV": 2270,
      "nny": 2271,
      "den": 2272,
      "Ġchick": 2273,
      "Ġrude": 2274,
      "Ġwore": 2275,
      "Ġtrust": 2276,
      "St": 2277,
      "Ġhar": 2278,
      "Ġbarked": 2279,
      "Ġrobot": 2280,
      "Ġwip": 2281,
      "ĠEverywhere": 2282,
      "Ġpeaceful": 2283,
      "Ġsparkly": 2284,
      "Ġpuddle": 2285,
      "ush": 2286,
      "Ġnecklace": 2287,
      "My": 2288,
      "ĠJohnny": 2289,
      "ground": 2290,
      "Ġ'": 2291,
      "Ġhears": 2292,
      "Ġchased": 2293,
      "ighed": 2294,
      "Ġpizza": 2295,
      "ĠPlease": 2296,
      "ĠAlice": 2297,
      "Ġstret": 2298,
      "Ġsel": 2299,
      "Ġstir": 2300,
      "Ġmeant": 2301,
      "ned": 2302,
      "Ġbal": 2303,
      "Ġmoon": 2304,
      "Ġmaybe": 2305,
      "Ġgun": 2306,
      "Ġstra": 2307,
      "Ġpuzzle": 2308,
      "Ġhidden": 2309,
      "Ġpin": 2310,
      "Ġnet": 2311,
      "Ġsave": 2312,
      "ian": 2313,
      "Ġtreats": 2314,
      "Ġgen": 2315,
      "Ġmeadow": 2316,
      "Ġcross": 2317,
      "Ġcarrots": 2318,
      "inted": 2319,
      "lower": 2320,
      "box": 2321,
      "Ġmot": 2322,
      "pper": 2323,
      "era": 2324,
      "Ġsticks": 2325,
      "Ġsnacks": 2326,
      "dle": 2327,
      "Ġcarried": 2328,
      "Ġmissed": 2329,
      "gly": 2330,
      "ustr": 2331,
      "Ġforward": 2332,
      "ult": 2333,
      "Ġseed": 2334,
      "Ġflut": 2335,
      "Ġtells": 2336,
      "Ġsplash": 2337,
      "Ġav": 2338,
      "Ġgroup": 2339,
      "Ġsour": 2340,
      "Ġbat": 2341,
      "Ġcrab": 2342,
      "Ġprince": 2343,
      "Ġmachine": 2344,
      "Ġshelf": 2345,
      "Ġber": 2346,
      "Ġclear": 2347,
      "Ġugly": 2348,
      "Ġstring": 2349,
      "Ġselfish": 2350,
      "ĠBr": 2351,
      "Ġjumping": 2352,
      "Ġdisappo": 2353,
      "ird": 2354,
      "ĠSus": 2355,
      "ĠEven": 2356,
      "aul": 2357,
      "Ġgold": 2358,
      "iger": 2359,
      "Ġlem": 2360,
      "elly": 2361,
      "kin": 2362,
      "Ġfrustr": 2363,
      "Ġleaf": 2364,
      "Ġburn": 2365,
      "Ġknowing": 2366,
      "ĠKitty": 2367,
      "Ġgray": 2368,
      "Ġstood": 2369,
      "ying": 2370,
      "Ġroar": 2371,
      "Ġyelled": 2372,
      "Ġpolice": 2373,
      "Ġlanded": 2374,
      "Ġlegs": 2375,
      "Please": 2376,
      "ĠLittle": 2377,
      "Ġsharing": 2378,
      "most": 2379,
      "Ġhonest": 2380,
      "Ġpir": 2381,
      "Ġcirc": 2382,
      "ĠLeo": 2383,
      "ator": 2384,
      "Ġstone": 2385,
      "eterm": 2386,
      "hin": 2387,
      "Ġwhis": 2388,
      "Ġblow": 2389,
      "ĠZ": 2390,
      "Ġdeterm": 2391,
      "ĠWhy": 2392,
      "Ġstanding": 2393,
      "Ġplate": 2394,
      "Ġdrew": 2395,
      "Ġbreath": 2396,
      "Ġalmost": 2397,
      "Ġgar": 2398,
      "Ġnods": 2399,
      "vous": 2400,
      "Ġfancy": 2401,
      "Ġfrustrated": 2402,
      "Ġnumber": 2403,
      "Ġseek": 2404,
      "Stop": 2405,
      "Ġdisappointed": 2406,
      "Ġtest": 2407,
      "Ġsleepy": 2408,
      "orry": 2409,
      "iff": 2410,
      "Ġthese": 2411,
      "ital": 2412,
      "ĠRex": 2413,
      "aking": 2414,
      "uce": 2415,
      "itter": 2416,
      "Ġfear": 2417,
      "Ġscream": 2418,
      "Ġpowerful": 2419,
      "Ġmysterious": 2420,
      "Ġfeed": 2421,
      "Ġpillow": 2422,
      "Ġhours": 2423,
      "Ġgener": 2424,
      "Ġpolite": 2425,
      "Ġhosp": 2426,
      "Ġfil": 2427,
      "pack": 2428,
      "Ġhospital": 2429,
      "ser": 2430,
      "Ġline": 2431,
      "Ġgas": 2432,
      "Ġjew": 2433,
      "Ġmedic": 2434,
      "Ġashamed": 2435,
      "ffe": 2436,
      "Ġplants": 2437,
      "Ġcries": 2438,
      "Ġdecor": 2439,
      "ecially": 2440,
      "Ġner": 2441,
      "ote": 2442,
      "ets": 2443,
      "Ġreg": 2444,
      "Ġreturned": 2445,
      "issors": 2446,
      "ual": 2447,
      "izzy": 2448,
      "Ġunderstood": 2449,
      "ĠMark": 2450,
      "ĠDon": 2451,
      "Ġsheep": 2452,
      "Ġscissors": 2453,
      "Ġmedicine": 2454,
      "Ġnervous": 2455,
      "Ġtwirl": 2456,
      "ensive": 2457,
      "Ġexpensive": 2458,
      "Ġspoil": 2459,
      "pecially": 2460,
      "ony": 2461,
      "Ġshore": 2462,
      "Ġpacked": 2463,
      "Ġespecially": 2464,
      "sist": 2465,
      "Ġscarf": 2466,
      "osaur": 2467,
      "Ġbored": 2468,
      "Ġpay": 2469,
      "Ġdancing": 2470,
      "Ġpassed": 2471,
      "Ġsandwich": 2472,
      "Ġvegetables": 2473,
      "Ġnut": 2474,
      "Ġtaught": 2475,
      "Ġvan": 2476,
      "Ġgarage": 2477,
      "Ġsaved": 2478,
      "Ġpoor": 2479,
      "Ġgrumpy": 2480,
      "Ġcloset": 2481,
      "light": 2482,
      "ina": 2483,
      "Ġpri": 2484,
      "Ġbecome": 2485,
      "Ġhel": 2486,
      "Ġmummy": 2487,
      "Ġruined": 2488,
      "Ġscr": 2489,
      "Ġtaken": 2490,
      "Ġfinger": 2491,
      "Ġgate": 2492,
      "'d": 2493,
      "Ġdrum": 2494,
      "Ġcomfortable": 2495,
      "Ġfill": 2496,
      "Ġmessy": 2497,
      "iddle": 2498,
      "Ġcand": 2499,
      "Ġdinosaur": 2500,
      "ĠToday": 2501,
      "ĠSusie": 2502,
      "Ġsold": 2503,
      "Ġbedroom": 2504,
      "Ġeasy": 2505,
      "Ġones": 2506,
      "ĠBl": 2507,
      "Ġexam": 2508,
      "Ġgenerous": 2509,
      "Ġpleased": 2510,
      "Ġasking": 2511,
      "ano": 2512,
      "Ġclass": 2513,
      "Ġsuccess": 2514,
      "ym": 2515,
      "Ġwis": 2516,
      "Ġyourself": 2517,
      "Ġworking": 2518,
      "Ġdetermined": 2519,
      "oop": 2520,
      "Ġship": 2521,
      "Ġpray": 2522,
      "Ġglue": 2523,
      "Ġfig": 2524,
      "Ġhopping": 2525,
      "Ġgiggled": 2526,
      "Ġsailed": 2527,
      "Ġboring": 2528,
      "imp": 2529,
      "Ġstuff": 2530,
      "Ġballs": 2531,
      "Ġmotor": 2532,
      "Ġcri": 2533,
      "Ġwagged": 2534,
      "Ġvase": 2535,
      "Ġglass": 2536,
      "Ġkissed": 2537,
      "Ġhur": 2538,
      "Ġmov": 2539,
      "Ġmistake": 2540,
      "Ġoften": 2541,
      "Ġsighed": 2542,
      "ates": 2543,
      "ĠOK": 2544,
      "Where": 2545,
      "Ġdest": 2546,
      "Ġplayground": 2547,
      "Ġexcite": 2548,
      "Ġesc": 2549,
      "Ġminutes": 2550,
      "Ġtrue": 2551,
      "Ġwheel": 2552,
      "Ġlead": 2553,
      "Ġbrush": 2554,
      "Ġchest": 2555,
      "Ġchew": 2556,
      "Ġanswered": 2557,
      "Ġwaves": 2558,
      "erp": 2559,
      "Ġweak": 2560,
      "Ġclown": 2561,
      "Ġboys": 2562,
      "Ġgathered": 2563,
      "iness": 2564,
      "Ġfake": 2565,
      "Ġspend": 2566,
      "Ġdrop": 2567,
      "Ġthankful": 2568,
      "illi": 2569,
      "Ġtears": 2570,
      "ĠBrown": 2571,
      "Ben": 2572,
      "Ġrad": 2573,
      "mb": 2574,
      "Ġtick": 2575,
      "Ġmiddle": 2576,
      "selves": 2577,
      "Ġcontent": 2578,
      "Ġhang": 2579,
      "Ġjelly": 2580,
      "Ġpus": 2581,
      "Ġteam": 2582,
      "ots": 2583,
      "Ġeld": 2584,
      "Ġgets": 2585,
      "Ġexcitement": 2586,
      "Ġcap": 2587,
      "Ġquestions": 2588,
      "Ġlemon": 2589,
      "Ġeggs": 2590,
      "Ġlock": 2591,
      "Who": 2592,
      "Ġtent": 2593,
      "arl": 2594,
      "Ġflag": 2595,
      "Ġskipped": 2596,
      "Ġfridge": 2597,
      "Ġchange": 2598,
      "Ġsmelly": 2599,
      "Ġwrote": 2600,
      "Ġrid": 2601,
      "Ġdrawing": 2602,
      "Ġlit": 2603,
      "Ġrelax": 2604,
      "Ġadd": 2605,
      "Ġfruits": 2606,
      "Ġdiscovered": 2607,
      "oof": 2608,
      "aged": 2609,
      "Sorry": 2610,
      "Ġknight": 2611,
      "Ġbridge": 2612,
      "Ġsight": 2613,
      "ete": 2614,
      "Ġbathroom": 2615,
      "Ġboard": 2616,
      "Ġmatch": 2617,
      "Ġmir": 2618,
      "Ġdogs": 2619,
      "Are": 2620,
      "Ġknife": 2621,
      "Ġshows": 2622,
      "ĠElla": 2623,
      "Ġclap": 2624,
      "Ġlazy": 2625,
      "Ġfluffy": 2626,
      "Ġqueen": 2627,
      "Ġwolf": 2628,
      "Ġtag": 2629,
      "Ġsil": 2630,
      "Ġcovered": 2631,
      "que": 2632,
      "Ġcheck": 2633,
      "Ġsweetie": 2634,
      "Ġfamous": 2635,
      "Ġmighty": 2636,
      "ork": 2637,
      "cept": 2638,
      "Ġbake": 2639,
      "Ġord": 2640,
      "Ġpicks": 2641,
      "Ġdrank": 2642,
      "Ġdistance": 2643,
      "Ġmic": 2644,
      "Ġang": 2645,
      "Ġnod": 2646,
      "ella": 2647,
      "Ġdisappeared": 2648,
      "Ġlying": 2649,
      "ĠFred": 2650,
      "Ġdeer": 2651,
      "ĠMrs": 2652,
      "ror": 2653,
      "ĠNo": 2654,
      "Ġwander": 2655,
      "Ġboss": 2656,
      "ĠEventually": 2657,
      "Ġcaterp": 2658,
      "Ġtowel": 2659,
      "Ġcrown": 2660,
      "Ġcaterpill": 2661,
      "Ġunus": 2662,
      "Ġwalks": 2663,
      "Ġunusual": 2664,
      "Ġfre": 2665,
      "Ġmap": 2666,
      "Ġsoap": 2667,
      "Ġcalling": 2668,
      "Ġeager": 2669,
      "ti": 2670,
      "Ġbone": 2671,
      "Ġind": 2672,
      "Ġfis": 2673,
      "Ġmoving": 2674,
      "Ġshoot": 2675,
      "Ġed": 2676,
      "ĠIf": 2677,
      "Ġsell": 2678,
      "Ġdecide": 2679,
      "Ġelderly": 2680,
      "obby": 2681,
      "Ġlose": 2682,
      "Ġstones": 2683,
      "ination": 2684,
      "ĠBlue": 2685,
      "Ġborrow": 2686,
      "Ġcover": 2687,
      "Now": 2688,
      "Ġdig": 2689,
      "Ġdish": 2690,
      "Ġcleaned": 2691,
      "body": 2692,
      "elp": 2693,
      "Ġsplashed": 2694,
      "ating": 2695,
      "Ġweek": 2696,
      "ĠEnd": 2697,
      "Ġglow": 2698,
      "Ġcrawl": 2699,
      "Ġcage": 2700,
      "arth": 2701,
      "Ġcher": 2702,
      "imed": 2703,
      "work": 2704,
      "umbled": 2705,
      "Ġincred": 2706,
      "Ġhunt": 2707,
      "Ġfeathers": 2708,
      "Ġoffered": 2709,
      "Ġbanana": 2710,
      "asing": 2711,
      "Ġcaterpillar": 2712,
      "Ġyours": 2713,
      "Ġkindness": 2714,
      "ĠPete": 2715,
      "Ġfather": 2716,
      "alous": 2717,
      "Ġcoins": 2718,
      "Ġeye": 2719,
      "Ġjuicy": 2720,
      "ĠU": 2721,
      "Ġbrilli": 2722,
      "Ġjealous": 2723,
      "ĠDave": 2724,
      "Ġbranches": 2725,
      "ĠTweety": 2726,
      "Ġtape": 2727,
      "Ġcam": 2728,
      "Ġcost": 2729,
      "Ġbottom": 2730,
      "Ġorganized": 2731,
      "Ġmirror": 2732,
      "Ġlamp": 2733,
      "Ġbody": 2734,
      "Ġbrilliant": 2735,
      "Ġtoug": 2736,
      "Ġrare": 2737,
      "fast": 2738,
      "Ġtie": 2739,
      "Ġcraw": 2740,
      "Ġhorn": 2741,
      "Ġthick": 2742,
      "Ġcrawled": 2743,
      "Ġdepend": 2744,
      "ĠSn": 2745,
      "Ġhurts": 2746,
      "Ġtunn": 2747,
      "port": 2748,
      "Ġmeasure": 2749,
      "Ġcolourful": 2750,
      "Ġbalance": 2751,
      "Ġbubbles": 2752,
      "Ġbreakfast": 2753,
      "Ġimpressed": 2754,
      "Help": 2755,
      "Ġlicked": 2756,
      "Ġext": 2757,
      "Ġhero": 2758,
      "Ġonce": 2759,
      "ugar": 2760,
      "Ġtwist": 2761,
      "olog": 2762,
      "Ġincredible": 2763,
      "Ġtiger": 2764,
      "Ġfool": 2765,
      "Ġrough": 2766,
      "Ġjoke": 2767,
      "Ġtrucks": 2768,
      "Ġwagon": 2769,
      "Ġfine": 2770,
      "ĠBella": 2771,
      "Ġlibr": 2772,
      "Ġboxes": 2773,
      "Ġtough": 2774,
      "appy": 2775,
      "Ġadventur": 2776,
      "Ġsmoke": 2777,
      "Ġhappening": 2778,
      "Ġapolog": 2779,
      "bin": 2780,
      "ĠMar": 2781,
      "Ġmanaged": 2782,
      "Ġcabin": 2783,
      "Tim": 2784,
      "Ġsugar": 2785,
      "ilt": 2786,
      "amond": 2787,
      "?\".": 2788,
      "Ġflash": 2789,
      "Ġrealised": 2790,
      "Ġfavour": 2791,
      "Ġbitter": 2792,
      "Ġtrunk": 2793,
      "Ġadventurous": 2794,
      "Ġwrapped": 2795,
      "hip": 2796,
      "rag": 2797,
      "Ġnoisy": 2798,
      "Ġchase": 2799,
      "Ġjog": 2800,
      "Ġfalls": 2801,
      "Ġflute": 2802,
      "Ġaw": 2803,
      "Ġadded": 2804,
      "Ġsugg": 2805,
      "Ġfavourite": 2806,
      "Ġsuggest": 2807,
      "Ġdizzy": 2808,
      "Me": 2809,
      "Ġmelt": 2810,
      "Ġok": 2811,
      "Ġdiamond": 2812,
      "Ġrecord": 2813,
      "Ġharm": 2814,
      "Ġmixed": 2815,
      "Ġcircles": 2816,
      "Ġfoolish": 2817,
      "Ġsunf": 2818,
      "Ġmarket": 2819,
      "Ġpump": 2820,
      "ddy": 2821,
      "Ġaccept": 2822,
      "lies": 2823,
      "Ġwand": 2824,
      "Ġlog": 2825,
      "Ġjam": 2826,
      "ured": 2827,
      "Ġguess": 2828,
      "Ġsafely": 2829,
      "land": 2830,
      "yal": 2831,
      "keep": 2832,
      "Ġlouder": 2833,
      "Ġextra": 2834,
      "ory": 2835,
      "Ġword": 2836,
      "Ġneeds": 2837,
      "ĠBobo": 2838,
      "Ġarg": 2839,
      "Ġlifted": 2840,
      "edient": 2841,
      "ately": 2842,
      "Ġcheerful": 2843,
      "Ġturt": 2844,
      "Ġshark": 2845,
      "Ġjack": 2846,
      "Ġmagn": 2847,
      "Ġdependable": 2848,
      "Ġter": 2849,
      "Ġpil": 2850,
      "Ġears": 2851,
      "Ġpointing": 2852,
      "apping": 2853,
      "uggled": 2854,
      "Ġdreamed": 2855,
      "Ġwrap": 2856,
      "Ġberries": 2857,
      "Be": 2858,
      "Ġmoms": 2859,
      "Ġagainst": 2860,
      "Ġgrandpa": 2861,
      "Ġgrown": 2862,
      "Ġjewel": 2863,
      "ira": 2864,
      "Ġpee": 2865,
      "Ġgiving": 2866,
      "Ġfigure": 2867,
      "Ġham": 2868,
      "Ġgrace": 2869,
      "Ġweal": 2870,
      "Ġfrown": 2871,
      "Well": 2872,
      "Ġswan": 2873,
      "ĠWhenever": 2874,
      "Ġbags": 2875,
      "Ġmovie": 2876,
      "ĠMandy": 2877,
      "Ġtwig": 2878,
      "Ġdreams": 2879,
      "Ġballoons": 2880,
      "Ġbelonged": 2881,
      "ique": 2882,
      "head": 2883,
      "omed": 2884,
      "Ġlearning": 2885,
      "Ġstronger": 2886,
      "laimed": 2887,
      "Ġdolp": 2888,
      "Ġedge": 2889,
      "Ġexclaimed": 2890,
      "Ġyarn": 2891,
      "Ġsword": 2892,
      "Ġslipped": 2893,
      "Ġunique": 2894,
      "Ġsearch": 2895,
      "Ġloyal": 2896,
      "Ġchoose": 2897,
      "emo": 2898,
      "Ġhats": 2899,
      "ĠMy": 2900,
      "Ġshake": 2901,
      "rage": 2902,
      "Ġloudly": 2903,
      "ĠNemo": 2904,
      "Ġenjoying": 2905,
      "fic": 2906,
      "oppy": 2907,
      "Ġhappiness": 2908,
      "Ġspun": 2909,
      "iable": 2910,
      "Ġobedient": 2911,
      "anut": 2912,
      "anged": 2913,
      "Ġmarble": 2914,
      "Ġtools": 2915,
      "ready": 2916,
      "Ġsquee": 2917,
      "Ġlaughs": 2918,
      "Ġrich": 2919,
      "Ġwalls": 2920,
      "Ġlean": 2921,
      "Ġtele": 2922,
      "Ġreliable": 2923,
      "Ġcamera": 2924,
      "Ġfour": 2925,
      "ext": 2926,
      "iv": 2927,
      "ature": 2928,
      "Ġalready": 2929,
      "Ġmod": 2930,
      "Ġcleaning": 2931,
      "Ġunl": 2932,
      "aw": 2933,
      "Ġdiffic": 2934,
      "Ġangel": 2935,
      "Ġterri": 2936,
      "oot": 2937,
      "Ġclay": 2938,
      "Ġbull": 2939,
      "Ġmeans": 2940,
      "Ġuseful": 2941,
      "Ġcrayon": 2942,
      "ĠBobby": 2943,
      "Ġgoat": 2944,
      "ipe": 2945,
      "Ġpainting": 2946,
      "Ġbuttons": 2947,
      "gy": 2948,
      "ention": 2949,
      "Ġbarn": 2950,
      "ages": 2951,
      "shion": 2952,
      "Ġusing": 2953,
      "Ġcompet": 2954,
      "Ġstraw": 2955,
      "umbers": 2956,
      "Ġbloom": 2957,
      "Ġstubb": 2958,
      "Ġindepend": 2959,
      "Ġtunnel": 2960,
      "Ġturtle": 2961,
      "Ġtank": 2962,
      "Ġhelps": 2963,
      "Ġscare": 2964,
      "Ġcircle": 2965,
      "Ġdifficult": 2966,
      "cil": 2967,
      "Ġnorm": 2968,
      "Ġthu": 2969,
      "ĠDan": 2970,
      "Ġthoughtful": 2971,
      "Ġpencil": 2972,
      "keeper": 2973,
      "Here": 2974,
      "Ġfier": 2975,
      "Ġfright": 2976,
      "Ġbushes": 2977,
      "Ġpeanut": 2978,
      "Ġpainted": 2979,
      "Ġnosy": 2980,
      "Ġsounded": 2981,
      "zed": 2982,
      "Ġtimes": 2983,
      "ĠDucky": 2984,
      "Ġstream": 2985,
      "Ġguit": 2986,
      "Ġgem": 2987,
      "Ġwhale": 2988,
      "Ġoffice": 2989,
      "Ġcounted": 2990,
      "Ġdove": 2991,
      "Ġref": 2992,
      "Ġskin": 2993,
      "Ġbald": 2994,
      "Ġparrot": 2995,
      "Ġliz": 2996,
      "Ġcompetit": 2997,
      "Ġstubborn": 2998,
      "Ġbirdie": 2999,
      "Ġfierce": 3000,
      "wards": 3001,
      "Ġtoast": 3002,
      "ado": 3003,
      "ĠMike": 3004,
      "Ġknows": 3005,
      "ye": 3006,
      "Ġrug": 3007,
      "ĠAlex": 3008,
      "Ġisland": 3009,
      "Ġinvited": 3010,
      "Ġwealthy": 3011,
      "Ġnormal": 3012,
      "Ġcop": 3013,
      "Ġsaying": 3014,
      "Ġswe": 3015,
      "Ġexplored": 3016,
      "Ġjoined": 3017,
      "cient": 3018,
      "ject": 3019,
      "Ġfrag": 3020,
      "Ġcro": 3021,
      "ĠRose": 3022,
      "Ġicy": 3023,
      "orge": 3024,
      "Ġsoar": 3025,
      "Ġweird": 3026,
      "Ġnotice": 3027,
      "Ġcrack": 3028,
      "Ġindependent": 3029,
      "Ġnumbers": 3030,
      "Ġsunflower": 3031,
      "Ġpost": 3032,
      "Ġmole": 3033,
      "Ġbrothers": 3034,
      "Ġdesign": 3035,
      "Ġpirate": 3036,
      "inary": 3037,
      "erry": 3038,
      "ĠFr": 3039,
      "Ġgrap": 3040,
      "Ġbossy": 3041,
      "Ġfat": 3042,
      "Ġsmaller": 3043,
      "Ġharder": 3044,
      "ouses": 3045,
      "Ġbuilt": 3046,
      "Ġspoiled": 3047,
      "ines": 3048,
      "Ġstairs": 3049,
      "Ġancient": 3050,
      "Ġseem": 3051,
      "Ġprep": 3052,
      "Ġguitar": 3053,
      "Ġstumbled": 3054,
      "Ġlights": 3055,
      "Ġmarch": 3056,
      "Ġchicken": 3057,
      "Ġfountain": 3058,
      "Ġsauce": 3059,
      "Ġstri": 3060,
      "Ġrode": 3061,
      "Ġenorm": 3062,
      "Ġpicking": 3063,
      "Ġfresh": 3064,
      "Ġbeet": 3065,
      "Ġcact": 3066,
      "Ġvalu": 3067,
      "Ġescape": 3068,
      "Ġfragile": 3069,
      "Ġenormous": 3070,
      "Ġhouses": 3071,
      "Ġresc": 3072,
      "ĠGrandpa": 3073,
      "Ġpoured": 3074,
      "Ġseeds": 3075,
      "Ġwhisp": 3076,
      "Ġchar": 3077,
      "ĠCl": 3078,
      "Ġsuit": 3079,
      "Ġhose": 3080,
      "Ġenvel": 3081,
      "ÅĵLet": 3082,
      "Ġreminded": 3083,
      "ither": 3084,
      "Ġpow": 3085,
      "ĠSoph": 3086,
      "Ġmem": 3087,
      "Ġbump": 3088,
      "irp": 3089,
      "Ġfork": 3090,
      "Ġtrump": 3091,
      "Ġproudly": 3092,
      "Ġkinds": 3093,
      "Ġcudd": 3094,
      "Ġbounce": 3095,
      "Ġpractice": 3096,
      "Ġways": 3097,
      "Ġpenny": 3098,
      "Ġcity": 3099,
      "Ġpepper": 3100,
      "Ġsalad": 3101,
      "Ġcostum": 3102,
      "Ġfrightened": 3103,
      "aid": 3104,
      "pid": 3105,
      "ache": 3106,
      "Ġsearching": 3107,
      "Ġchose": 3108,
      "Ġfingers": 3109,
      "Ġshells": 3110,
      "Ġadmired": 3111,
      "Ġsolve": 3112,
      "Ġcactus": 3113,
      "Ġtummy": 3114,
      "Ġwake": 3115,
      "Ġhalf": 3116,
      "Ġthirst": 3117,
      "Ġroof": 3118,
      "Ġshowing": 3119,
      "ĠGe": 3120,
      "ola": 3121,
      "Ġdelighted": 3122,
      "Ġcone": 3123,
      "Ġdull": 3124,
      "dom": 3125,
      "Ġnurse": 3126,
      "alk": 3127,
      "arsh": 3128,
      "Ġboats": 3129,
      "Ġbarber": 3130,
      "na": 3131,
      "Ġbeak": 3132,
      "Ġstage": 3133,
      "Ġexcitedly": 3134,
      "Ġabove": 3135,
      "berry": 3136,
      "Ġstudy": 3137,
      "Ġstupid": 3138,
      "Ġbatter": 3139,
      "Ġspace": 3140,
      "Ġsuggested": 3141,
      "Ġlizard": 3142,
      "Ġshone": 3143,
      "Ġcompass": 3144,
      "Ġregular": 3145,
      "Ġflashlight": 3146,
      "vice": 3147,
      "Ġcere": 3148,
      "anger": 3149,
      "Ġlocked": 3150,
      "Ġspilled": 3151,
      "Ġshape": 3152,
      "Ġattic": 3153,
      "Ġterrible": 3154,
      "Ġtooth": 3155,
      "Ġhoop": 3156,
      "Ġvaluable": 3157,
      "Ġtrumpet": 3158,
      "time": 3159,
      "Ġarrow": 3160,
      "ĠEllie": 3161,
      "ress": 3162,
      "Ġpant": 3163,
      "ĠSandy": 3164,
      "Ġearth": 3165,
      "Ġyet": 3166,
      "illie": 3167,
      "Ġcheap": 3168,
      "Ġdesk": 3169,
      "Ġkicked": 3170,
      "Ġserious": 3171,
      "Ġsuccessful": 3172,
      "Ġthirsty": 3173,
      "Ġlow": 3174,
      "arry": 3175,
      "ĠGeorge": 3176,
      "het": 3177,
      "inal": 3178,
      "Ġclum": 3179,
      "Ġlab": 3180,
      "Ġscrat": 3181,
      "How": 3182,
      "Ġorig": 3183,
      "com": 3184,
      "Ġow": 3185,
      "Ġrat": 3186,
      "ĠPolly": 3187,
      "Ġstove": 3188,
      "corn": 3189,
      "ĠKim": 3190,
      "Ġavo": 3191,
      "Ġenvelope": 3192,
      "Ġwitch": 3193,
      "Ġthemselves": 3194,
      "ĠPaul": 3195,
      "Ġimpress": 3196,
      "Ġer": 3197,
      "Ġson": 3198,
      "aghet": 3199,
      "Ġcomb": 3200,
      "Ġbrightly": 3201,
      "Ġstops": 3202,
      "Ġthunder": 3203,
      "aghetti": 3204,
      "Ġhay": 3205,
      "Ġbees": 3206,
      "Ġstamp": 3207,
      "iew": 3208,
      "Ġlaw": 3209,
      "Ġraced": 3210,
      "Ġdreaming": 3211,
      "Ġscreen": 3212,
      "Ġcareless": 3213,
      "Ġsniff": 3214,
      "Ġoriginal": 3215,
      "Ġwashed": 3216,
      "ĠLola": 3217,
      "Ġspaghetti": 3218,
      "ĠYour": 3219,
      "Ġchanged": 3220,
      "Ġview": 3221,
      "ĠNext": 3222,
      "Ġwiped": 3223,
      "uth": 3224,
      "ĠAndy": 3225,
      "Ġending": 3226,
      "Ġstickers": 3227,
      "Ġhelm": 3228,
      "Ġrushed": 3229,
      "Ġdelicate": 3230,
      "Ġwarned": 3231,
      "Ġbeetle": 3232,
      "Ġflex": 3233,
      "Ġmis": 3234,
      "ĠJoey": 3235,
      "gest": 3236,
      "ience": 3237,
      "isk": 3238,
      "Ġthose": 3239,
      "Ġyog": 3240,
      "Ġcarp": 3241,
      "berries": 3242,
      "Ġleaving": 3243,
      "Ġsteal": 3244,
      "Ġpersist": 3245,
      "Ġcompassion": 3246,
      "Ġclumsy": 3247,
      "Ġtor": 3248,
      "Ġbiggest": 3249,
      "!\".": 3250,
      "Ġtravel": 3251,
      "Ġdead": 3252,
      "oomy": 3253,
      "Ġpopcorn": 3254,
      "Ġdough": 3255,
      "Ġbean": 3256,
      "Ġfinding": 3257,
      "Ġenc": 3258,
      "Ġpumpkin": 3259,
      "Ġing": 3260,
      "ision": 3261,
      "Ġsne": 3262,
      "ĠRed": 3263,
      "Ġtomato": 3264,
      "Ġdiscover": 3265,
      "Ġwire": 3266,
      "Ġlibrary": 3267,
      "uring": 3268,
      "robe": 3269,
      "Ġgrand": 3270,
      "Ġsnee": 3271,
      "Ġdeliver": 3272,
      "Ġcomplet": 3273,
      "redient": 3274,
      "Ġgraceful": 3275,
      "Ġingredient": 3276,
      "Ġmeal": 3277,
      "Ġsorts": 3278,
      "Ġunk": 3279,
      "Ġtelling": 3280,
      "Ġcereal": 3281,
      "Ġknock": 3282,
      "Ġuncle": 3283,
      "Ġimagined": 3284,
      "Ġearly": 3285,
      "Ġpeeked": 3286,
      "âĢ": 3287,
      "Ġtask": 3288,
      "rell": 3289,
      "âĤ¬âĢ": 3290,
      "Ġtrap": 3291,
      "Ġhairy": 3292,
      "Ġmissing": 3293,
      "Ġcounting": 3294,
      "Ġingredients": 3295,
      "Ġpup": 3296,
      "Ġadvice": 3297,
      "Ġjacket": 3298,
      "Ġmel": 3299,
      "Ġshiver": 3300,
      "Ġzip": 3301,
      "Ġhumble": 3302,
      "cu": 3303,
      "Ġforth": 3304,
      "Ġstranger": 3305,
      "Ġsquare": 3306,
      "Ġdoesn": 3307,
      "Ġguard": 3308,
      "Ġpale": 3309,
      "Ġdestro": 3310,
      "There": 3311,
      "ĠToby": 3312,
      "Ġflexible": 3313,
      "Ġhipp": 3314,
      "ilty": 3315,
      "Ġplayful": 3316,
      "Ġsudden": 3317,
      "Ġdriving": 3318,
      "Ġguilty": 3319,
      "Ġpige": 3320,
      "Ġaunt": 3321,
      "ĠTweetie": 3322,
      "Ġquestion": 3323,
      "Ġthinking": 3324,
      "Ġwhispered": 3325,
      "Ġimpressive": 3326,
      "Ġcards": 3327,
      "Ġnicely": 3328,
      "Ġjolly": 3329,
      "Ġcreate": 3330,
      "Ġopens": 3331,
      "Ġcollar": 3332,
      "Ġcarrying": 3333,
      "Ġslides": 3334,
      "Ġspeed": 3335,
      "nown": 3336,
      "Ġcur": 3337,
      "Ġallowed": 3338,
      "cod": 3339,
      "Ġtwirled": 3340,
      "Ġhandle": 3341,
      "ĠRo": 3342,
      "Ġprint": 3343,
      "Ġsparkled": 3344,
      "Ġhunter": 3345,
      "illa": 3346,
      "Ġbrace": 3347,
      "Ġsticker": 3348,
      "Ġpopular": 3349,
      "Ġumb": 3350,
      "ement": 3351,
      "Ġrub": 3352,
      "host": 3353,
      "Ġumbrell": 3354,
      "fa": 3355,
      "ud": 3356,
      "Ġtap": 3357,
      "Ġtied": 3358,
      "Ġsink": 3359,
      "Ġanx": 3360,
      "Ġenv": 3361,
      "Ġrubb": 3362,
      "ations": 3363,
      "Ġbase": 3364,
      "Ġdisg": 3365,
      "Ġrubbed": 3366,
      "comfort": 3367,
      "bled": 3368,
      "Ġfriendship": 3369,
      "Ġcarpet": 3370,
      "tter": 3371,
      "Ġuncomfort": 3372,
      "Ġcooking": 3373,
      "Ġcharming": 3374,
      "Ġpersistent": 3375,
      "Ġdisgust": 3376,
      "Ġuncomfortable": 3377,
      "Ġgum": 3378,
      "Ġgira": 3379,
      "Ġshocked": 3380,
      "Ġholds": 3381,
      "awn": 3382,
      "Ġwing": 3383,
      "ream": 3384,
      "Ġghost": 3385,
      "Ġrefused": 3386,
      "ellig": 3387,
      "Ġperm": 3388,
      "Ġmetal": 3389,
      "Ġanxious": 3390,
      "Ġintellig": 3391,
      "Ġbutterflies": 3392,
      "Ġdolphin": 3393,
      "Ġdust": 3394,
      "Ġscatter": 3395,
      "Ġsett": 3396,
      "Ġgasped": 3397,
      "Ġcrocod": 3398,
      "Ġunknown": 3399,
      "Ġpatter": 3400,
      "arian": 3401,
      "Ġscoot": 3402,
      "Ġeng": 3403,
      "Ġcomput": 3404,
      "Ġpatch": 3405,
      "Ġpants": 3406,
      "loo": 3407,
      "aroo": 3408,
      "Ġneat": 3409,
      "ugged": 3410,
      "angaroo": 3411,
      "Ġspinning": 3412,
      "Ġnature": 3413,
      "Ġshel": 3414,
      "Ġkangaroo": 3415,
      "Ġchasing": 3416,
      "They": 3417,
      "Ġcelebrate": 3418,
      "Ġpattern": 3419,
      "Ġled": 3420,
      "Ġmoder": 3421,
      "Ġpasta": 3422,
      "Ġwheels": 3423,
      "Ġnames": 3424,
      "Ġtruth": 3425,
      "Ġordinary": 3426,
      "Ġhammer": 3427,
      "ÅĵLetÃ¢": 3428,
      "Ġhippo": 3429,
      "Ġmask": 3430,
      "Ġsurf": 3431,
      "ĠSnow": 3432,
      "Ġtorn": 3433,
      "Ġencou": 3434,
      "oe": 3435,
      "Ġresist": 3436,
      "Ġcoco": 3437,
      "ĠPe": 3438,
      "Ġimpat": 3439,
      "Ġcocoa": 3440,
      "Ġgoose": 3441,
      "Ġstat": 3442,
      "ÅĵIt": 3443,
      "Ġphot": 3444,
      "Ow": 3445,
      "ĠHere": 3446,
      "ĠPat": 3447,
      "Ġacorn": 3448,
      "Re": 3449,
      "Ġperform": 3450,
      "eer": 3451,
      "Ġbent": 3452,
      "Ġpand": 3453,
      "Ġotter": 3454,
      "Ġzipp": 3455,
      "Ġgrowing": 3456,
      "Ġimpatient": 3457,
      "Ġmath": 3458,
      "iches": 3459,
      "Ġskip": 3460,
      "Ġsnuggled": 3461,
      "Ġcrazy": 3462,
      "Ġsleeping": 3463,
      "ffee": 3464,
      "Ġprize": 3465,
      "Ġharmless": 3466,
      "Ġmodern": 3467,
      "ray": 3468,
      "Ġoat": 3469,
      "orant": 3470,
      "Ġshine": 3471,
      "Ġrece": 3472,
      "Ġscale": 3473,
      "ÅĵWhat": 3474,
      "Ġfireman": 3475,
      "Ġcrane": 3476,
      "Ġrestaur": 3477,
      "ĠGrace": 3478,
      "Ġmagnet": 3479,
      "Ġrestaurant": 3480,
      "He": 3481,
      "Ġbeauty": 3482,
      "Ġtrash": 3483,
      "Ġwindows": 3484,
      "Ġsplit": 3485,
      "Ġattract": 3486,
      "Ġpotato": 3487,
      "ĠMaria": 3488,
      "Ġdestroy": 3489,
      "Ġreind": 3490,
      "Ġhanded": 3491,
      "Ġunpack": 3492,
      "Ġshoe": 3493,
      "Ġplaced": 3494,
      "Ġintelligent": 3495,
      "ĠLook": 3496,
      "ĠMillie": 3497,
      "Ġsuper": 3498,
      "Ġspoke": 3499,
      "Ġcricket": 3500,
      "ĠSm": 3501,
      "llip": 3502,
      "Ġcompassionate": 3503,
      "Ġdisgusting": 3504,
      "llipop": 3505,
      "See": 3506,
      "cut": 3507,
      "Ġsofa": 3508,
      "Ġumbrella": 3509,
      "Ġtem": 3510,
      "Ġahead": 3511,
      "ĠTr": 3512,
      "Ġload": 3513,
      "Ġlollipop": 3514,
      "Ġstarts": 3515,
      "noon": 3516,
      "Ġafternoon": 3517,
      "Ġdrawer": 3518,
      "Ġwheat": 3519,
      "Ġdistant": 3520,
      "Ġsandwiches": 3521,
      "Ġcandle": 3522,
      "ĠBrownie": 3523,
      "Go": 3524,
      "Ġwaff": 3525,
      "Ġyawn": 3526,
      "Ġignorant": 3527,
      "ince": 3528,
      "Ġchance": 3529,
      "ips": 3530,
      "aches": 3531,
      "Ġtriang": 3532,
      "Ġbracelet": 3533,
      "Ġreindeer": 3534,
      "ikes": 3535,
      "Ġdug": 3536,
      "Ġhedge": 3537,
      "Ġrules": 3538,
      "Ġcountry": 3539,
      "Ġspring": 3540,
      "ophone": 3541,
      "Ġpigeon": 3542,
      "aby": 3543,
      "Ġhook": 3544,
      "Ġshield": 3545,
      "Ġreco": 3546,
      "Ġflour": 3547,
      "Ġtrop": 3548,
      "Ġclock": 3549,
      "Ġbin": 3550,
      "Ġpurse": 3551,
      "Ġshut": 3552,
      "Ġcoffee": 3553,
      "ĠcouldnÃ¢": 3554,
      "Ġsupport": 3555,
      "Ġrestless": 3556,
      "Ġhung": 3557,
      "Ġcupboard": 3558,
      "Ġtire": 3559,
      "Ġharsh": 3560,
      "Ġcord": 3561,
      "Ġol": 3562,
      "Ġjug": 3563,
      "Ġorder": 3564,
      "Ġgifted": 3565,
      "Ġmailbox": 3566,
      "Ġtrophy": 3567,
      "Ġsym": 3568,
      "Ġmay": 3569,
      "ict": 3570,
      "Ġjumps": 3571,
      "erable": 3572,
      "Ġnote": 3573,
      "Ġsadly": 3574,
      "Ġcats": 3575,
      "lcano": 3576,
      "Ġshrimp": 3577,
      "Ġsilver": 3578,
      "Ġmiserable": 3579,
      "af": 3580,
      "Ġsend": 3581,
      "Ġshadow": 3582,
      "ices": 3583,
      "ĠWill": 3584,
      "Ġmush": 3585,
      "Ġpretending": 3586,
      "cycle": 3587,
      "Ġfilm": 3588,
      "Ġcrocodile": 3589,
      "gu": 3590,
      "Ġax": 3591,
      "Ġitself": 3592,
      "Ġleop": 3593,
      "aser": 3594,
      "gging": 3595,
      "ĠSophie": 3596,
      "Ġengine": 3597,
      "Yay": 3598,
      "ibb": 3599,
      "Ġcamp": 3600,
      "bol": 3601,
      "Ġfurther": 3602,
      "Ġcourage": 3603,
      "Ġpracticed": 3604,
      "Ġhurry": 3605,
      "Ġmelon": 3606,
      "Ġmuff": 3607,
      "Ġanywhere": 3608,
      "Ġimpro": 3609,
      "Ġobject": 3610,
      "Ġcomputer": 3611,
      "Ġsymbol": 3612,
      "gn": 3613,
      "Ġbri": 3614,
      "Ġfu": 3615,
      "Ġmill": 3616,
      "Ġvine": 3617,
      "uct": 3618,
      "Ġtrick": 3619,
      "Ġcreatures": 3620,
      "Ġgoal": 3621,
      "Ġcompl": 3622,
      "ÅĵYes": 3623,
      "Ġtowers": 3624,
      "Ġjeep": 3625,
      "Ġenth": 3626,
      "aled": 3627,
      "Ġrose": 3628,
      "Ġpainter": 3629,
      "Ġrepe": 3630,
      "Ġrice": 3631,
      "Ġstack": 3632,
      "Ġcooler": 3633,
      "Ġreading": 3634,
      "ĠBefore": 3635,
      "Ġenvious": 3636,
      "Ġpony": 3637,
      "Ġstation": 3638,
      "ĠBunny": 3639,
      "Ġparade": 3640,
      "ĠBuddy": 3641,
      "Ġwishes": 3642,
      "az": 3643,
      "und": 3644,
      "Ġneedle": 3645,
      "Ġcryst": 3646,
      "Ġforgave": 3647,
      "Ġcartoon": 3648,
      "iron": 3649,
      "stri": 3650,
      "Ġkay": 3651,
      "ĠAre": 3652,
      "ÅĵThat": 3653,
      "Ġtreasures": 3654,
      "Ġstretched": 3655,
      "Ġaxe": 3656,
      "Ġenthus": 3657,
      "Ġreward": 3658,
      "Ġnowhere": 3659,
      "Ġhelmet": 3660,
      "Ġattractive": 3661,
      "ric": 3662,
      "Ġjet": 3663,
      "Ġhelpless": 3664,
      "Ġlaser": 3665,
      "Ġolder": 3666,
      "ĠGive": 3667,
      "Ġbrighter": 3668,
      "Ġsecond": 3669,
      "Ġtroubled": 3670,
      "Ġletters": 3671,
      "Ġsweater": 3672,
      "Ġoy": 3673,
      "ĠWhere": 3674,
      "Ġscold": 3675,
      "Ġmessage": 3676,
      "Ġpastry": 3677,
      "Ġfootball": 3678,
      "cream": 3679,
      "Ġten": 3680,
      "Ġcushion": 3681,
      "Ġbadly": 3682,
      "Ġtrack": 3683,
      "ĠRu": 3684,
      "Ġpackage": 3685,
      "Ġvalue": 3686,
      "Ġcompetitive": 3687,
      "Ġscooter": 3688,
      "Ġpanda": 3689,
      "ĠUn": 3690,
      "Ġpilot": 3691,
      "Ġrecogn": 3692,
      "Ġmushroom": 3693,
      "Ġtheater": 3694,
      "Ġpor": 3695,
      "Ġsock": 3696,
      "Ġalert": 3697,
      "Ġpressed": 3698,
      "Ġgloomy": 3699,
      "Ġtricks": 3700,
      "Ġvisited": 3701,
      "Ġgiggle": 3702,
      "Ġsalt": 3703,
      "ebra": 3704,
      "Ġfearful": 3705,
      "Ġmicr": 3706,
      "Ġhall": 3707,
      "htub": 3708,
      "Ġspell": 3709,
      "Ġanyway": 3710,
      "Ġbandage": 3711,
      "Ġhuman": 3712,
      "orable": 3713,
      "Ġbeep": 3714,
      "Ġswitch": 3715,
      "Ġtear": 3716,
      "Ġshouts": 3717,
      "Ġdeaf": 3718,
      "Ġadmire": 3719,
      "Ġbathtub": 3720,
      "Ġeraser": 3721,
      "kelet": 3722,
      "Ġvolcano": 3723,
      "Ġzebra": 3724,
      "Ġpengu": 3725,
      "Ġbarrel": 3726,
      "Ġcows": 3727,
      "Ġmicrophone": 3728,
      "ef": 3729,
      "orilla": 3730,
      "Ġener": 3731,
      "ĠRos": 3732,
      "Ġthread": 3733,
      "Ġswinging": 3734,
      "Ġroared": 3735,
      "Ġraven": 3736,
      "Ġbounced": 3737,
      "hino": 3738,
      "Ġsoldier": 3739,
      "Ġavoc": 3740,
      "Ġleopard": 3741,
      "stairs": 3742,
      "Ġstarting": 3743,
      "ĠAnnie": 3744,
      "Ġtray": 3745,
      "Ġstatue": 3746,
      "ĠSmith": 3747,
      "Ġsize": 3748,
      "Ġhive": 3749,
      "opus": 3750,
      "Ġholes": 3751,
      "Ġstrugg": 3752,
      "ctopus": 3753,
      "Ġobser": 3754,
      "Ġnuts": 3755,
      "Ġmodest": 3756,
      "iskers": 3757,
      "ci": 3758,
      "ne": 3759,
      "year": 3760,
      "Ġsent": 3761,
      "Ġpeach": 3762,
      "ĠEverything": 3763,
      "Ġadorable": 3764,
      "Ġsquash": 3765,
      "ebook": 3766,
      "Ġsteps": 3767,
      "Ġriding": 3768,
      "keleton": 3769,
      "Ġoctopus": 3770,
      "ĠSh": 3771,
      "ckey": 3772,
      "Ġnotebook": 3773,
      "Ġhockey": 3774,
      "Ġrespectful": 3775,
      "ses": 3776,
      "Ġcurt": 3777,
      "ĠBill": 3778,
      "Ġlip": 3779,
      "Ġshaking": 3780,
      "Ġbackpack": 3781,
      "Ġchain": 3782,
      "ĠWhiskers": 3783,
      "Ġcurtain": 3784,
      "Ġants": 3785,
      "Ġfive": 3786,
      "Ġmop": 3787,
      "Ġgorilla": 3788,
      "Ġquar": 3789,
      "Ġbehave": 3790,
      "Ġhaircut": 3791,
      "Ġwallet": 3792,
      "Ġshopkeeper": 3793,
      "ĠKate": 3794,
      "ceros": 3795,
      "Ġfilthy": 3796,
      "strich": 3797,
      "hinoceros": 3798,
      "Ġeither": 3799,
      "Ġur": 3800,
      "ceed": 3801,
      "Ġboots": 3802,
      "Ġpulls": 3803,
      "Ġtripped": 3804,
      "Ġpapers": 3805,
      "Ġstirred": 3806,
      "Give": 3807,
      "Ġpad": 3808,
      "ĠJerry": 3809,
      "Ġnobody": 3810,
      "Ġsunset": 3811,
      "Ġexplain": 3812,
      "Ġchecked": 3813,
      "Ġsandbox": 3814,
      "If": 3815,
      "ccol": 3816,
      "arnt": 3817,
      "Ġlearnt": 3818,
      "Ġsort": 3819,
      "Ġavail": 3820,
      "Ġdecorate": 3821,
      "ccoli": 3822,
      "erc": 3823,
      "Ġmug": 3824,
      "Ġpun": 3825,
      "Ġgolf": 3826,
      "Ġmeas": 3827,
      "Ġmotorcycle": 3828,
      "Ġpushing": 3829,
      "Ġrescue": 3830,
      "Ġcrystal": 3831,
      "Ġrhinoceros": 3832,
      "ĠJames": 3833,
      "Ġsomewhere": 3834,
      "nna": 3835,
      "Ġvest": 3836,
      "Ġpebble": 3837,
      "Ġart": 3838,
      "Ġlightning": 3839,
      "Ġsailor": 3840,
      "Ġcooked": 3841,
      "Ġpowder": 3842,
      "iest": 3843,
      "Ġstared": 3844,
      "Ġshort": 3845,
      "Ġclapping": 3846,
      "ief": 3847,
      "Ġrolling": 3848,
      "Ġgiraffe": 3849,
      "ĠSnowy": 3850,
      "Ġporch": 3851,
      "Ġskeleton": 3852,
      "Ġdess": 3853,
      "Ġvi": 3854,
      "Ġjokes": 3855,
      "Ġexper": 3856,
      "Ġbet": 3857,
      "render": 3858,
      "Ġincl": 3859,
      "Ġunlock": 3860,
      "Ġavailable": 3861,
      "reci": 3862,
      "Ġcomet": 3863,
      "sely": 3864,
      "Ġtrains": 3865,
      "Ġdishes": 3866,
      "Ġpoint": 3867,
      "Ġorganize": 3868,
      "Ġsucceed": 3869,
      "Ġkayak": 3870,
      "par": 3871,
      "Ġhappier": 3872,
      "seum": 3873,
      "Ġexerc": 3874,
      "Ġleash": 3875,
      "ucked": 3876,
      "Ġquite": 3877,
      "enry": 3878,
      "ooped": 3879,
      "Ġstom": 3880,
      "Ġhadn": 3881,
      "Ġsepar": 3882,
      "Ġlaund": 3883,
      "astic": 3884,
      "Ġlistening": 3885,
      "Ġbarking": 3886,
      "Ġpaws": 3887,
      "Ġfrowned": 3888,
      "hood": 3889,
      "ube": 3890,
      "Ġtur": 3891,
      "Ġtoil": 3892,
      "elery": 3893,
      "Ġmuseum": 3894,
      "Ġcolours": 3895,
      "Ġclimbing": 3896,
      "Ġappreci": 3897,
      "Ġcomplete": 3898,
      "Ġtriangle": 3899,
      "Ġcase": 3900,
      "Ġweather": 3901,
      "Ġseal": 3902,
      "ummer": 3903,
      "Ġpeek": 3904,
      "Ġunh": 3905,
      "Ġzipper": 3906,
      "Ġdessert": 3907,
      "Ġlaundry": 3908,
      "night": 3909,
      "ĠJess": 3910,
      "Ġcane": 3911,
      "Ġbroccoli": 3912,
      "inking": 3913,
      "ĠHenry": 3914,
      "Ġreef": 3915,
      "Ġslipp": 3916,
      "ubby": 3917,
      "Ġiron": 3918,
      "Ġputting": 3919,
      "Ġclosely": 3920,
      "Ġmonkeys": 3921,
      "ĠCharl": 3922,
      "Ġsurrender": 3923,
      "Ġpushes": 3924,
      "ĠRosie": 3925,
      "cast": 3926,
      "Ġpipe": 3927,
      "Ġyach": 3928,
      "Ġspir": 3929,
      "Ġbrus": 3930,
      "Ġbreat": 3931,
      "Ġlions": 3932,
      "Ġblowing": 3933,
      "come": 3934,
      "io": 3935,
      "Ġsle": 3936,
      "Ġped": 3937,
      "urb": 3938,
      "Ġmarched": 3939,
      "Ġdisturb": 3940,
      "Ġspeak": 3941,
      "Ġturkey": 3942,
      "Ġtoilet": 3943,
      "Bye": 3944,
      "aked": 3945,
      "ges": 3946,
      "ron": 3947,
      "Ġbicy": 3948,
      "Ġfinds": 3949,
      "Ġskill": 3950,
      "Ġdrawings": 3951,
      "Ġbarks": 3952,
      "Ġlively": 3953,
      "Ġstuffed": 3954,
      "Anna": 3955,
      "heart": 3956,
      "Ġnail": 3957,
      "ĠBear": 3958,
      "Ġrever": 3959,
      "Ġsandcast": 3960,
      "Ġnapkin": 3961,
      "Ġended": 3962,
      "Ġdancer": 3963,
      "Ġpolish": 3964,
      "Ġcostume": 3965,
      "Ġyacht": 3966,
      "Ġostrich": 3967,
      "anic": 3968,
      "Ġink": 3969,
      "Ġfort": 3970,
      "Ġsoftly": 3971,
      "Ġmild": 3972,
      "iling": 3973,
      "Ġribb": 3974,
      "chanic": 3975,
      "ected": 3976,
      "Ġraining": 3977,
      "olin": 3978,
      "gs": 3979,
      "vator": 3980,
      "Ġtube": 3981,
      "Ġlid": 3982,
      "Ġoil": 3983,
      "ĠAb": 3984,
      "Ġclub": 3985,
      "Ġchubby": 3986,
      "Ġuniver": 3987,
      "Ġappl": 3988,
      "Ġthanks": 3989,
      "Ġinf": 3990,
      "ecause": 3991,
      "Ġmechanic": 3992,
      "play": 3993,
      "Ġcrow": 3994,
      "ĠKat": 3995,
      "Ġpiano": 3996,
      "Ġelevator": 3997,
      "Ġbasketball": 3998,
      "aulif": 3999,
      "ĠLilly": 4000,
      "Ġbubble": 4001,
      "Ġhoping": 4002,
      "Ġbelt": 4003,
      "Ġmixer": 4004,
      "Ġstrip": 4005,
      "Ġunhappy": 4006,
      "Ġcaulif": 4007,
      "ison": 4008,
      "Ġglove": 4009,
      "Ġairport": 4010,
      "Ġspirit": 4011,
      "Ġwife": 4012,
      "Ġbikes": 4013,
      "Ġhut": 4014,
      "ites": 4015,
      "Ġinsist": 4016,
      "Ġpress": 4017,
      "Ġjudge": 4018,
      "Ġcups": 4019,
      "Ġwelcomed": 4020,
      "Ġpair": 4021,
      "Ġframe": 4022,
      "Ġmagaz": 4023,
      "Ġgrabs": 4024,
      "Ġdrops": 4025,
      "Ġleaned": 4026,
      "edy": 4027,
      "Ġmama": 4028,
      "Ġthief": 4029,
      "stic": 4030,
      "Ġgrapes": 4031,
      "âĤ¬âĢľ": 4032,
      "Ġquarrel": 4033,
      "mand": 4034,
      "Ġevening": 4035,
      "Ġprov": 4036,
      "ĠSte": 4037,
      "Ġrepair": 4038,
      "Ġbaseball": 4039,
      "Ġcelery": 4040,
      "Ġfactor": 4041,
      "Ġbuzz": 4042,
      "iastic": 4043,
      "ĠInst": 4044,
      "Ġscrew": 4045,
      "Ġimagine": 4046,
      "Ġradish": 4047,
      "Ġapologized": 4048,
      "Ġsneak": 4049,
      "Ġenthusiastic": 4050,
      "Ġoyster": 4051,
      "Ġtub": 4052,
      "Ġluck": 4053,
      "Ġmen": 4054,
      "Ġrag": 4055,
      "ĠBun": 4056,
      "Ġdisplay": 4057,
      "Ġgiven": 4058,
      "Ġcounter": 4059,
      "Ġbreaks": 4060,
      "Ġcherries": 4061,
      "Ġshelter": 4062,
      "ĠCharlie": 4063,
      "Ġmule": 4064,
      "ĠdidnÃ¢": 4065,
      "Ġmarry": 4066,
      "Ġveil": 4067,
      "Ġzoomed": 4068,
      "Ġfactory": 4069,
      "aff": 4070,
      "azz": 4071,
      "zzy": 4072,
      "Ġfisher": 4073,
      "Ġbicycle": 4074,
      "Ġlend": 4075,
      "ĠBaby": 4076,
      "Ġshade": 4077,
      "Ġfeelings": 4078,
      "Ġenergy": 4079,
      "Ġpoem": 4080,
      "Ġbul": 4081,
      "Ġhopes": 4082,
      "Ġfrogs": 4083,
      "Ġcauliflower": 4084,
      "imney": 4085,
      "Ġrod": 4086,
      "Ġprun": 4087,
      "Ġchimney": 4088,
      "Ġbears": 4089,
      "Ġfurn": 4090,
      "iture": 4091,
      "Ġweep": 4092,
      "Ġpole": 4093,
      "ĠPap": 4094,
      "Ġstretch": 4095,
      "Ġfurniture": 4096,
      "Ġgym": 4097,
      "ĠSee": 4098,
      "ĠHarry": 4099,
      "Ġplayer": 4100,
      "Ġraft": 4101,
      "Ġmaze": 4102,
      "Ġpaid": 4103,
      "Ġbulb": 4104,
      "ense": 4105,
      "any": 4106,
      "Ġstaff": 4107,
      "chair": 4108,
      "Ġshakes": 4109,
      "icer": 4110,
      "aused": 4111,
      "ccer": 4112,
      "Ġdive": 4113,
      "Ġsoccer": 4114,
      "Ġlives": 4115,
      "Ġkitty": 4116,
      "rod": 4117,
      "Ġintrod": 4118,
      "Ġcheek": 4119,
      "Ġattention": 4120,
      "Ġneighbour": 4121,
      "Ġslippery": 4122,
      "Ġsheet": 4123,
      "Ġnews": 4124,
      "Ġtrail": 4125,
      "Ġsmells": 4126,
      "Ġfalling": 4127,
      "Ġperfectly": 4128,
      "Ġphoto": 4129,
      "Ġviolin": 4130,
      "gen": 4131,
      "Ġbur": 4132,
      "Ġpine": 4133,
      "Ġknot": 4134,
      "Ġchirp": 4135,
      "Ġquit": 4136,
      "Ġmarried": 4137,
      "Ġbananas": 4138,
      "Ġsummer": 4139,
      "Ġlang": 4140,
      "Ġpage": 4141,
      "Ġlie": 4142,
      "Ġfirework": 4143,
      "Ġsweetheart": 4144,
      "Ġcrib": 4145,
      "Ġlangu": 4146,
      "Ġlime": 4147,
      "ĠLee": 4148,
      "Ġonion": 4149,
      "Ġreve": 4150,
      "Ġarmchair": 4151,
      "Ġsprink": 4152,
      "Ġbelongs": 4153,
      "Ġcardboard": 4154,
      "Ġgolden": 4155,
      "Ġcabinet": 4156,
      "ait": 4157,
      "low": 4158,
      "men": 4159,
      "Ġsir": 4160,
      "aring": 4161,
      "ories": 4162,
      "Ġshouldn": 4163,
      "Timmy": 4164,
      "ĠTrue": 4165,
      "Dad": 4166,
      "Ġwool": 4167,
      "Ġgro": 4168,
      "ĠWould": 4169,
      "Ġtrave": 4170,
      "Ġsticky": 4171,
      "Ġpuddles": 4172,
      "sing": 4173,
      "TMm": 4174,
      "Ġfields": 4175,
      "Ġtuna": 4176,
      "Ġchickens": 4177,
      "bul": 4178,
      "Ġscolded": 4179,
      "ĠInstead": 4180,
      "ĠPapa": 4181,
      "inarian": 4182,
      "enny": 4183,
      "Ġswung": 4184,
      "Ġvide": 4185,
      "ÅĵYou": 4186,
      "eterinarian": 4187,
      "..": 4188,
      "Ġtherm": 4189,
      "Ġsoil": 4190,
      "ĠMag": 4191,
      "Ġstraight": 4192,
      "Ġburned": 4193,
      "ĠDanny": 4194,
      "Ġavocado": 4195,
      "Ġherb": 4196,
      "Ġrot": 4197,
      "hero": 4198,
      "ometer": 4199,
      "Ġflies": 4200,
      "Ġveterinarian": 4201,
      "Ġprevent": 4202,
      "izes": 4203,
      "reeze": 4204,
      "Ġdisag": 4205,
      "Ġpirates": 4206,
      "Ġfisherman": 4207,
      "ween": 4208,
      "Ġnovel": 4209,
      "aud": 4210,
      "Ġoffer": 4211,
      "Ġshovel": 4212,
      "Ġcreated": 4213,
      "Ġpetals": 4214,
      "Ġjourn": 4215,
      "Ġimagination": 4216,
      "Ġsuperhero": 4217,
      "ĠRuby": 4218,
      "Ġbetween": 4219,
      "Ġmeeting": 4220,
      "Ġclassroom": 4221,
      "Ġglowing": 4222,
      "hic": 4223,
      "ĠTony": 4224,
      "Ġplastic": 4225,
      "Ġtwink": 4226,
      "Ġopera": 4227,
      "Ġvehic": 4228,
      "Ġkingdom": 4229,
      "Ġmistakes": 4230,
      "Ġmemories": 4231,
      "Ġthermometer": 4232,
      "Ġble": 4233,
      "Ġcell": 4234,
      "Ġpal": 4235,
      "unately": 4236,
      "Ġseeing": 4237,
      "Ġshoulder": 4238,
      "anges": 4239,
      "Ġthrows": 4240,
      "Ġfishing": 4241,
      "lass": 4242,
      "Ġmeat": 4243,
      "Ġpassport": 4244,
      "Ġceiling": 4245,
      "Ġignored": 4246,
      "Ġjellyfish": 4247,
      "Ġslept": 4248,
      "ues": 4249,
      "Ġtax": 4250,
      "Ġforgotten": 4251,
      "Ġcelebrated": 4252,
      "Ġradio": 4253,
      "Ġskirt": 4254,
      "Ġdoors": 4255,
      "ngth": 4256,
      "Ġteleph": 4257,
      "Ġjournal": 4258,
      "Ġoak": 4259,
      "Ġmakeup": 4260,
      "Ġheads": 4261,
      "Ġpresents": 4262,
      "Ġaccepted": 4263,
      "Ġtelephone": 4264,
      "arm": 4265,
      "Ġstro": 4266,
      "ĠBet": 4267,
      "Ġallig": 4268,
      "Your": 4269,
      "Ġflame": 4270,
      "ĠCo": 4271,
      "ĠdonÃ¢": 4272,
      "Ġstrength": 4273,
      "Ġvend": 4274,
      "Ġthrowing": 4275,
      "Ġpinch": 4276,
      "Ġinfant": 4277,
      "gie": 4278,
      "Ġfle": 4279,
      "ents": 4280,
      "Ġvet": 4281,
      "Ġfile": 4282,
      "chie": 4283,
      "Ġloop": 4284,
      "Ġswamp": 4285,
      "Ġambul": 4286,
      "Ġpoints": 4287,
      "Ġapplaud": 4288,
      "Ġgrocer": 4289,
      "Ġtaxi": 4290,
      "drobe": 4291,
      "vision": 4292,
      "urch": 4293,
      "Ġalive": 4294,
      "Ġwriting": 4295,
      "Ġshouting": 4296,
      "Ġbaking": 4297,
      "Ġplanet": 4298,
      "Ġwardrobe": 4299,
      "Ġrubber": 4300,
      "te": 4301,
      "ĠTina": 4302,
      "Ġcree": 4303,
      "ĠMiss": 4304,
      "ores": 4305,
      "Ġseas": 4306,
      "Ġworth": 4307,
      "Ġsung": 4308,
      "Ġcube": 4309,
      "ĠRache": 4310,
      "Ġdiscu": 4311,
      "Ġsteam": 4312,
      "Ġwinter": 4313,
      "Ġlemonade": 4314,
      "Ġmagazine": 4315,
      "Ġpalace": 4316,
      "Ġcreek": 4317,
      "ĠRachel": 4318,
      "Because": 4319,
      "Ġwags": 4320,
      "Ġitch": 4321,
      "bbie": 4322,
      "Ġshower": 4323,
      "Ġdiary": 4324,
      "Ġsquirrels": 4325,
      "Ġattach": 4326,
      "ĠBuzz": 4327,
      "Ġfolder": 4328,
      "Ġhanging": 4329,
      "Ġtelevision": 4330,
      "Ġstrawberry": 4331,
      "ĠSteve": 4332,
      "Max": 4333,
      "bor": 4334,
      "ium": 4335,
      "Ġaut": 4336,
      "Ġstable": 4337,
      "Ġboot": 4338,
      "Ġquack": 4339,
      "Ġgreedy": 4340,
      "Ġfog": 4341,
      "ggy": 4342,
      "nam": 4343,
      "Ġinse": 4344,
      "ssible": 4345,
      "Ġflapped": 4346,
      "Ġparent": 4347,
      "Ġprepare": 4348,
      "Ġhelper": 4349,
      "Ġknob": 4350,
      "Ġchalk": 4351,
      "Ġfollows": 4352,
      "Ġsailing": 4353,
      "Ġsurround": 4354,
      "Ġmystery": 4355,
      "Ġmedal": 4356,
      "Ġsprayed": 4357,
      "ĠClara": 4358,
      "ito": 4359,
      "Ġpra": 4360,
      "ĠHelp": 4361,
      "icop": 4362,
      "Ġvac": 4363,
      "Ġornam": 4364,
      "Ġmoves": 4365,
      "Ġdisappear": 4366,
      "Ġserve": 4367,
      "Ġhelicop": 4368,
      "Ġargue": 4369,
      "Ġalligator": 4370,
      "Ġambulance": 4371,
      "Ġhelicopter": 4372,
      "sit": 4373,
      "tress": 4374,
      "ĠFirst": 4375,
      "Ġgrin": 4376,
      "Ġbelow": 4377,
      "Ġsigns": 4378,
      "Ġmattress": 4379,
      "Ġharbor": 4380,
      "ab": 4381,
      "Ġwaving": 4382,
      "una": 4383,
      "rosc": 4384,
      "Ġdressed": 4385,
      "Ġstud": 4386,
      "Ġfreez": 4387,
      "ĠHowever": 4388,
      "Ġeagerly": 4389,
      "lasses": 4390,
      "Ġsunglasses": 4391,
      "Ġknown": 4392,
      "ups": 4393,
      "Ġminute": 4394,
      "Ġmicrosc": 4395,
      "ÅĵItÃ¢": 4396,
      "Ġvendor": 4397,
      "lier": 4398,
      "Ġpopped": 4399,
      "Ġfiref": 4400,
      "ipping": 4401,
      "Ġcherry": 4402,
      "Ġmicroscope": 4403,
      "case": 4404,
      "Ġwine": 4405,
      "ising": 4406,
      "imi": 4407,
      "igail": 4408,
      "Ġweigh": 4409,
      "Ġrequ": 4410,
      "Ġrooms": 4411,
      "Ġgrill": 4412,
      "Ġletting": 4413,
      "Ġfallen": 4414,
      "Ġapart": 4415,
      "Ġfauc": 4416,
      "Ġpear": 4417,
      "Ġberry": 4418,
      "Ġrefre": 4419,
      "Ġcomplain": 4420,
      "Ġlanguage": 4421,
      "elcome": 4422,
      "ĠMimi": 4423,
      "Ġlawn": 4424,
      "estig": 4425,
      "Ġblackboard": 4426,
      "Ġinvestig": 4427,
      "Ġeasily": 4428,
      "ĠGod": 4429,
      "Ġwipe": 4430,
      "Did": 4431,
      "mm": 4432,
      "Ġbreeze": 4433,
      "ĠEach": 4434,
      "inky": 4435,
      "Ġheaded": 4436,
      "Ġquietly": 4437,
      "ĠAbigail": 4438,
      "Ġfaucet": 4439,
      "tain": 4440,
      "Ġsince": 4441,
      "Ġcared": 4442,
      "omob": 4443,
      "iday": 4444,
      "Ġthumb": 4445,
      "amb": 4446,
      "Ġcob": 4447,
      "Ġtaller": 4448,
      "Ġentered": 4449,
      "Ġcrossed": 4450,
      "Ġwhisper": 4451,
      "Ġhappens": 4452,
      "Ġleak": 4453,
      "quito": 4454,
      "Ġpoked": 4455,
      "Ġsque": 4456,
      "Ġchairs": 4457,
      "Ġearlier": 4458,
      "Ġkisses": 4459,
      "Ġrelaxed": 4460,
      "Ġreverse": 4461,
      "ĠMaggie": 4462,
      "Ġautomob": 4463,
      "Ġig": 4464,
      "Ġfought": 4465,
      "Ġpur": 4466,
      "ĠLuck": 4467,
      "Ġstad": 4468,
      "Ġsuff": 4469,
      "Ġmusician": 4470,
      "Ġregret": 4471,
      "Ġcrawling": 4472,
      "Ġimprove": 4473,
      "Ġexercise": 4474,
      "Ġigloo": 4475,
      "Ġstadium": 4476,
      "Ġwaste": 4477,
      "ĠIÃ¢": 4478,
      "Ġalarm": 4479,
      "Ġcaring": 4480,
      "Ġchurch": 4481,
      "asis": 4482,
      "Ġdelay": 4483,
      "Ġdresses": 4484,
      "Ġcrash": 4485,
      "Ġapron": 4486,
      "Ġsniffed": 4487,
      "Ġwaffle": 4488,
      "Ġvacation": 4489,
      "Ġrequest": 4490,
      "Ġwigg": 4491,
      "Ġlumber": 4492,
      "chor": 4493,
      "Ġcliff": 4494,
      "Ġfastest": 4495,
      "Ġbalan": 4496,
      "Ġolive": 4497,
      "Ġseparate": 4498,
      "ĠKatie": 4499,
      "Ġinvestigate": 4500,
      "liday": 4501,
      "web": 4502,
      "yer": 4503,
      "Ġsizes": 4504,
      "Ġpoke": 4505,
      "Ġholiday": 4506,
      "Ġairpl": 4507,
      "Ġinsect": 4508,
      "'.": 4509,
      "Ġoasis": 4510,
      "Ġsaus": 4511,
      "ĠMilly": 4512,
      "Ġclaw": 4513,
      "Ġvroom": 4514,
      "Ġsurprises": 4515,
      "Ġappro": 4516,
      "Ġsparkle": 4517,
      "Ġpuzzles": 4518,
      "Ġskills": 4519,
      "squito": 4520,
      "ĠTed": 4521,
      "Ġcable": 4522,
      "ero": 4523,
      "Ġmosquito": 4524,
      "orses": 4525,
      "Ġshrink": 4526,
      "Ġyogurt": 4527,
      "Ġaer": 4528,
      "Ġyield": 4529,
      "ĠMay": 4530,
      "Ġreaches": 4531,
      "ĠJul": 4532,
      "opl": 4533,
      "Ġlotion": 4534,
      "Ġamazement": 4535,
      "Ġdear": 4536,
      "Ġspots": 4537,
      "fortunately": 4538,
      "Ġbouncing": 4539,
      "Ġdestination": 4540,
      "Ġscattered": 4541,
      "Ġcobweb": 4542,
      "ĠLuckily": 4543,
      "Ġaeropl": 4544,
      "iately": 4545,
      "ler": 4546,
      "uch": 4547,
      "Ġtucked": 4548,
      "Ġhorses": 4549,
      "ety": 4550,
      "Ġisn": 4551,
      "ĠSpike": 4552,
      "mediately": 4553,
      "Ġincre": 4554,
      "Ġsupply": 4555,
      "Ġsplashing": 4556,
      "Ġlawyer": 4557,
      "Wait": 4558,
      "was": 4559,
      "Ġrake": 4560,
      "sters": 4561,
      "Ġoranges": 4562,
      "Ġfloat": 4563,
      "ĠWho": 4564,
      "Ġmint": 4565,
      "Ġsafety": 4566,
      "Ġtrusted": 4567,
      "Ġdishwas": 4568,
      "Ġdishwasher": 4569,
      "mend": 4570,
      "oral": 4571,
      "Ġunif": 4572,
      "Ġhearts": 4573,
      "Ġmailman": 4574,
      "Ġcollected": 4575,
      "Ġflutter": 4576,
      "Ġyawned": 4577,
      "Ġvehicle": 4578,
      "ives": 4579,
      "right": 4580,
      "Ġpit": 4581,
      "ommend": 4582,
      "ĠitÃ¢": 4583,
      "Ġanchor": 4584,
      "aces": 4585,
      "Ġblueberries": 4586,
      "Ġfloated": 4587,
      "Ġshrugged": 4588,
      "Ġshooting": 4589,
      "Ġsqueeze": 4590,
      "ĠFreddy": 4591,
      "Ġbother": 4592,
      "ĠSad": 4593,
      "Ġsaving": 4594,
      "Ġlaught": 4595,
      "Ġrabbits": 4596,
      "Ġcastles": 4597,
      "Ġrecommend": 4598,
      "Ġspending": 4599,
      "Ġmuffin": 4600,
      "Ġautomobile": 4601,
      "nger": 4602,
      "Ġtut": 4603,
      "Ġtug": 4604,
      "inked": 4605,
      "icing": 4606,
      "place": 4607,
      "Ġpoppy": 4608,
      "ction": 4609,
      "Ġdemand": 4610,
      "Ġchoice": 4611,
      "Ġexamine": 4612,
      "Ġachie": 4613,
      "omes": 4614,
      "Ġlicks": 4615,
      "raged": 4616,
      "Ġspade": 4617,
      "ops": 4618,
      "âĤ¬.": 4619,
      "Ġquiz": 4620,
      "Ġhurting": 4621,
      "Ġconf": 4622,
      "Ġsparkling": 4623,
      "Ġworms": 4624,
      "Ġcandles": 4625,
      "Ġexperience": 4626,
      "Ġribbon": 4627,
      "Ġkneel": 4628,
      "Ġstruc": 4629,
      "Ġbookcase": 4630,
      "Ġfollowing": 4631,
      "ĠKing": 4632,
      "Ġsqueezed": 4633,
      "Ġuniform": 4634,
      "Ġlaughter": 4635,
      "Ġstructure": 4636,
      "oh": 4637,
      "Ġagree": 4638,
      "Ġburied": 4639,
      "Ġeaten": 4640,
      "Ġraz": 4641,
      "Ġremove": 4642,
      "Ġbumped": 4643,
      "Ġpenguin": 4644,
      "Ġpraised": 4645,
      "Ġsigh": 4646,
      "Ġmention": 4647,
      "Ġplates": 4648,
      "Ġbury": 4649,
      "ĠPenny": 4650,
      "Ġbeans": 4651,
      "Ġinclud": 4652,
      "Ġvideo": 4653,
      "cakes": 4654,
      "Ġsings": 4655,
      "Ġtong": 4656,
      "Ġrise": 4657,
      "Ġplays": 4658,
      "Ġspear": 4659,
      "Ġsnap": 4660,
      "Ġchess": 4661,
      "Thanks": 4662,
      "Ġinstr": 4663,
      "Ġminer": 4664,
      "Ġfuel": 4665,
      "Ġflea": 4666,
      "nies": 4667,
      "Ġsimp": 4668,
      "ĠOr": 4669,
      "Ġscooped": 4670,
      "Ġblinked": 4671,
      "Ġhills": 4672,
      "Ġtornado": 4673,
      "Sam": 4674,
      "Yuck": 4675,
      "Ġwashing": 4676,
      "Ġequ": 4677,
      "Ġsnapped": 4678,
      "Ġunderstanding": 4679,
      "Ġignore": 4680,
      "Ġringing": 4681,
      "Ġcaptain": 4682,
      "ival": 4683,
      "Ġbattery": 4684,
      "Ġsettled": 4685,
      "Ġdestroyed": 4686,
      "Ġrazor": 4687,
      "Is": 4688,
      "Ġdried": 4689,
      "Ġmall": 4690,
      "ionary": 4691,
      "Ġkeeping": 4692,
      "Ġideas": 4693,
      "Ġgrowled": 4694,
      "Ġblankets": 4695,
      "Ġappreciate": 4696,
      "Ġtoes": 4697,
      "Ġpalm": 4698,
      "Ġadmir": 4699,
      "ictionary": 4700,
      "ib": 4701,
      "ple": 4702,
      "Ġfest": 4703,
      "Ġmanage": 4704,
      "Ġwatches": 4705,
      "Ġglo": 4706,
      "Ġfireplace": 4707,
      "Ġsits": 4708,
      "Ġenter": 4709,
      "Ġwandered": 4710,
      "Ġsandcastle": 4711,
      "Ġaeroplane": 4712,
      "ived": 4713,
      "ĠIs": 4714,
      "Ġmyself": 4715,
      "omeday": 4716,
      "Ġlabel": 4717,
      "Ġbleed": 4718,
      "Ġdictionary": 4719,
      "Ġport": 4720,
      "amber": 4721,
      "ĠJoy": 4722,
      "ĠEveryday": 4723,
      "Ġbravely": 4724,
      "Ġcoats": 4725,
      "Ġmelted": 4726,
      "nce": 4727,
      "Ġtide": 4728,
      "Ġyucky": 4729,
      "alley": 4730,
      "Ġjunk": 4731,
      "Ġsetting": 4732,
      "Ġjewelry": 4733,
      "Ġstrawberries": 4734,
      "Ġyoga": 4735,
      "Ġoats": 4736,
      "Ġfreezer": 4737,
      "And": 4738,
      "ring": 4739,
      "Ġtore": 4740,
      "ĠIts": 4741,
      "Ġscore": 4742,
      "Ġroot": 4743,
      "uggage": 4744,
      "ĠChl": 4745,
      "Ġsneeze": 4746,
      "Ġstomach": 4747,
      "Ġclaws": 4748,
      "Ġtutor": 4749,
      "Ġluggage": 4750,
      "Ġpages": 4751,
      "Ġpride": 4752,
      "Ġtrade": 4753,
      "Ġclimbs": 4754,
      "Ġgifts": 4755,
      "Ġsomeday": 4756,
      "bey": 4757,
      "Ġfloating": 4758,
      "Ġmoments": 4759,
      "Ġplanes": 4760,
      "Ġhits": 4761,
      "Ġvanished": 4762,
      "Ġscratch": 4763,
      "Ġairplane": 4764,
      "ĠChloe": 4765,
      "Sara": 4766,
      "Ġbeamed": 4767,
      "ĠMe": 4768,
      "Ġprop": 4769,
      "Ġappear": 4770,
      "umble": 4771,
      "antly": 4772,
      "Ġsub": 4773,
      "Ġbelieved": 4774,
      "Ġbeef": 4775,
      "Ġrepeat": 4776,
      "Ġstruggling": 4777,
      "rise": 4778,
      "Ġga": 4779,
      "ĠBeth": 4780,
      "Ġweap": 4781,
      "Ġblueberry": 4782,
      "Ġburning": 4783,
      "Ġtemple": 4784,
      "ah": 4785,
      "ls": 4786,
      "vet": 4787,
      "Ġdire": 4788,
      "Ġitem": 4789,
      "Ġchores": 4790,
      "Ġvalley": 4791,
      "Ġjogging": 4792,
      "emember": 4793,
      "Ġdrain": 4794,
      "Ġelephants": 4795,
      "Ġwhistling": 4796,
      "Ġweeks": 4797,
      "Ġtongue": 4798,
      "ishing": 4799,
      "Ġgear": 4800,
      "Ġnation": 4801,
      "ĠLiz": 4802,
      "Ġshot": 4803,
      "Ġsport": 4804,
      "Ġimmediately": 4805,
      "Ġcalls": 4806,
      "Ġremain": 4807,
      "ission": 4808,
      "Ġcuddled": 4809,
      "Ġpermission": 4810,
      "ĠUnfortunately": 4811,
      "ĠCoco": 4812,
      "Ġfestival": 4813,
      "ĠV": 4814,
      "Ġlily": 4815,
      "lend": 4816,
      "Ġhers": 4817,
      "Ġres": 4818,
      "Ġranch": 4819,
      "Ġchamber": 4820,
      "Ġpoison": 4821,
      "Ġsunrise": 4822,
      "Ġraise": 4823,
      "Ġcrunch": 4824,
      "Ġteaching": 4825,
      "Ġbathe": 4826,
      "house": 4827,
      "iers": 4828,
      "Ġhomes": 4829,
      "Ġpulling": 4830,
      "Ġsteak": 4831,
      "Ġpatiently": 4832,
      "Ġmarbles": 4833,
      "Ġbreathe": 4834,
      "Ġprovide": 4835,
      "Ġhesit": 4836,
      "ĠHave": 4837,
      "uture": 4838,
      "seek": 4839,
      "aped": 4840,
      "Ġcalend": 4841,
      "ĠRemy": 4842,
      "Ġpeanuts": 4843,
      "Ġcalendar": 4844,
      "'ve": 4845,
      "osed": 4846,
      "Ġfuture": 4847,
      "Ġpaused": 4848,
      "Ġstitch": 4849,
      "Ġjazz": 4850,
      "Ġspit": 4851,
      "ĠAnne": 4852,
      "ĠGood": 4853,
      "Ġwarmth": 4854,
      "Ġbuckle": 4855,
      "Ġpastel": 4856,
      "Ġcollecting": 4857,
      "Ġticket": 4858,
      "ĠPeople": 4859,
      "allow": 4860,
      "ipment": 4861,
      "Ġthrilled": 4862,
      "TMre": 4863,
      "Ġhotel": 4864,
      "Ġprayed": 4865,
      "Ġapproached": 4866,
      "Ġdaisy": 4867,
      "Ġgust": 4868,
      "Ġshed": 4869,
      "fume": 4870,
      "Ġalright": 4871,
      "Ġtease": 4872,
      "Ġwarning": 4873,
      "Ġencouraged": 4874,
      "Ġchirping": 4875,
      "Ġequipment": 4876,
      "ging": 4877,
      "Ġbegged": 4878,
      "Ġsocks": 4879,
      "Ġshamp": 4880,
      "Ġcoal": 4881,
      "Ġskull": 4882,
      "Ġskipping": 4883,
      "Ġperfume": 4884,
      "Ġanswers": 4885,
      "Ġmissile": 4886,
      "Ġpanic": 4887,
      "Ġearthqu": 4888,
      "Ġpunish": 4889,
      "Ġinsisted": 4890,
      "Ġshampoo": 4891,
      "Ġcakes": 4892,
      "Ġnone": 4893,
      "Ġlick": 4894,
      "Ġrestore": 4895,
      "osity": 4896,
      "Ġsoldiers": 4897,
      "Ġtwisted": 4898,
      "mother": 4899,
      "Ġmeowed": 4900,
      "Ġdoggy": 4901,
      "Ġhardly": 4902,
      "xture": 4903,
      "Ġguy": 4904,
      "Ġrespons": 4905,
      "Ġsolved": 4906,
      "Ġjewels": 4907,
      "Ġreceived": 4908,
      "Ġobserve": 4909,
      "Qu": 4910,
      "Welcome": 4911,
      "shing": 4912,
      "Ġlect": 4913,
      "Ġevent": 4914,
      "Ġsore": 4915,
      "Ġlic": 4916,
      "Ġsew": 4917,
      "Ġunite": 4918,
      "Ġreceive": 4919,
      "Ġbricks": 4920,
      "Ġrevealed": 4921,
      "Ġlecture": 4922,
      "fy": 4923,
      "Ġpist": 4924,
      "anna": 4925,
      "ĠNut": 4926,
      "Ġbites": 4927,
      "Ġdeeper": 4928,
      "These": 4929,
      "Ġordered": 4930,
      "Ġpistol": 4931,
      "Ouch": 4932,
      "act": 4933,
      "Ġbang": 4934,
      "Ġdigg": 4935,
      "Ġsty": 4936,
      "Ġfasc": 4937,
      "Ġcopper": 4938,
      "Ġcomfy": 4939,
      "Ġparts": 4940,
      "Ġmatches": 4941,
      "Ġpatterns": 4942,
      "Ġrecognized": 4943,
      "Ġrefreshed": 4944,
      "Ġemer": 4945,
      "Ġremained": 4946,
      "Ġworks": 4947,
      "Ġinvite": 4948,
      "Ġdigging": 4949,
      "Ġsip": 4950,
      "ities": 4951,
      "Ġrow": 4952,
      "Ġupstairs": 4953,
      "Ġjail": 4954,
      "Ġchir": 4955,
      "ases": 4956,
      "Ġblood": 4957,
      "ĠCar": 4958,
      "Ġdrinking": 4959,
      "Ġwarn": 4960,
      "Ġsupposed": 4961,
      "Ġhate": 4962,
      "Ġracing": 4963,
      "ĠNot": 4964,
      "Ġmustache": 4965,
      "Ġdiscovery": 4966,
      "ÅĵThatÃ¢": 4967,
      "Ġdiscuss": 4968,
      "Ġgrinned": 4969,
      "Ġchirped": 4970,
      "cc": 4971,
      "sity": 4972,
      "ĠMat": 4973,
      "Ġwherever": 4974,
      "Ġrush": 4975,
      "Ġours": 4976,
      "Ġbookshe": 4977,
      "Ġcircus": 4978,
      "Ġurge": 4979,
      "Ġmeasured": 4980,
      "Ġsimple": 4981,
      "Ġfascin": 4982,
      "\",": 4983,
      "Ġgirls": 4984,
      "Ġspill": 4985,
      "Ġdecision": 4986,
      "Ġsunlight": 4987,
      "Ġmass": 4988,
      "Ġplanted": 4989,
      "Ġgrape": 4990,
      "Ġlicense": 4991,
      "bers": 4992,
      "lvet": 4993,
      "riger": 4994,
      "Ġeff": 4995,
      "Ġbeg": 4996,
      "ĠOl": 4997,
      "Ġjogged": 4998,
      "ĠPoppy": 4999,
      "Ġreplace": 5000,
      "Ġcrashed": 5001,
      "Ġvelvet": 5002,
      "Ġpigs": 5003,
      "ĠBubbles": 5004,
      "Ġapologize": 5005,
      "Ġrefriger": 5006,
      "Ġbuzzing": 5007,
      "Ġsuffer": 5008,
      "Ġearthquake": 5009,
      "Ġrefrigerator": 5010,
      "Ġbak": 5011,
      "Ġobey": 5012,
      "allen": 5013,
      "ĠFo": 5014,
      "Ġglowed": 5015,
      "Ġwrites": 5016,
      "spap": 5017,
      "Ġactually": 5018,
      "ĠChr": 5019,
      "ĠChirp": 5020,
      "Ġclearing": 5021,
      "ĠNutty": 5022,
      "Mmm": 5023,
      "eed": 5024,
      "oved": 5025,
      "Ġheat": 5026,
      "!\",": 5027,
      "Ġnewspap": 5028,
      "Ġraised": 5029,
      "ÅĵNo": 5030,
      "Ġdifference": 5031,
      "Ġbringing": 5032,
      "Ġeasier": 5033,
      "Ġselling": 5034,
      "ĠFrank": 5035,
      "Ġuniversity": 5036,
      "Ġweapon": 5037,
      "tory": 5038,
      "Ġbill": 5039,
      "Ġhistory": 5040,
      "Ġchallen": 5041,
      "Ġrested": 5042,
      "Ġmarching": 5043,
      "Ġbathrobe": 5044,
      "Ġinvit": 5045,
      "Ġawe": 5046,
      "Ġsettle": 5047,
      "Ġcartoons": 5048,
      "Ġbookshelf": 5049,
      "rs": 5050,
      "Ġtoe": 5051,
      "oming": 5052,
      "Ġgain": 5053,
      "htray": 5054,
      "Ġashtray": 5055,
      "Ġworse": 5056,
      "Ġlaid": 5057,
      "ĠSuzy": 5058,
      "Ġlets": 5059,
      "Ġturning": 5060,
      "Ġcontinue": 5061,
      "Ġsparkles": 5062,
      "Ġlands": 5063,
      "Ġdecorations": 5064,
      "Ġprepared": 5065,
      "kins": 5066,
      "Ġbes": 5067,
      "Ġfed": 5068,
      "enty": 5069,
      "Ġwhip": 5070,
      "Ġscur": 5071,
      "ĠFro": 5072,
      "Ġflood": 5073,
      "Ġstrang": 5074,
      "Ġremem": 5075,
      "Ġcompany": 5076,
      "Ġspoons": 5077,
      "Ġfirefight": 5078,
      "Ġdare": 5079,
      "ari": 5080,
      "ĠLucky": 5081,
      "Ġslip": 5082,
      "Ġwatered": 5083,
      "ĠCat": 5084,
      "TMll": 5085,
      "Ġhated": 5086,
      "Ġagreement": 5087,
      "ĠFloppy": 5088,
      "Ġbrick": 5089,
      "Ġmenu": 5090,
      "Ġremembers": 5091,
      "ĠLuna": 5092,
      "ĠAd": 5093,
      "ĠJam": 5094,
      "Ġtremb": 5095,
      "bbled": 5096,
      "Ġproblems": 5097,
      "ude": 5098,
      "llie": 5099,
      "Ġsoared": 5100,
      "ĠBy": 5101,
      "ĠMad": 5102,
      "Ġpossible": 5103,
      "izard": 5104,
      "Ġfamil": 5105,
      "Ġchewed": 5106,
      "Ġadmiring": 5107,
      "Ġcrunchy": 5108,
      "Ġmitten": 5109,
      "Ġwanting": 5110,
      "Ġattached": 5111,
      "Ġexamined": 5112,
      "Ġtomatoes": 5113,
      "Ġdisagre": 5114,
      "Would": 5115,
      "fied": 5116,
      "walk": 5117,
      "ĠMoral": 5118,
      "Ġweren": 5119,
      "indy": 5120,
      "ĠGre": 5121,
      "Ġmonsters": 5122,
      "looking": 5123,
      "Ġsprinkles": 5124,
      "Ġbeside": 5125,
      "Ġtip": 5126,
      "Ġslice": 5127,
      "ĠRob": 5128,
      "Ġfixing": 5129,
      "Ġpracticing": 5130,
      "Ġvillag": 5131,
      "ÅĵIÃ¢": 5132,
      "Ġneighborhood": 5133,
      "Ġpupil": 5134,
      "Ġcurled": 5135,
      "ĠChirpy": 5136,
      "Ġstrangers": 5137,
      "ha": 5138,
      "ĠHoppy": 5139,
      "Ġrust": 5140,
      "ĠAn": 5141,
      "Ġflap": 5142,
      "Ġoper": 5143,
      "Ġgrey": 5144,
      "Ġbrain": 5145,
      "Ġcub": 5146,
      "Ġtrapped": 5147,
      "Ġtracks": 5148,
      "Ġmouths": 5149,
      "Really": 5150,
      "Ġgrocery": 5151,
      "Ġsurrounded": 5152,
      "Ġeffort": 5153,
      "Ġnewspaper": 5154,
      "cles": 5155,
      "hest": 5156,
      "Ġcal": 5157,
      "anny": 5158,
      "Ġonwards": 5159,
      "Ġweight": 5160,
      "Ġpeel": 5161,
      "Ġwond": 5162,
      "Ġcontain": 5163,
      "Ġcutting": 5164,
      "Ġgloves": 5165,
      "Ġwre": 5166,
      "Ġbun": 5167,
      "ĠTilly": 5168,
      "Ġhanger": 5169,
      "Ġflav": 5170,
      "ĠJosh": 5171,
      "Ġfreeze": 5172,
      "ĠBetsy": 5173,
      "nie": 5174,
      "xy": 5175,
      "nday": 5176,
      "Ġwaist": 5177,
      "Ġduring": 5178,
      "ora": 5179,
      "Ġspaces": 5180,
      "ĠSunday": 5181,
      "Ġperched": 5182,
      "Ġcomple": 5183,
      "Ġsidewalk": 5184,
      "Ġcollection": 5185,
      "Ġsafari": 5186,
      "Ġseats": 5187,
      "Ġguns": 5188,
      "Ġpinched": 5189,
      "Ġescaped": 5190,
      "Ġrides": 5191,
      "Ġmodel": 5192,
      "Ġsubway": 5193,
      "Ġvillagers": 5194,
      "Ġrhy": 5195,
      "Ġdownstairs": 5196,
      "Ġrained": 5197,
      "Ġtalent": 5198,
      "Ġbowed": 5199,
      "Ġbuildings": 5200,
      "Ġpaints": 5201,
      "Ġreminder": 5202,
      "Ġwisdom": 5203,
      "Ġargued": 5204,
      "Ġcostumes": 5205,
      "Ġsausage": 5206,
      "aded": 5207,
      "ĠAm": 5208,
      "Ġfashion": 5209,
      "Ġwaits": 5210,
      "ĠJenna": 5211,
      "Ġdrinks": 5212,
      "Ġwhistled": 5213,
      "Ġintroduc": 5214,
      "uing": 5215,
      "Ġwizard": 5216,
      "Ġmister": 5217,
      "Ġgotten": 5218,
      "Ġzipped": 5219,
      "Ġfiremen": 5220,
      "Ġvisiting": 5221,
      "Ġaccidents": 5222,
      "Ġsliding": 5223,
      "Ġtwigs": 5224,
      "Ġmemory": 5225,
      "Ġpermit": 5226,
      "Sp": 5227,
      "zag": 5228,
      "Ġx": 5229,
      "Ġsix": 5230,
      "Ġwid": 5231,
      "Ġpitch": 5232,
      "Ġmuddy": 5233,
      "Ġpeered": 5234,
      "thm": 5235,
      "Ġzero": 5236,
      "Ġsteel": 5237,
      "Ġpetted": 5238,
      "Ġpancakes": 5239,
      "Ġprice": 5240,
      "Ġdinosaurs": 5241,
      "neath": 5242,
      "Ġmineral": 5243,
      "Ġbleeding": 5244,
      "Sh": 5245,
      "Ġbones": 5246,
      "ĠTiny": 5247,
      "Ġweighed": 5248,
      "Ġpears": 5249,
      "Ġanytime": 5250,
      "Ġeagle": 5251,
      "Ġmountains": 5252,
      "Ġmeasuring": 5253,
      "ĠSadly": 5254,
      "Ġbunnies": 5255,
      "Ok": 5256,
      "Yum": 5257,
      "ided": 5258,
      "atch": 5259,
      "Ġsting": 5260,
      "isten": 5261,
      "Ġpearl": 5262,
      "ĠCindy": 5263,
      "ÅĵThank": 5264,
      "Ġneighbors": 5265,
      "Ġfolded": 5266,
      "Ġhurric": 5267,
      "ĠAdam": 5268,
      "Ha": 5269,
      "Ġlamb": 5270,
      "Ġnavy": 5271,
      "Ġarea": 5272,
      "Ġbrid": 5273,
      "Ġchef": 5274,
      "Ġvoices": 5275,
      "Ġshopping": 5276,
      "avi": 5277,
      "ĠSomeone": 5278,
      "ĠZoe": 5279,
      "Ġscratched": 5280,
      "Ġgrandmother": 5281,
      "Ġencourage": 5282,
      "Ġpadd": 5283,
      "Ġbrushed": 5284,
      "Ġprune": 5285,
      "ĠSure": 5286,
      "Ġbrings": 5287,
      "Ġmeow": 5288,
      "asp": 5289,
      "Ġdecides": 5290,
      "Ġbeds": 5291,
      "Ġswims": 5292,
      "Ġpets": 5293,
      "Ġbottles": 5294,
      "Ġpillows": 5295,
      "Ġguessed": 5296,
      "Ġpedal": 5297,
      "Ġmassage": 5298,
      "Ġwonders": 5299,
      "!'": 5300,
      "Ġlung": 5301,
      "Ġripped": 5302,
      "ĠOut": 5303,
      "riage": 5304,
      "Ġleather": 5305,
      "Ġsnowball": 5306,
      "Ġsecrets": 5307,
      "Ġcomforted": 5308,
      "Ġinvitation": 5309,
      "Ġhurricane": 5310,
      "Not": 5311,
      "cage": 5312,
      "mare": 5313,
      "son": 5314,
      "ĠThese": 5315,
      "ides": 5316,
      "ĠSunny": 5317,
      "Ġhappiest": 5318,
      "terday": 5319,
      "ica": 5320,
      "Ġbirdcage": 5321,
      "Ġrang": 5322,
      "Ġoverjoy": 5323,
      "ĠLetÃ¢": 5324,
      "Ġcatching": 5325,
      "Ġcuddle": 5326,
      "ĠJessie": 5327,
      "Ġornament": 5328,
      "Ġfascinated": 5329,
      "Ġdisagreed": 5330,
      "Ġoverjoyed": 5331,
      "Will": 5332,
      "cious": 5333,
      "len": 5334,
      "Ġscoop": 5335,
      "Ġstruck": 5336,
      "Ġunderground": 5337,
      "ĠPr": 5338,
      "Ġstole": 5339,
      "Ġmarkers": 5340,
      "Ġzooming": 5341,
      "Ready": 5342,
      "Ġwaffles": 5343,
      "Ġinstruct": 5344,
      "Ġstyle": 5345,
      "Ġoperation": 5346,
      "xygen": 5347,
      "Ġrhythm": 5348,
      "She": 5349,
      "do": 5350,
      "igzag": 5351,
      "ĠOllie": 5352,
      "ĠJan": 5353,
      "ĠFor": 5354,
      "Ġpupp": 5355,
      "Ġpretti": 5356,
      "Ġsnail": 5357,
      "Ġkindly": 5358,
      "Ġbrand": 5359,
      "Ġnightmare": 5360,
      "Ġactiv": 5361,
      "Ġsneezed": 5362,
      "Ġrecognize": 5363,
      "ĠJamie": 5364,
      "Ġbridges": 5365,
      "Ġprettiest": 5366,
      "Or": 5367,
      "ays": 5368,
      "Ġrele": 5369,
      "Ġexact": 5370,
      "Ġeveryday": 5371,
      "Ġblouse": 5372,
      "Ġvowed": 5373,
      "Ġteasp": 5374,
      "Ġrail": 5375,
      "Ġcones": 5376,
      "ĠRa": 5377,
      "Ġtastes": 5378,
      "Ġdrift": 5379,
      "Ġsatis": 5380,
      "Ġwooden": 5381,
      "Ġdoctors": 5382,
      "laire": 5383,
      "Ġhurried": 5384,
      "Ġsucceeded": 5385,
      "Ġdisturbed": 5386,
      "Ġtravell": 5387,
      "Ġteaspoon": 5388,
      "mble": 5389,
      "oed": 5390,
      "Ġtugged": 5391,
      "Ġbare": 5392,
      "ĠBig": 5393,
      "Ġcontro": 5394,
      "ĠSomething": 5395,
      "Ġpiles": 5396,
      "ĠSharing": 5397,
      "Ġstudied": 5398,
      "Ġbillboard": 5399,
      "gers": 5400,
      "Ġoxygen": 5401,
      "etch": 5402,
      "Ġstruggled": 5403,
      "ĠClaire": 5404,
      "Ġimage": 5405,
      "Ġbye": 5406,
      "aster": 5407,
      "ÅĵLook": 5408,
      "Ġkeeps": 5409,
      "Ġcrept": 5410,
      "Ġtune": 5411,
      "Ġacorns": 5412,
      "Ġmuffins": 5413,
      "Ġlips": 5414,
      "Ġitems": 5415,
      "uke": 5416,
      "Ġlines": 5417,
      "Ġcaut": 5418,
      "imy": 5419,
      "Ġtremble": 5420,
      "anta": 5421,
      "Ġunderneath": 5422,
      "ÅĵDon": 5423,
      "Ġladyb": 5424,
      "Ġperfor": 5425,
      "Ġplanned": 5426,
      "Ġserved": 5427,
      "Ġbloomed": 5428,
      "Ġincluded": 5429,
      "Ġspaceship": 5430,
      "ĠLizzy": 5431,
      "Ġloving": 5432,
      "ĠDav": 5433,
      "Ġofficer": 5434,
      "Ġsuitc": 5435,
      "Ġparked": 5436,
      "Ġscreams": 5437,
      "Ġtickets": 5438,
      "Ġsoaring": 5439,
      "ĠJulie": 5440,
      "Ġmentioned": 5441,
      "Ġresponsible": 5442,
      "Ġbegin": 5443,
      "ĠDavid": 5444,
      "ding": 5445,
      "ĠYes": 5446,
      "Ġwagging": 5447,
      "ĠSlow": 5448,
      "Ġbeat": 5449,
      "Ġbeard": 5450,
      "ĠItÃ¢": 5451,
      "Ġsorting": 5452,
      "ÅĵWe": 5453,
      "Ġkeeper": 5454,
      "Ġcreation": 5455,
      "ffic": 5456,
      "Ġtraffic": 5457,
      "Ġlandsc": 5458,
      "ĠUncle": 5459,
      "Ġneighbourhood": 5460,
      "Ġcompleted": 5461,
      "To": 5462,
      "Ġtonight": 5463,
      "ĠSanta": 5464,
      "ĠHop": 5465,
      "Ġeight": 5466,
      "Ġeats": 5467,
      "Ġhonk": 5468,
      "Ġsights": 5469,
      "Ġshivered": 5470,
      "Ġpotatoes": 5471,
      "Ġolives": 5472,
      "Ġdied": 5473,
      "Ġgained": 5474,
      "Ġbend": 5475,
      "ĠJon": 5476,
      "Ġcuriosity": 5477,
      "Ġemergen": 5478,
      "Ġscurried": 5479,
      "Ġintroduced": 5480,
      "Ġinstructions": 5481,
      "Remember": 5482,
      "Ġvent": 5483,
      "Ġprecious": 5484,
      "izing": 5485,
      "ĠNina": 5486,
      "Ġpaintings": 5487,
      "Ġdecorated": 5488,
      "Ġuniverse": 5489,
      ".'": 5490,
      "Ġnicer": 5491,
      "Ġago": 5492,
      "Ġwhatever": 5493,
      "Ġrealize": 5494,
      "Ġsteep": 5495,
      "Ġaccom": 5496,
      "Ġmachines": 5497,
      "Ġmovies": 5498,
      "Ġcompetition": 5499,
      "Ġshadows": 5500,
      "Ġprunes": 5501,
      "Ġexactly": 5502,
      "Ġsi": 5503,
      "Ġann": 5504,
      "ĠJe": 5505,
      "Ġrocked": 5506,
      "ĠGr": 5507,
      "Ġune": 5508,
      "Ġdraws": 5509,
      "Ġguest": 5510,
      "Ġbene": 5511,
      "Ġprotected": 5512,
      "Ġsolut": 5513,
      "uctantly": 5514,
      "Ġlandscape": 5515,
      "ux": 5516,
      "zen": 5517,
      "Ġsadness": 5518,
      "Ġslapped": 5519,
      "ĠPip": 5520,
      "Ġowned": 5521,
      "Ġbeha": 5522,
      "Ġprinter": 5523,
      "Ġfrosting": 5524,
      "Ġpowers": 5525,
      "Ġintroduce": 5526,
      "Ġproperly": 5527,
      "Ġwreck": 5528,
      "ĠSlowly": 5529,
      "Ġbeneath": 5530,
      "uxu": 5531,
      "bies": 5532,
      "Ġbank": 5533,
      "Ġinch": 5534,
      "bert": 5535,
      "Ġshoulders": 5536,
      "Ġyelling": 5537,
      "Ġcontest": 5538,
      "Ġpouring": 5539,
      "Ġlemons": 5540,
      "Ġlibrarian": 5541,
      "Ġstealing": 5542,
      "âĤ¬âĢĿ": 5543,
      "Ġrubbing": 5544,
      "Ġpenguins": 5545,
      "Ġreleased": 5546,
      "Ye": 5547,
      "ales": 5548,
      "Ġluxu": 5549,
      "Ġweb": 5550,
      "Ġknelt": 5551,
      "Ġruin": 5552,
      "Ġbabies": 5553,
      "Ġsisters": 5554,
      "iggy": 5555,
      "Ġmixing": 5556,
      "Ġkeys": 5557,
      "Ġgathering": 5558,
      "Ġtwirling": 5559,
      "Ġsilence": 5560,
      "Ġurged": 5561,
      "fit": 5562,
      "hins": 5563,
      "ĠBir": 5564,
      "ashed": 5565,
      "ĠNick": 5566,
      "ĠDolly": 5567,
      "Ġstruggle": 5568,
      "Ġpurred": 5569,
      "Ġcontrol": 5570,
      "omas": 5571,
      "Ġtheirs": 5572,
      "Ġsorted": 5573,
      "ĠAfterwards": 5574,
      "Ġforgi": 5575,
      "Ġfrozen": 5576,
      "Ġreluctantly": 5577,
      "Ġunlocked": 5578,
      "Ġcrackers": 5579,
      "Ġfireworks": 5580,
      "Ġbarely": 5581,
      "Ġaccompl": 5582,
      "rr": 5583,
      "Ġsides": 5584,
      "Ġmice": 5585,
      "ishes": 5586,
      "Ġsoak": 5587,
      "Ġshock": 5588,
      "Ġoutdo": 5589,
      "Ġexit": 5590,
      "Ġbudge": 5591,
      "Ġdragged": 5592,
      "Ġcrumb": 5593,
      "Ġmuscles": 5594,
      "Ġspiders": 5595,
      "Ġpunished": 5596,
      "Ġstripes": 5597,
      "Ġchallenge": 5598,
      "iar": 5599,
      "Ġ1": 5600,
      "int": 5601,
      "Ġdam": 5602,
      "Ġloose": 5603,
      "Ġoutfit": 5604,
      "Ġglitter": 5605,
      "ÅĵCan": 5606,
      "ĠNan": 5607,
      "ĠThomas": 5608,
      "Ġpastels": 5609,
      "Ġbouncy": 5610,
      "Ġdolphins": 5611,
      "Ġrepeated": 5612,
      "Ġachieve": 5613,
      "Ex": 5614,
      "One": 5615,
      "zing": 5616,
      "ppers": 5617,
      "Ġranger": 5618,
      "agull": 5619,
      "Ġopin": 5620,
      "thank": 5621,
      "though": 5622,
      "Ġwaiter": 5623,
      "Ġbreaking": 5624,
      "Ġprinted": 5625,
      "Ġwinning": 5626,
      "Ġpockets": 5627,
      "Ġexpect": 5628,
      "Ġexpected": 5629,
      "Ġroads": 5630,
      "Ġroaring": 5631,
      "Ġfigured": 5632,
      "Ġemergency": 5633,
      "rance": 5634,
      "ĠQu": 5635,
      "Ġthro": 5636,
      "Ġlied": 5637,
      "Ġchases": 5638,
      "ĠDid": 5639,
      "Ġbecoming": 5640,
      "bbing": 5641,
      "Ġzigzag": 5642,
      "ĠEmmy": 5643,
      "Ġbuckets": 5644,
      "Ġmission": 5645,
      "ĠStop": 5646,
      "Ġpoliceman": 5647,
      "Ġbrushes": 5648,
      "uesday": 5649,
      "Ġthroat": 5650,
      "ien": 5651,
      "edding": 5652,
      "ĠTuesday": 5653,
      "ĠLike": 5654,
      "Ġseagull": 5655,
      "Ġclick": 5656,
      "Ġpeaches": 5657,
      "Ġslimy": 5658,
      "ĠletÃ¢": 5659,
      "Ġwondering": 5660,
      "Ġplanets": 5661,
      "Ġentire": 5662,
      "Ġstirring": 5663,
      "Ġscreaming": 5664,
      "Ġclaps": 5665,
      "Ġdiscovering": 5666,
      "Ġcamping": 5667,
      "Ġcrowd": 5668,
      "Happy": 5669,
      "Ġwest": 5670,
      "Ġtour": 5671,
      "Ġpies": 5672,
      "ĠHanna": 5673,
      "Ġsnugg": 5674,
      "Ġseesaw": 5675,
      "Ġsitu": 5676,
      "Ġstaring": 5677,
      "Ġstretching": 5678,
      "Ġsneaked": 5679,
      "Ġapplauded": 5680,
      "Ġincrease": 5681,
      "Ġguys": 5682,
      "ÅĵDonÃ¢": 5683,
      "Joh": 5684,
      "Somet": 5685,
      "pected": 5686,
      "xpected": 5687,
      "ĠFu": 5688,
      "Ġhomework": 5689,
      "Ġhowever": 5690,
      "ĠPipp": 5691,
      "Ġacted": 5692,
      "Ġspraying": 5693,
      "Ġcountryside": 5694,
      "Ġbalancing": 5695,
      "Spot": 5696,
      "Ġsiren": 5697,
      "Ġunexpected": 5698,
      "die": 5699,
      "zie": 5700,
      "Ġboo": 5701,
      "Ġfart": 5702,
      "itely": 5703,
      "Ġda": 5704,
      "lee": 5705,
      "Ġworries": 5706,
      "Ġgoodnight": 5707,
      "Ġtouching": 5708,
      "ĠKay": 5709,
      "Ġhighest": 5710,
      "ĠAlways": 5711,
      "Ġgiggling": 5712,
      "Goodbye": 5713,
      "Daddy": 5714,
      "Ġconfident": 5715,
      "ĠMatt": 5716,
      "Ġtrembling": 5717,
      "Ġcautious": 5718,
      "Ġsuitcase": 5719,
      "Ġoutdoors": 5720,
      "Mia": 5721,
      "bric": 5722,
      "jam": 5723,
      "ern": 5724,
      "Ġheel": 5725,
      "Ġmittens": 5726,
      "ĠBoth": 5727,
      "Ġallow": 5728,
      "Ġfabric": 5729,
      "Ġteasing": 5730,
      "Ġbroom": 5731,
      "Ġourselves": 5732,
      "ults": 5733,
      "Ġmarriage": 5734,
      "Ġpassing": 5735,
      "Ġscru": 5736,
      "Ġleader": 5737,
      "Ġdemanded": 5738,
      "Ġsighs": 5739,
      "Ġladybug": 5740,
      "jamas": 5741,
      "hell": 5742,
      "Ġcape": 5743,
      "Ġplenty": 5744,
      "Ġscra": 5745,
      "Ġmatching": 5746,
      "Ġrainbows": 5747,
      "Ġentrance": 5748,
      "Ġsupplies": 5749,
      "Ġshivering": 5750,
      "ĠJessica": 5751,
      "Ġnails": 5752,
      "Ġdirection": 5753,
      "Ġluxury": 5754,
      "Mummy": 5755,
      "vers": 5756,
      "ĠLind": 5757,
      "Ġripe": 5758,
      "Ġstare": 5759,
      "ĠMick": 5760,
      "ĠMira": 5761,
      "Ġrelease": 5762,
      "Ġflat": 5763,
      "Ġvict": 5764,
      "Ġgrant": 5765,
      "Ġsweets": 5766,
      "Ġbaked": 5767,
      "ulu": 5768,
      "Ġreaching": 5769,
      "Ġwinner": 5770,
      "Ġcompletely": 5771,
      "ĠRover": 5772,
      "Ġsatisfied": 5773,
      "Ġsolution": 5774,
      "ĠLinda": 5775,
      "dies": 5776,
      "Ġmater": 5777,
      "ĠLarry": 5778,
      "ĠLuke": 5779,
      "aky": 5780,
      "Ġgreet": 5781,
      "Ġtexture": 5782,
      "Ġrestored": 5783,
      "Ġcuts": 5784,
      "...": 5785,
      "Ġtwinkling": 5786,
      "ĠHannah": 5787,
      "Ġmateri": 5788,
      "Ah": 5789,
      "nes": 5790,
      "Ġti": 5791,
      "Ġwedding": 5792,
      "Ġheav": 5793,
      "ason": 5794,
      "Ġpoking": 5795,
      "aced": 5796,
      "Ġsweeties": 5797,
      "Ġproject": 5798,
      "Ġcurly": 5799,
      "Ġsurface": 5800,
      "Ġcurtains": 5801,
      "Ġseason": 5802,
      "Ġbalanced": 5803,
      "Ġresult": 5804,
      "ĠRabbit": 5805,
      "ody": 5806,
      "vin": 5807,
      "Ġbunch": 5808,
      "Ġfara": 5809,
      "Ġge": 5810,
      "ĠHappy": 5811,
      "ĠLulu": 5812,
      "Ġeast": 5813,
      "ĠBird": 5814,
      "Ġsnakes": 5815,
      "ĠCarl": 5816,
      "ÅĵHello": 5817,
      "ĠPinky": 5818,
      "Ġwritten": 5819,
      "Ġsinger": 5820,
      "Ġrolls": 5821,
      "Ġpajamas": 5822,
      "Ġpastries": 5823,
      "Ġinterest": 5824,
      "Ġrescued": 5825,
      "cuse": 5826,
      "Ġloaded": 5827,
      "lowers": 5828,
      "Ġquacked": 5829,
      "Ġfaraway": 5830,
      "Mama": 5831,
      "uly": 5832,
      "Ġwound": 5833,
      "ednes": 5834,
      "ĠWednes": 5835,
      "Ġcomm": 5836,
      "Ġforehead": 5837,
      "Ġunited": 5838,
      "acob": 5839,
      "Ġpolishing": 5840,
      "Ġmarker": 5841,
      "Ġprayer": 5842,
      "Ġhorns": 5843,
      "Ġmelting": 5844,
      "Ġrecorded": 5845,
      "Ġstudying": 5846,
      "Ġtasks": 5847,
      "Ġpaddle": 5848,
      "Ġinclude": 5849,
      "Ġburrow": 5850,
      "Ġdisagree": 5851,
      "Ġkneeled": 5852,
      "ĠWednesday": 5853,
      "ĠTess": 5854,
      "ĠMon": 5855,
      "Ġboom": 5856,
      "Ġflames": 5857,
      "ĠJacky": 5858,
      "Ġstrings": 5859,
      "ÅĵThis": 5860,
      "ĠKe": 5861,
      "Ġcreating": 5862,
      "Ġmatched": 5863,
      "Ġdeser": 5864,
      "Ġtrips": 5865,
      "Ġcrabs": 5866,
      "Ġmagnets": 5867,
      "Ġshelves": 5868,
      "Excuse": 5869,
      "pe": 5870,
      "ĠÌ": 5871,
      "Ġstair": 5872,
      "ĠMil": 5873,
      "ĠAbbie": 5874,
      "ĠJacob": 5875,
      "icorn": 5876,
      "Ġcatches": 5877,
      "Ġslap": 5878,
      "Ġbravery": 5879,
      "ĠPam": 5880,
      "Ġunicorn": 5881,
      "Ġtowels": 5882,
      "Ġkicking": 5883,
      "Ġcheering": 5884,
      "Ġvanish": 5885,
      "Ġdusty": 5886,
      "Ġphotos": 5887,
      "ĠAmel": 5888,
      "When": 5889,
      "Ġwink": 5890,
      "Ġdent": 5891,
      "ena": 5892,
      "igi": 5893,
      "une": 5894,
      "Ġstartled": 5895,
      "Ġchat": 5896,
      "ĠSuzie": 5897,
      "Ġblink": 5898,
      "Ġpebbles": 5899,
      "ledge": 5900,
      "Ġbedtime": 5901,
      "Ġreplaced": 5902,
      "Ġsingle": 5903,
      "Ġdragons": 5904,
      "Ġmotion": 5905,
      "Ġpencils": 5906,
      "ĠSophia": 5907,
      "Ġbumps": 5908,
      "Ġstamps": 5909,
      "Ġweeping": 5910,
      "Ġitchy": 5911,
      "Ġornaments": 5912,
      "Ġgazed": 5913,
      "Ġventured": 5914,
      "ĠÌĥ": 5915,
      "go": 5916,
      "hee": 5917,
      "Ġsway": 5918,
      "Ġfetch": 5919,
      "irm": 5920,
      "ĠBye": 5921,
      "Ġhugging": 5922,
      "Ġknowledge": 5923,
      "Ġtruly": 5924,
      "ĠGigi": 5925,
      "Ġworker": 5926,
      "Ġcracked": 5927,
      "Ġbuying": 5928,
      "Ġhealed": 5929,
      "Ġmisses": 5930,
      "Ġarguing": 5931,
      "ĠBetty": 5932,
      "Ġregretted": 5933,
      "cers": 5934,
      "ĠAbby": 5935,
      "aren": 5936,
      "ĠChe": 5937,
      "Ġremoved": 5938,
      "ÅĵMommy": 5939,
      "Ġwrist": 5940,
      "Ġfoods": 5941,
      "Ġtractor": 5942,
      "Ġrainco": 5943,
      "Ġsticking": 5944,
      "Ġusually": 5945,
      "Ġprints": 5946,
      "Ġdrives": 5947,
      "ĠwasnÃ¢": 5948,
      "Ġpolished": 5949,
      "angled": 5950,
      "Ġpatience": 5951,
      "Ġrelief": 5952,
      "Ġrockets": 5953,
      "Ġtickle": 5954,
      "Ġcovers": 5955,
      "Ġsandcastles": 5956,
      "ĠChrist": 5957,
      "Ġactivities": 5958,
      "John": 5959,
      "Sometimes": 5960,
      "Ġfarther": 5961,
      "Ġraincoat": 5962,
      "boo": 5963,
      "cope": 5964,
      "Ġrumble": 5965,
      "Ġstern": 5966,
      "Ġshined": 5967,
      "Ġcans": 5968,
      "Ġroots": 5969,
      "Ġexplorers": 5970,
      "Ġstolen": 5971,
      "Ġusual": 5972,
      "Ġopening": 5973,
      "Ġgrowling": 5974,
      "hog": 5975,
      "Ġchewing": 5976,
      "Ġflags": 5977,
      "Ġpeeking": 5978,
      "Ġstrike": 5979,
      "Ġobserved": 5980,
      "ĠKayla": 5981,
      "ĠAmelia": 5982,
      "Gra": 5983,
      "lings": 5984,
      "you": 5985,
      "Ġcent": 5986,
      "Ġpout": 5987,
      "ords": 5988,
      "ĠMa": 5989,
      "ĠMany": 5990,
      "ĠAunt": 5991,
      "ĠEx": 5992,
      "usted": 5993,
      "ÅĵOh": 5994,
      "Ġsmiley": 5995,
      "Ġuses": 5996,
      "Ġyells": 5997,
      "Ġpartic": 5998,
      "Ġthreat": 5999,
      "Ġcoloured": 6000,
      "Ġglasses": 6001,
      "Ġtraveled": 6002,
      "Yeah": 6003,
      "Ġbumpy": 6004,
      "Ġrisk": 6005,
      "Ġyouth": 6006,
      "ĠJay": 6007,
      "Ġspike": 6008,
      "opes": 6009,
      "Ġfault": 6010,
      "ĠEls": 6011,
      "Ġchips": 6012,
      "Ġsnat": 6013,
      "Ġrocking": 6014,
      "Ġruler": 6015,
      "Ġgrowl": 6016,
      "Ġcelebration": 6017,
      "Ġherbs": 6018,
      "abel": 6019,
      "Ġfirefighters": 6020,
      "ĠJeff": 6021,
      "mas": 6022,
      "rious": 6023,
      "indr": 6024,
      "ĠElly": 6025,
      "ĠFriend": 6026,
      "Ġchuck": 6027,
      "asm": 6028,
      "Ġraindr": 6029,
      "ÅĵWhy": 6030,
      "ĠPl": 6031,
      "Ġstaying": 6032,
      "oys": 6033,
      "Ġowners": 6034,
      "ĠKaren": 6035,
      "Ġteaches": 6036,
      "Ġdesert": 6037,
      "Ġvalued": 6038,
      "Ġtickled": 6039,
      "Ġsilent": 6040,
      "Ġfreed": 6041,
      "Ġseems": 6042,
      "Ġsquares": 6043,
      "Ġrubs": 6044,
      "Ġhedgehog": 6045,
      "Ġimproved": 6046,
      "Ġseashell": 6047,
      "Ġsquealed": 6048,
      "Ġcrumbs": 6049,
      "Ġvictory": 6050,
      "Al": 6051,
      "jo": 6052,
      "Ġdipped": 6053,
      "ĠOwl": 6054,
      "Ġsobbed": 6055,
      "ĠDays": 6056,
      "Ġlistens": 6057,
      "Ġrule": 6058,
      "Ġyesterday": 6059,
      "Ġcreamy": 6060,
      "Ġpatted": 6061,
      "Ġtemper": 6062,
      "Ġfuzzy": 6063,
      "Ġparticular": 6064,
      "Ġtodd": 6065,
      "Ġfirm": 6066,
      "Ġcaused": 6067,
      "Ġden": 6068,
      "ĠLou": 6069,
      "Ġbead": 6070,
      "Ġexha": 6071,
      "ĠWater": 6072,
      "Ġlap": 6073,
      "bbly": 6074,
      "Ġpeppers": 6075,
      "Ġcoloring": 6076,
      "ĠLeave": 6077,
      "Ġadding": 6078,
      "Ġwandering": 6079,
      "Ġwiggled": 6080,
      "Ġfamilies": 6081,
      "ĠGreen": 6082,
      "ĠChristmas": 6083,
      "hello": 6084,
      "Ġcash": 6085,
      "iding": 6086,
      "ences": 6087,
      "ĠJu": 6088,
      "opsy": 6089,
      "Ġworkers": 6090,
      "Ġwinked": 6091,
      "Ġsafer": 6092,
      "ĠRobbie": 6093,
      "Ġreveal": 6094,
      "Ġtwinkle": 6095,
      "Ġgaze": 6096,
      "Ġopinion": 6097,
      "Ġsituation": 6098,
      "Ġraindrops": 6099,
      "pite": 6100,
      "Ġast": 6101,
      "Ġcous": 6102,
      "Ġdared": 6103,
      "Ġpause": 6104,
      "isies": 6105,
      "esome": 6106,
      "Ġech": 6107,
      "Ġnect": 6108,
      "ĠcanÃ¢": 6109,
      "Ġfaced": 6110,
      "Ġchoo": 6111,
      "Ġneedles": 6112,
      "ĠSpark": 6113,
      "itches": 6114,
      "Ġresting": 6115,
      "Ġarrive": 6116,
      "Ġagrees": 6117,
      "Ġpacking": 6118,
      "ĠTwo": 6119,
      "Ġactions": 6120,
      "Ġunpacked": 6121,
      "Ġdaisies": 6122,
      "Ġexhausted": 6123,
      "Ġnectar": 6124,
      "Fine": 6125,
      "Then": 6126,
      "Uh": 6127,
      "band": 6128,
      "eke": 6129,
      "fl": 6130,
      "Ġtim": 6131,
      "Ġaff": 6132,
      "Ġlined": 6133,
      "Ġcough": 6134,
      "Ġwasted": 6135,
      "ley": 6136,
      "ĠLena": 6137,
      "ĠyouÃ¢": 6138,
      "ĠMel": 6139,
      "Ġgoals": 6140,
      "urry": 6141,
      "Ġmane": 6142,
      "Ġswooped": 6143,
      "ĠCra": 6144,
      "Ġdeli": 6145,
      "oline": 6146,
      "Ġbowls": 6147,
      "Ġinviting": 6148,
      "Ġpleasure": 6149,
      "Ġnetwork": 6150,
      "Ġawesome": 6151,
      "Ġjackets": 6152,
      "Ġdelivered": 6153,
      "ĠFollow": 6154,
      "Ġscrubbed": 6155,
      "Ġtemperature": 6156,
      "njoy": 6157,
      "Ġcause": 6158,
      "arter": 6159,
      "immer": 6160,
      "oni": 6161,
      "Ġliqu": 6162,
      "Ġsmarter": 6163,
      "ĠJazz": 6164,
      "ĠJune": 6165,
      "Ġrobb": 6166,
      "ongo": 6167,
      "ĠCu": 6168,
      "Ġbehavi": 6169,
      "Ġreads": 6170,
      "Ġdarkness": 6171,
      "Ġfairies": 6172,
      "Ġmarked": 6173,
      "Ġwarri": 6174,
      "Ġspeaking": 6175,
      "ĠZoom": 6176,
      "Ġblooming": 6177,
      "Ġcopy": 6178,
      "Ġhallway": 6179,
      "Ġgroceries": 6180,
      "Ġliquid": 6181,
      "hile": 6182,
      "ĠY": 6183,
      "Ġwow": 6184,
      "eds": 6185,
      "Ġhi": 6186,
      "reat": 6187,
      "Ġpiggy": 6188,
      "ĠOw": 6189,
      "Ġsoaked": 6190,
      "ĠBongo": 6191,
      "Ġwears": 6192,
      "Ġscales": 6193,
      "Ġfever": 6194,
      "Ġknees": 6195,
      "ĠPo": 6196,
      "ĠRobby": 6197,
      "Ġimportance": 6198,
      "uggles": 6199,
      "Ġprincesses": 6200,
      "Ġreply": 6201,
      "Ġblows": 6202,
      "ĠSnuggles": 6203,
      "Ġwires": 6204,
      "Ġachieved": 6205,
      "Ġcalmed": 6206,
      "Ġdrifted": 6207,
      "Ġcautiously": 6208,
      "Ġsnatched": 6209,
      "Ġty": 6210,
      "irts": 6211,
      "Ġstem": 6212,
      "ĠJones": 6213,
      "Ġseven": 6214,
      "Ġsomebody": 6215,
      "ĠMomo": 6216,
      "ĠFar": 6217,
      "Ġyourselves": 6218,
      "ĠFlopsy": 6219,
      "ĠwouldnÃ¢": 6220,
      "Ġcowb": 6221,
      "izzie": 6222,
      "ĠSusan": 6223,
      "Ġleading": 6224,
      "ĠMikey": 6225,
      "Ġribbons": 6226,
      "Ġrecommended": 6227,
      "Ġinterested": 6228,
      "Ġchuckled": 6229,
      "Ġbeads": 6230,
      "Ġdelivery": 6231,
      "ossible": 6232,
      "Ġsense": 6233,
      "Ġbars": 6234,
      "Ġglee": 6235,
      "ĠLizzie": 6236,
      "Ġspong": 6237,
      "Ġswirl": 6238,
      "Ġtwin": 6239,
      "emma": 6240,
      "Ġimpossible": 6241,
      "boat": 6242,
      "Ġpots": 6243,
      "ĠRobert": 6244,
      "Ġmasks": 6245,
      "ÅĵWhatÃ¢": 6246,
      "Ġfluttered": 6247,
      "ĠOlive": 6248,
      "Ġbakery": 6249,
      "Ġsnowballs": 6250,
      "Ġdentist": 6251,
      "Mum": 6252,
      "mies": 6253,
      "Ġmes": 6254,
      "igning": 6255,
      "Ġrip": 6256,
      "ĠBess": 6257,
      "ĠBinky": 6258,
      "ĠMabel": 6259,
      "Ġkites": 6260,
      "Ġlosing": 6261,
      "Ġremote": 6262,
      "Ġbadge": 6263,
      "Ġdreamt": 6264,
      "Ġnaps": 6265,
      "Ġnapkins": 6266,
      "Ġorganizing": 6267,
      "ĠBuzzy": 6268,
      "Ġwipes": 6269,
      "ĠZoomy": 6270,
      "Ġknights": 6271,
      "Ġhelmets": 6272,
      "Ġtempt": 6273,
      "Ġstroll": 6274,
      "Ġstroked": 6275,
      "Ġpaddled": 6276,
      "Ġforgiven": 6277,
      "Ġmesmer": 6278,
      "Just": 6279,
      "ik": 6280,
      "Ġlimes": 6281,
      "iles": 6282,
      "Ġlearns": 6283,
      "ĠEverybody": 6284,
      "Ġjoking": 6285,
      "ĠJohnson": 6286,
      "Ġcloses": 6287,
      "ĠDoggy": 6288,
      "Ġfroze": 6289,
      "usband": 6290,
      "Ġpointy": 6291,
      "Ġsecure": 6292,
      "ĠAlthough": 6293,
      "ĠWithout": 6294,
      "ĠBeing": 6295,
      "Ġawake": 6296,
      "Ġpedals": 6297,
      "Ġbaker": 6298,
      "Ġannoy": 6299,
      "ĠPippin": 6300,
      "Ġcashier": 6301,
      "mallow": 6302,
      "weet": 6303,
      "Ġopp": 6304,
      "arling": 6305,
      "Ġbelly": 6306,
      "Ġcolored": 6307,
      "Ġhider": 6308,
      "Ġpassen": 6309,
      "Ġprotecting": 6310,
      "Ġsplashes": 6311,
      "Ġdetermination": 6312,
      "Ġseeker": 6313,
      "Ġfilling": 6314,
      "Ġradishes": 6315,
      "arshmallow": 6316,
      "Ġstomped": 6317,
      "Ro": 6318,
      "ĠSorry": 6319,
      "Ġinsp": 6320,
      "ĠLau": 6321,
      "ades": 6322,
      "Ġnoses": 6323,
      "ĠPut": 6324,
      "ĠGet": 6325,
      "Ġdeal": 6326,
      "Ġstorekeeper": 6327,
      "Ġtallest": 6328,
      "Ġmuscle": 6329,
      "Ġtails": 6330,
      "Ġsigned": 6331,
      "Ġscaring": 6332,
      "Ġscarves": 6333,
      "Ġcandies": 6334,
      "Ġleaning": 6335,
      "Ġgiraff": 6336,
      "Ġobjects": 6337,
      "Ġsneaky": 6338,
      "ĠNothing": 6339,
      "Ġaccomplish": 6340,
      "Ġtipt": 6341,
      "Ġwarrior": 6342,
      "Ġsponge": 6343,
      "va": 6344,
      "Ġtig": 6345,
      "Ġaud": 6346,
      "Ġsib": 6347,
      "Ġhusband": 6348,
      "ouch": 6349,
      "iled": 6350,
      "ĠSc": 6351,
      "ĠHoot": 6352,
      "Ġrising": 6353,
      "endy": 6354,
      "alph": 6355,
      "ĠWatch": 6356,
      "?\",": 6357,
      "Ġbacked": 6358,
      "Ġleap": 6359,
      "Ġmeals": 6360,
      "Ġeverybody": 6361,
      "ishy": 6362,
      "ĠGary": 6363,
      "Ġcreations": 6364,
      "Ġunf": 6365,
      "Ġafterwards": 6366,
      "Ġhealth": 6367,
      "brush": 6368,
      "Ġmiles": 6369,
      "Ġzookeeper": 6370,
      "Ġrecording": 6371,
      "Ġarrows": 6372,
      "Ġartist": 6373,
      "Ġcheeks": 6374,
      "ĠMaddy": 6375,
      "Ġsnuggle": 6376,
      "Ġgiraffes": 6377,
      "Ġtigers": 6378,
      "tuce": 6379,
      "vest": 6380,
      "ĠSpl": 6381,
      "ans": 6382,
      "Ġweeke": 6383,
      "itted": 6384,
      "Ġaren": 6385,
      "ĠWendy": 6386,
      "Ġflapping": 6387,
      "Ġchip": 6388,
      "ĠDuring": 6389,
      "ĠJojo": 6390,
      "Ġlettuce": 6391,
      "Ġdancers": 6392,
      "Ġconn": 6393,
      "Ġconcer": 6394,
      "ths": 6395,
      "Ġarr": 6396,
      "Ġsteer": 6397,
      "Ġparties": 6398,
      "Ġhides": 6399,
      "Ġmarks": 6400,
      "Ġdiving": 6401,
      "Ġsalty": 6402,
      "Ġgracefully": 6403,
      "Ġavoid": 6404,
      "Ġhesitated": 6405,
      "ĠGoodbye": 6406,
      "ĠPrin": 6407,
      "Ġtravelled": 6408,
      "Ġweekend": 6409,
      "Ġcust": 6410,
      "Ġdots": 6411,
      "Ġmi": 6412,
      "Ġthird": 6413,
      "Ġyum": 6414,
      "Ġfeast": 6415,
      "Ġslices": 6416,
      "Ġsnuck": 6417,
      "Ġracc": 6418,
      "Ġhandsome": 6419,
      "Ġdef": 6420,
      "Ġtricked": 6421,
      "Ġsailboat": 6422,
      "Ġpotion": 6423,
      "ments": 6424,
      "ĠZara": 6425,
      "Ġburst": 6426,
      "Ġdiscussed": 6427,
      "Ġhesitant": 6428,
      "Ġrusty": 6429,
      "Ġtalented": 6430,
      "ĠGranny": 6431,
      "Ġtoddler": 6432,
      "Ġafford": 6433,
      "Ġcustom": 6434,
      "Ġraccoon": 6435,
      "Jack": 6436,
      "aa": 6437,
      "ners": 6438,
      "pr": 6439,
      "Ġtangled": 6440,
      "Ġhissed": 6441,
      "icked": 6442,
      "Ġslam": 6443,
      "ĠPu": 6444,
      "Ġdrawn": 6445,
      "Ġcorners": 6446,
      "ĠAlong": 6447,
      "Ġspoonful": 6448,
      "Ġpans": 6449,
      "Tommy": 6450,
      "Ġsweat": 6451,
      "Rex": 6452,
      "Ġrequested": 6453,
      "Ġdirect": 6454,
      "Ġlungs": 6455,
      "ĠMilo": 6456,
      "Ġsiblings": 6457,
      "zes": 6458,
      "ĠTara": 6459,
      "Ġcott": 6460,
      "Ġdie": 6461,
      "ids": 6462,
      "Ġneither": 6463,
      "Ġbackwards": 6464,
      "ĠEarth": 6465,
      "ept": 6466,
      "Ġflight": 6467,
      "Ġswept": 6468,
      "Ġhandful": 6469,
      "ĠRalph": 6470,
      "ĠJaney": 6471,
      "Ġprinting": 6472,
      "Ġpretends": 6473,
      "Ġdarker": 6474,
      "Ġsnowmen": 6475,
      "Ġembarrass": 6476,
      "Ġfolding": 6477,
      "ĠBluey": 6478,
      "Ġpumpkins": 6479,
      "Ġlogs": 6480,
      "Ġwraps": 6481,
      "ivity": 6482,
      "Ġsausages": 6483,
      "Ġfluttering": 6484,
      "ĠLaura": 6485,
      "Ġtiptoed": 6486,
      "Ġmixture": 6487,
      "ded": 6488,
      "pit": 6489,
      "Ġlower": 6490,
      "ility": 6491,
      "ĠEl": 6492,
      "ĠEnjoy": 6493,
      "Ġchop": 6494,
      "Ġgrandp": 6495,
      "Ġgrabbing": 6496,
      "Ġadult": 6497,
      "Ġdrawers": 6498,
      "Ġgasp": 6499,
      "Meow": 6500,
      "Ġsuperheroes": 6501,
      "Ġinsects": 6502,
      "ĠChris": 6503,
      "Ġwidened": 6504,
      "Ġcousin": 6505,
      "Ġaudience": 6506,
      "Boo": 6507,
      "Bun": 6508,
      "Ġwins": 6509,
      "Ġocc": 6510,
      "Ġgross": 6511,
      "ĠHolly": 6512,
      "ĠLi": 6513,
      "Ġbeam": 6514,
      "Ġfears": 6515,
      "Ġworn": 6516,
      "Ġcond": 6517,
      "Ġwilling": 6518,
      "aker": 6519,
      "Those": 6520,
      "shions": 6521,
      "ĠGina": 6522,
      "Ġwindy": 6523,
      "Ġgrassy": 6524,
      "Ġrivers": 6525,
      "umbling": 6526,
      "Ġstarfish": 6527,
      "ĠThanks": 6528,
      "Ġclowns": 6529,
      "Ġrefle": 6530,
      "Ġbasement": 6531,
      "Ġexperien": 6532,
      "ĠFox": 6533,
      "Ġfamiliar": 6534,
      "Ġflavor": 6535,
      "Ġchefs": 6536,
      "Ġperforman": 6537,
      "Ġbeginning": 6538,
      "ĠMickey": 6539,
      "ĠExc": 6540,
      "ĠPrincess": 6541,
      "Ew": 6542,
      "abby": 6543,
      "no": 6544,
      "sequ": 6545,
      "Ġrefu": 6546,
      "iece": 6547,
      "Ġdads": 6548,
      "Ġbully": 6549,
      "Ġconsequ": 6550,
      "Ġuns": 6551,
      "Ġsnowfl": 6552,
      "Ġcreativity": 6553,
      "Ġforgetting": 6554,
      "Ġwrapping": 6555,
      "Ġcelebrating": 6556,
      "Ġpaying": 6557,
      "Ġknocks": 6558,
      "Ġcomplained": 6559,
      "Ġsprinkled": 6560,
      "ĠJulia": 6561,
      "Ġfirefighter": 6562,
      "Ġheavier": 6563,
      "Ġpouted": 6564,
      "ĠJudy": 6565,
      "Roar": 6566,
      "Ġgrandpare": 6567,
      "ĠExcited": 6568,
      "Great": 6569,
      "Run": 6570,
      "Whee": 6571,
      "Ġmerry": 6572,
      "Ġropes": 6573,
      "ados": 6574,
      "Ġwept": 6575,
      "Ġreass": 6576,
      "Ġbodies": 6577,
      "ĠJax": 6578,
      "ddled": 6579,
      "Ġstays": 6580,
      "obody": 6581,
      "retty": 6582,
      "Ġkicks": 6583,
      "Ġshrinking": 6584,
      "Ġrecipe": 6585,
      "Ġsource": 6586,
      "Ġindeed": 6587,
      "ĠDavey": 6588,
      "Ġforks": 6589,
      "Ġscratches": 6590,
      "Ġavocados": 6591,
      "Ġseparated": 6592,
      "Ġprovided": 6593,
      "Ġsurroundings": 6594,
      "Shh": 6595,
      "Ġpuppies": 6596,
      "ĠFarmer": 6597,
      "ĠBessie": 6598,
      "Next": 6599,
      "tle": 6600,
      "ĠSqu": 6601,
      "ĠSque": 6602,
      "Ġrings": 6603,
      "ĠAsh": 6604,
      "Ġspikes": 6605,
      "aula": 6606,
      "iley": 6607,
      "ĠPaula": 6608,
      "Ġdollhouse": 6609,
      "Ġcrew": 6610,
      "Ġbeloved": 6611,
      "Ġattack": 6612,
      "ĠStay": 6613,
      "Ġtricky": 6614,
      "Ġseconds": 6615,
      "Ġhumans": 6616,
      "Ġpresses": 6617,
      "Ġincluding": 6618,
      "ĠFroggy": 6619,
      "Ġgranted": 6620,
      "ĠKeep": 6621,
      "ĠFriends": 6622,
      "Ġconsequences": 6623,
      "?'": 6624,
      "Bad": 6625,
      "cake": 6626,
      "fall": 6627,
      "wk": 6628,
      "Ġhour": 6629,
      "Ġdarling": 6630,
      "Ġmaster": 6631,
      "Ġnine": 6632,
      "Ġhawk": 6633,
      "llen": 6634,
      "Ġstool": 6635,
      "Ġplucked": 6636,
      "ĠBee": 6637,
      "Ġgobbled": 6638,
      "Ġglued": 6639,
      "Ġdresser": 6640,
      "athan": 6641,
      "Ġmagician": 6642,
      "Ġtalks": 6643,
      "Ġplans": 6644,
      "Ġneighbours": 6645,
      "Ġhoriz": 6646,
      "ĠStitch": 6647,
      "Ġwishing": 6648,
      "Ġedges": 6649,
      "Ġtunnels": 6650,
      "Ġgems": 6651,
      "Ġdelivering": 6652,
      "Ġneatly": 6653,
      "Ġinstrum": 6654,
      "ĠFrog": 6655,
      "Ġbehaved": 6656,
      "Ġdeserve": 6657,
      "Ġtimer": 6658,
      "Lila": 6659,
      "eal": 6660,
      "Ġtouc": 6661,
      "Ġcau": 6662,
      "ĠBo": 6663,
      "Ġteased": 6664,
      "Ġruining": 6665,
      "Ġrushing": 6666,
      "Ġamong": 6667,
      "Ġsailors": 6668,
      "Ġplanning": 6669,
      "Ġcrossing": 6670,
      "Ġlollipops": 6671,
      "Ġsymbols": 6672,
      "Ġbuzzed": 6673,
      "Ġscrews": 6674,
      "ably": 6675,
      "Ġwarnings": 6676,
      "Ġswimsuit": 6677,
      "Ġmaterials": 6678,
      "Ġaccomplishment": 6679,
      "Ġperformance": 6680,
      "Ġhorizon": 6681,
      "rig": 6682,
      "Ġhitting": 6683,
      "Ġmarshmallow": 6684,
      "Ġpens": 6685,
      "ĠSim": 6686,
      "ĠListen": 6687,
      "ĠOur": 6688,
      "Ġonward": 6689,
      "ĠMouse": 6690,
      "choo": 6691,
      "Ġspices": 6692,
      "Ġhelpers": 6693,
      "Ġfact": 6694,
      "Ġage": 6695,
      "Ġflas": 6696,
      "ÅĵDo": 6697,
      "ĠGemma": 6698,
      "ĠNobody": 6699,
      "ĠRemember": 6700,
      "Ġremembering": 6701,
      "Ġamount": 6702,
      "Ġblocking": 6703,
      "Ġpaths": 6704,
      "Ġdrums": 6705,
      "Ġdesigns": 6706,
      "Ġmushrooms": 6707,
      "ronaut": 6708,
      "Ġcobwebs": 6709,
      "Ġastronaut": 6710,
      "Ġechoed": 6711,
      "Ġdirections": 6712,
      "Ġtouches": 6713,
      "nk": 6714,
      "Ġmer": 6715,
      "atur": 6716,
      "Ġstung": 6717,
      "Ġonions": 6718,
      "rie": 6719,
      "Ġplayers": 6720,
      "step": 6721,
      "Ġleast": 6722,
      "Ġbru": 6723,
      "ĠDr": 6724,
      "Ġteles": 6725,
      "Ġraces": 6726,
      "Ġstrongest": 6727,
      "ĠTodd": 6728,
      "Ġchoices": 6729,
      "Ġbaskets": 6730,
      "Ġforgets": 6731,
      "Ġpeacefully": 6732,
      "Ġmatters": 6733,
      "Ġtested": 6734,
      "Ġresisted": 6735,
      "ĠAbi": 6736,
      "ÅĵYouÃ¢": 6737,
      "Ġwiggle": 6738,
      "Ġdamage": 6739,
      "ĠQuack": 6740,
      "Ġscraped": 6741,
      "Ġmarshmallows": 6742,
      "Ġtelescope": 6743,
      "Ch": 6744,
      "fire": 6745,
      "tier": 6746,
      "ĠQ": 6747,
      "Ġcor": 6748,
      "Ġsank": 6749,
      "rip": 6750,
      "Ġyounger": 6751,
      "ntil": 6752,
      "ĠWell": 6753,
      "Ġvines": 6754,
      "Ġprettier": 6755,
      "ÅĵWow": 6756,
      "ÅĵMy": 6757,
      "Ġconvers": 6758,
      "Ġgrowls": 6759,
      "Ġbaths": 6760,
      "Ġimagining": 6761,
      "Ġhonked": 6762,
      "Ġgenie": 6763,
      "ĠUnder": 6764,
      "ĠUntil": 6765,
      "Ġpoems": 6766,
      "Ġminerals": 6767,
      "ĠMaddie": 6768,
      "Ġrustling": 6769,
      "Ġgreeted": 6770,
      "Ġpassengers": 6771,
      "Ġoccas": 6772,
      "Fo": 6773,
      "dges": 6774,
      "iel": 6775,
      "Ġtuck": 6776,
      "ition": 6777,
      "Ġmast": 6778,
      "Ġmunch": 6779,
      "aying": 6780,
      "ĠSk": 6781,
      "ĠSmo": 6782,
      "Ġstitches": 6783,
      "ĠBoun": 6784,
      "ĠMarth": 6785,
      "Ġneare": 6786,
      "Ġscient": 6787,
      "icky": 6788,
      "Ġadults": 6789,
      "Ġcushions": 6790,
      "ĠPretty": 6791,
      "Ġache": 6792,
      "Ġnearly": 6793,
      "Ġcuriously": 6794,
      "Ġrespond": 6795,
      "Ġimages": 6796,
      "Ġfeeding": 6797,
      "Ġvanilla": 6798,
      "Ġpraying": 6799,
      "Ġborrowed": 6800,
      "manda": 6801,
      "Ġcomplaining": 6802,
      "Ġincreased": 6803,
      "Ġbehaving": 6804,
      "ĠFuzzy": 6805,
      "Ġcommun": 6806,
      "immering": 6807,
      "ĠCurious": 6808,
      "Ġbehavior": 6809,
      "Ġmesmerized": 6810,
      "Ġunsure": 6811,
      "ĠMartha": 6812,
      "Ġscientist": 6813,
      "Little": 6814,
      "aired": 6815,
      "lves": 6816,
      "the": 6817,
      "Ġcoral": 6818,
      "Ġsale": 6819,
      "Ġplaytime": 6820,
      "ĠMart": 6821,
      "Ġnotes": 6822,
      "allowed": 6823,
      "ĠAmanda": 6824,
      "Ġswallowed": 6825,
      "Ġtramp": 6826,
      "Ġtwice": 6827,
      "ueen": 6828,
      "Ġwobbly": 6829,
      "Ġdances": 6830,
      "Ġjoyful": 6831,
      "Ġstands": 6832,
      "Ġdrivers": 6833,
      "Ġhopeful": 6834,
      "Ġrepaired": 6835,
      "Ġsunflowers": 6836,
      "Ġzipping": 6837,
      "Ġenthusi": 6838,
      "Ġrewarded": 6839,
      "Today": 6840,
      "Ġcenter": 6841,
      "ĠSplash": 6842,
      "rigued": 6843,
      "Ġtrampoline": 6844,
      "Have": 6845,
      "Our": 6846,
      "Oops": 6847,
      "ippy": 6848,
      "Ġcoup": 6849,
      "Ġpours": 6850,
      "Ġoh": 6851,
      "ĠSun": 6852,
      "Ġnibb": 6853,
      "ĠWally": 6854,
      "Ġnoon": 6855,
      "Ġscen": 6856,
      "Ġcoc": 6857,
      "Ġflown": 6858,
      "Ġswords": 6859,
      "Ġtreehouse": 6860,
      "Ġtrot": 6861,
      "Ġbraver": 6862,
      "Ġwobble": 6863,
      "Ġwobbled": 6864,
      "ÅĵHi": 6865,
      "ÅĵWell": 6866,
      "ĠRain": 6867,
      "ĠRavi": 6868,
      "ĠFinn": 6869,
      "Ġdropping": 6870,
      "Ġhearing": 6871,
      "attered": 6872,
      "Ġhealing": 6873,
      "Ġaction": 6874,
      "ĠStan": 6875,
      "Ġspreading": 6876,
      "ĠMaya": 6877,
      "ĠBirthday": 6878,
      "Ġgeese": 6879,
      "ĠElsa": 6880,
      "Ġarranged": 6881,
      "Ġenthusiasm": 6882,
      "Ġcouple": 6883,
      "weed": 6884,
      "yes": 6885,
      "Ġ2": 6886,
      "initely": 6887,
      "itched": 6888,
      "itude": 6889,
      "Ġdet": 6890,
      "atul": 6891,
      "Ġnood": 6892,
      "Ġease": 6893,
      "river": 6894,
      "idey": 6895,
      "Ġjugg": 6896,
      "Ġspins": 6897,
      "Ġblast": 6898,
      "Ġpecked": 6899,
      "Ġslips": 6900,
      "iona": 6901,
      "Ġfinal": 6902,
      "Ġfinishing": 6903,
      "acy": 6904,
      "ĠSpidey": 6905,
      "Ġwarmer": 6906,
      "Ġsandpit": 6907,
      "Ġlighter": 6908,
      "Ġslower": 6909,
      "Ġelf": 6910,
      "anging": 6911,
      "Ġprove": 6912,
      "Ġbeeh": 6913,
      "Ġwiping": 6914,
      "Ġheroes": 6915,
      "Ġencourag": 6916,
      "Ġtriangles": 6917,
      "Ġrefreshing": 6918,
      "Ġtravelling": 6919,
      "Ġguests": 6920,
      "Ġ10": 6921,
      "ĠSqueaky": 6922,
      "ĠQueen": 6923,
      "--": 6924,
      "bell": 6925,
      "bird": 6926,
      "Ġaimed": 6927,
      "ĠSince": 6928,
      "Ġsadd": 6929,
      "Ġthorn": 6930,
      "veral": 6931,
      "ĠIm": 6932,
      "Ġplain": 6933,
      "ĠMo": 6934,
      "Ġshirts": 6935,
      "Ġreason": 6936,
      "Ġseveral": 6937,
      "ĠWin": 6938,
      "ĠFiona": 6939,
      "Ġflips": 6940,
      "Ġposs": 6941,
      "Ġexplo": 6942,
      "Ġoffic": 6943,
      "Ġfocu": 6944,
      "ÅĵMom": 6945,
      "ÅĵCome": 6946,
      "ÅĵNow": 6947,
      "Ġthrown": 6948,
      "ĠNora": 6949,
      "Ġdefe": 6950,
      "ĠThose": 6951,
      "Ġsteady": 6952,
      "Ġpennies": 6953,
      "Ġseaweed": 6954,
      "Ġlifting": 6955,
      "Ġacting": 6956,
      "ertain": 6957,
      "Ġantic": 6958,
      "ĠZero": 6959,
      "Ġexamining": 6960,
      "Ġseller": 6961,
      "Ġawo": 6962,
      "Ġcampfire": 6963,
      "Ġoysters": 6964,
      "Ġbreathed": 6965,
      "Ġvideos": 6966,
      "Ġfirefly": 6967,
      "Ġyielded": 6968,
      "ĠSadie": 6969,
      "ĠMean": 6970,
      "Ġdefinitely": 6971,
      "ĠSimon": 6972,
      "Ġfocused": 6973,
      "Like": 6974,
      "Yummy": 6975,
      "ears": 6976,
      "yond": 6977,
      "Ġsy": 6978,
      "reen": 6979,
      "Ġfaded": 6980,
      "anes": 6981,
      "Ġbeyond": 6982,
      "Ġstain": 6983,
      "stick": 6984,
      "ĠMuff": 6985,
      "Ġscamp": 6986,
      "Ġchos": 6987,
      "Ġpeck": 6988,
      "Ġglitt": 6989,
      "Ġheading": 6990,
      "Ġsquishy": 6991,
      "Ġbows": 6992,
      "ĠKelly": 6993,
      "Ġpolitely": 6994,
      "Ġvisitor": 6995,
      "Ġcupcakes": 6996,
      "Ġchopped": 6997,
      "Ġexpress": 6998,
      "ĠAlison": 6999,
      "Ġlifts": 7000,
      "illiam": 7001,
      "Ġthud": 7002,
      "years": 7003,
      "Ġcuddly": 7004,
      "Ġproper": 7005,
      "Ġsports": 7006,
      "ĠTessa": 7007,
      "Ġfreedom": 7008,
      "ĠSparky": 7009,
      "Ġsnowflakes": 7010,
      "ĠSquirrel": 7011,
      "Ġcausing": 7012,
      "Ġnoodles": 7013,
      "Ġbeehive": 7014,
      "Ġchosen": 7015,
      "Time": 7016,
      "bro": 7017,
      "cher": 7018,
      "ratul": 7019,
      "while": 7020,
      "Ġdaring": 7021,
      "inger": 7022,
      "ĠHope": 7023,
      "ĠLia": 7024,
      "rian": 7025,
      "Ġsofter": 7026,
      "str": 7027,
      "unched": 7028,
      "ently": 7029,
      "Ġshown": 7030,
      "ĠWilliam": 7031,
      "Ġroars": 7032,
      "ongratul": 7033,
      "ĠFire": 7034,
      "Ġwhose": 7035,
      "Ġtwenty": 7036,
      "Ġwarmly": 7037,
      "Ġthroughout": 7038,
      "ĠwonÃ¢": 7039,
      "Ġdived": 7040,
      "Ġnervously": 7041,
      "Ġtwisting": 7042,
      "Ġdiamonds": 7043,
      "Ġtoaster": 7044,
      "Ġsniffs": 7045,
      "Ġsneezing": 7046,
      "ĠRoger": 7047,
      "Ġsurfboard": 7048,
      "Ġstacked": 7049,
      "ĠKaty": 7050,
      "Ġinsisting": 7051,
      "Ġpupils": 7052,
      "Ġflavors": 7053,
      "Grandma": 7054,
      "Ġrobber": 7055,
      "Ġcowboy": 7056,
      "Ġslammed": 7057,
      "Follow": 7058,
      "Woof": 7059,
      "cl": 7060,
      "ky": 7061,
      "mered": 7062,
      "uzz": 7063,
      "Ġaim": 7064,
      "ido": 7065,
      "onies": 7066,
      "Ġinj": 7067,
      "utter": 7068,
      "ĠMother": 7069,
      "Ġcharge": 7070,
      "Ġintrigued": 7071,
      "Ġpuff": 7072,
      "Ġovercome": 7073,
      "Ġexplorer": 7074,
      "Ġstopping": 7075,
      "Ġwrink": 7076,
      "ushed": 7077,
      "Ġtables": 7078,
      "otten": 7079,
      "Ġbelongings": 7080,
      "Ġmailed": 7081,
      "Ġdriveway": 7082,
      "Ġignoring": 7083,
      "ĠZip": 7084,
      "Ġdecorating": 7085,
      "ĠUp": 7086,
      "Ġtwisty": 7087,
      "ĠDaniel": 7088,
      "Ġstreamers": 7089,
      "Ġdesigned": 7090,
      "Ġwhispers": 7091,
      "Ġgrandson": 7092,
      "Ġstatues": 7093,
      "Ġperforming": 7094,
      "Ġlending": 7095,
      "Ġtwinkled": 7096,
      "Ġloops": 7097,
      "Ġwhispering": 7098,
      "Ġsuffered": 7099,
      "Ġlicking": 7100,
      "Ġsewed": 7101,
      "ĠBirdy": 7102,
      "ĠQuick": 7103,
      "ĠCrabby": 7104,
      "iki": 7105,
      "Ġgrandparents": 7106,
      "Ġawoke": 7107,
      "Fl": 7108,
      "aven": 7109,
      "cter": 7110,
      "upt": 7111,
      "yan": 7112,
      "Ġfant": 7113,
      "ĠTuna": 7114,
      "Ġdot": 7115,
      "Ġmate": 7116,
      "Ġponies": 7117,
      "ĠLove": 7118,
      "Ġrotten": 7119,
      "Ġplayroom": 7120,
      "Ġshoo": 7121,
      "Ġroses": 7122,
      "ĠMomma": 7123,
      "Ġcoach": 7124,
      "Ġcosy": 7125,
      "Ġprob": 7126,
      "ĠFido": 7127,
      "Ġgoodies": 7128,
      "Ġsled": 7129,
      "Ġbeautifully": 7130,
      "Ġdollars": 7131,
      "ĠGabby": 7132,
      "Ġunw": 7133,
      "ĠRiley": 7134,
      "ĠRyan": 7135,
      "Ġforests": 7136,
      "Ġbelts": 7137,
      "ĠDog": 7138,
      "Ġunderstands": 7139,
      "meal": 7140,
      "Ġjoining": 7141,
      "Ġfits": 7142,
      "Ġcalmly": 7143,
      "Ġleads": 7144,
      "Ġswans": 7145,
      "Ġoatmeal": 7146,
      "Ġsurrendered": 7147,
      "Ġquarreling": 7148,
      "Ġnovels": 7149,
      "Ġresults": 7150,
      "Ġpunishment": 7151,
      "Ġtrembled": 7152,
      "Ġwider": 7153,
      "ĠOutside": 7154,
      "Ġreflection": 7155,
      "Ġanticip": 7156,
      "ĠMuffin": 7157,
      "Ġscampered": 7158,
      "Ġfantastic": 7159,
      "Ġprobably": 7160,
      "ael": 7161,
      "cus": 7162,
      "sm": 7163,
      "sers": 7164,
      "whe": 7165,
      "Ġtiss": 7166,
      "Ġtying": 7167,
      "Ġgap": 7168,
      "ĠSw": 7169,
      "Ġnapping": 7170,
      "iment": 7171,
      "onse": 7172,
      "rier": 7173,
      "ĠBack": 7174,
      "ĠMaisy": 7175,
      "ĠMich": 7176,
      "ĠAny": 7177,
      "Ġmanag": 7178,
      "dding": 7179,
      "Ġchara": 7180,
      "Ġslither": 7181,
      "Ġwaterfall": 7182,
      "ĠPandy": 7183,
      "Ġfins": 7184,
      "Ġcolder": 7185,
      "Ġfoxes": 7186,
      "Ġshops": 7187,
      "ounced": 7188,
      "Ġresponse": 7189,
      "ĠStart": 7190,
      "Ġpicnics": 7191,
      "ĠPeggy": 7192,
      "Ġappreciated": 7193,
      "Ġconfl": 7194,
      "ĠFrankie": 7195,
      "Ġperformed": 7196,
      "ĠNana": 7197,
      "Ġrisks": 7198,
      "Ġforgiveness": 7199,
      "Ġconnected": 7200,
      "Ġmerma": 7201,
      "ĠMeanwhile": 7202,
      "broken": 7203,
      "ĠMichael": 7204,
      "Ġcharacter": 7205,
      "Jo": 7206,
      "Listen": 7207,
      "bra": 7208,
      "crow": 7209,
      "driver": 7210,
      "mates": 7211,
      "rup": 7212,
      "Ġais": 7213,
      "Ġwaddled": 7214,
      "its": 7215,
      "Ġcertain": 7216,
      "ilted": 7217,
      "Ġgest": 7218,
      "cky": 7219,
      "child": 7220,
      "Ġaside": 7221,
      "Ġscored": 7222,
      "ĠFe": 7223,
      "Ġposter": 7224,
      "Ġposit": 7225,
      "ĠJoan": 7226,
      "ĠJoanna": 7227,
      "Ġtweet": 7228,
      "Ġhanding": 7229,
      "Ġgardener": 7230,
      "Ġconvin": 7231,
      "ĠGinger": 7232,
      "Ġrainy": 7233,
      "Ġelbow": 7234,
      "Ġcloudy": 7235,
      "ĠStill": 7236,
      "ĠBecky": 7237,
      "Ġpostman": 7238,
      "Ġsniffing": 7239,
      "Ġgrandchild": 7240,
      "Ġappreciation": 7241,
      "Ġscrewdriver": 7242,
      "ĠMeg": 7243,
      "Ġspills": 7244,
      "Ġseashells": 7245,
      "ĠLouise": 7246,
      "Ġannoyed": 7247,
      "Ġencouraging": 7248,
      "Ġsyrup": 7249,
      "Ġanticipation": 7250,
      "Le": 7251,
      "Lucy": 7252,
      "Sue": 7253,
      "but": 7254,
      "found": 7255,
      "oss": 7256,
      "ĠX": 7257,
      "Ġtar": 7258,
      "Ġtipped": 7259,
      "Ġwag": 7260,
      "Ġlent": 7261,
      "Ġni": 7262,
      "onna": 7263,
      "espite": 7264,
      "ooking": 7265,
      "Ġramp": 7266,
      "Ġweeds": 7267,
      "Ġshady": 7268,
      "Ġkings": 7269,
      "Ġreun": 7270,
      "Ġjars": 7271,
      "Ġexcept": 7272,
      "ighting": 7273,
      "Ġchanging": 7274,
      "ĠDespite": 7275,
      "Ġwatering": 7276,
      "Ġsmallest": 7277,
      "Ġsnort": 7278,
      "ĠCle": 7279,
      "Ġbravest": 7280,
      "Ġcheers": 7281,
      "ĠRock": 7282,
      "Ġsweetest": 7283,
      "Ġcraft": 7284,
      "Ġworrying": 7285,
      "Ġsails": 7286,
      "Ġbelieving": 7287,
      "Ġheartbroken": 7288,
      "Ġlaying": 7289,
      "Ġpops": 7290,
      "Ġbells": 7291,
      "Ġnecklaces": 7292,
      "Ġsuggestion": 7293,
      "Ġpreparing": 7294,
      "Ġpedaled": 7295,
      "Ġreversed": 7296,
      "Ġstudents": 7297,
      "Ġincreasing": 7298,
      "Ġresponsib": 7299,
      "Ġsuffering": 7300,
      "ĠYesterday": 7301,
      "rrr": 7302,
      "ĠFuzz": 7303,
      "Ġconversation": 7304,
      "Ġofficers": 7305,
      "Mine": 7306,
      "father": 7307,
      "munk": 7308,
      "ollen": 7309,
      "sie": 7310,
      "Ġties": 7311,
      "Ġtumbled": 7312,
      "rey": 7313,
      "Ġgonna": 7314,
      "ĠSal": 7315,
      "ambled": 7316,
      "Ġstumble": 7317,
      "storm": 7318,
      "Ġreapp": 7319,
      "Ġswollen": 7320,
      "ÅĵOf": 7321,
      "Ġconqu": 7322,
      "Ġblocked": 7323,
      "Ġbiting": 7324,
      "ĠAli": 7325,
      "Ġnests": 7326,
      "Ġrespected": 7327,
      "Ġangels": 7328,
      "Ġpepperoni": 7329,
      "Ġbatteries": 7330,
      "Ġpermitted": 7331,
      "ĠPatty": 7332,
      "Ġzebras": 7333,
      "ĠSeeing": 7334,
      "Ġmeowing": 7335,
      "Ġpuppet": 7336,
      "ĠNancy": 7337,
      "Ġgears": 7338,
      "Ġconcert": 7339,
      "Ġreassured": 7340,
      "Ġtrotted": 7341,
      "Bob": 7342,
      "cie": 7343,
      "wise": 7344,
      "Ġtoss": 7345,
      "Ġhoo": 7346,
      "Ġheight": 7347,
      "order": 7348,
      "Ġev": 7349,
      "Ġearn": 7350,
      "Ġund": 7351,
      "Ġrather": 7352,
      "Ġstall": 7353,
      "ĠthatÃ¢": 7354,
      "eling": 7355,
      "ĠMam": 7356,
      "Ġsmashed": 7357,
      "Ġanger": 7358,
      "Ġspook": 7359,
      "Ġmemb": 7360,
      "Ġnewfound": 7361,
      "Ġblond": 7362,
      "Ġthoughts": 7363,
      "Ġtapped": 7364,
      "Ġskunk": 7365,
      "Ġquilt": 7366,
      "ection": 7367,
      "Ġwrigg": 7368,
      "Ġtoward": 7369,
      "athy": 7370,
      "Ġfires": 7371,
      "Ġdrown": 7372,
      "Ġcrashing": 7373,
      "Ġpromises": 7374,
      "Ġcounts": 7375,
      "Ġvegg": 7376,
      "Ġpaintbrush": 7377,
      "Ġplanting": 7378,
      "Ġstreets": 7379,
      "Ġpays": 7380,
      "Ġscrambled": 7381,
      "Ġsoapy": 7382,
      "ĠSnap": 7383,
      "Ġsuits": 7384,
      "Ġdiscoveries": 7385,
      "Ġspeeding": 7386,
      "ĠPepper": 7387,
      "uctor": 7388,
      "Ġpassports": 7389,
      "amboo": 7390,
      "Ġdelayed": 7391,
      "Ġwiggly": 7392,
      "Ġuniforms": 7393,
      "Ġefforts": 7394,
      "Ġdamaged": 7395,
      "Ġfirmly": 7396,
      "Fluffy": 7397,
      "Ġmermaid": 7398,
      "Ġspooky": 7399,
      "Ġmembers": 7400,
      "?!\"": 7401,
      "ms": 7402,
      "oey": 7403,
      "vas": 7404,
      "hew": 7405,
      "Ġwoof": 7406,
      "Ġpound": 7407,
      "Ġnuzz": 7408,
      "ances": 7409,
      "orter": 7410,
      "Ġbeating": 7411,
      "Ġsoot": 7412,
      "ading": 7413,
      "ĠBrian": 7414,
      "ugs": 7415,
      "Ġsped": 7416,
      "fus": 7417,
      "romise": 7418,
      "usty": 7419,
      "ĠJosie": 7420,
      "Ġcleared": 7421,
      "ÅĵOkay": 7422,
      "Ġdangers": 7423,
      "Ġcleaner": 7424,
      "Ġrains": 7425,
      "Ġhops": 7426,
      "Ġmonths": 7427,
      "Ġtablet": 7428,
      "ĠJennie": 7429,
      "Ġjudges": 7430,
      "Ġshaped": 7431,
      "Ġmints": 7432,
      "Ġbandages": 7433,
      "Ġpanicked": 7434,
      "Ġtidied": 7435,
      "Ġclearly": 7436,
      "ĠZoey": 7437,
      "Ġfills": 7438,
      "Ġaddress": 7439,
      "Ġfishes": 7440,
      "Ġcovering": 7441,
      "Ġmagnif": 7442,
      "Ġfrowning": 7443,
      "ivia": 7444,
      "Ġcuddles": 7445,
      "Ġsurfing": 7446,
      "Ġmillion": 7447,
      "Ġexercises": 7448,
      "Ġbrushing": 7449,
      "Ġbreathing": 7450,
      "Ġstroke": 7451,
      "Ġpurrs": 7452,
      "Ġdiscussing": 7453,
      "ĠOlivia": 7454,
      "ĠJanie": 7455,
      "Ġoppos": 7456,
      "Ġinspired": 7457,
      "Ġconductor": 7458,
      "steps": 7459,
      "Ġtissue": 7460,
      "Ġtarget": 7461,
      "Ġveggies": 7462,
      "Some": 7463,
      "Very": 7464,
      "water": 7465,
      "Ġdep": 7466,
      "ĠSl": 7467,
      "ening": 7468,
      "Ġnur": 7469,
      "Ġrout": 7470,
      "ĠOther": 7471,
      "Ġsoaking": 7472,
      "ĠBaa": 7473,
      "Ġkittens": 7474,
      "Ġseals": 7475,
      "Ġcanvas": 7476,
      "Ġalien": 7477,
      "Ġtreated": 7478,
      "ĠFighting": 7479,
      "ĠDoug": 7480,
      "Ġthanking": 7481,
      "Ġtrans": 7482,
      "Ġuntie": 7483,
      "asty": 7484,
      "ÅĵHey": 7485,
      "urprise": 7486,
      "Ġdoorway": 7487,
      "Ġnights": 7488,
      "ĠThatÃ¢": 7489,
      "Ġsmelling": 7490,
      "Ġsparks": 7491,
      "Ġsprout": 7492,
      "Ġpackages": 7493,
      "Ġdesper": 7494,
      "ails": 7495,
      "Ġpuzzled": 7496,
      "Ġfootsteps": 7497,
      "Ġtoolbox": 7498,
      "Ġreminding": 7499,
      "Ġtidying": 7500,
      "Ġwisely": 7501,
      "Ġsqueezing": 7502,
      "Ġtravels": 7503,
      "Ġgrandfather": 7504,
      "Ġpigeons": 7505,
      "Ġloading": 7506,
      "Ġartwork": 7507,
      "Ġmagazines": 7508,
      "Ġdisplayed": 7509,
      "Ġprevented": 7510,
      "Ġsqueak": 7511,
      "Ġadmiration": 7512,
      "Ġglobe": 7513,
      "Ġmaterial": 7514,
      "Ġexperienced": 7515,
      "Ġrefuse": 7516,
      "Ġoccasion": 7517,
      "Ġconvinced": 7518,
      "Ġreunited": 7519,
      "bage": 7520,
      "cent": 7521,
      "now": 7522,
      "pen": 7523,
      "Ġsou": 7524,
      "rew": 7525,
      "ĠTake": 7526,
      "Ġcoug": 7527,
      "Ġheaven": 7528,
      "Ġmoo": 7529,
      "arrow": 7530,
      "Ġger": 7531,
      "ĠSleep": 7532,
      "Ġnasty": 7533,
      "Ġsav": 7534,
      "ighing": 7535,
      "Ġrays": 7536,
      "ĠIzzy": 7537,
      "ĠBecause": 7538,
      "Ġmommies": 7539,
      "Ġank": 7540,
      "Ġspy": 7541,
      "lph": 7542,
      "aret": 7543,
      "ĠEver": 7544,
      "Ġgoodby": 7545,
      "Ġchin": 7546,
      "Ġchilly": 7547,
      "ĠSuper": 7548,
      "Ġblinking": 7549,
      "inkle": 7550,
      "Ġfond": 7551,
      "ÅĵWhere": 7552,
      "Ġdressing": 7553,
      "Ġduckling": 7554,
      "Ġswimmer": 7555,
      "ordinary": 7556,
      "Ġdistract": 7557,
      "Ġdespite": 7558,
      "Ġimaginary": 7559,
      "Ġhonking": 7560,
      "Ġshrunk": 7561,
      "Ġchocolates": 7562,
      "Ġbanged": 7563,
      "Ġpleaded": 7564,
      "Ġsolving": 7565,
      "Ġtrusting": 7566,
      "Ġgarbage": 7567,
      "Ġcrowns": 7568,
      "Ġcamel": 7569,
      "Ġguessing": 7570,
      "Ġextraordinary": 7571,
      "Ġsending": 7572,
      "...\"": 7573,
      "Ġrotting": 7574,
      "Ġvehicles": 7575,
      "Ġsqueaked": 7576,
      "Ġsewing": 7577,
      "Ġaccomplished": 7578,
      "Ġswayed": 7579,
      "Ġsternly": 7580,
      "Ġmunching": 7581,
      "Ġevil": 7582,
      "ĠMamma": 7583,
      "Ġopposite": 7584,
      "Ġgoodbyes": 7585,
      "Dear": 7586,
      "Take": 7587,
      "Wh": 7588,
      "bec": 7589,
      "eople": 7590,
      "fia": 7591,
      "gain": 7592,
      "hind": 7593,
      "vant": 7594,
      "vroom": 7595,
      "Ġbamboo": 7596,
      "ĠTerry": 7597,
      "isions": 7598,
      "idence": 7599,
      "ann": 7600,
      "ori": 7601,
      "ĠHallow": 7602,
      "Ġrin": 7603,
      "Ġwithin": 7604,
      "ĠBra": 7605,
      "Ġdod": 7606,
      "Ġdoves": 7607,
      "Ġwhoo": 7608,
      "Ġloc": 7609,
      "Ġspat": 7610,
      "Ġexch": 7611,
      "Ġknots": 7612,
      "Ġmanners": 7613,
      "ddles": 7614,
      "Ġlapt": 7615,
      "Ġlasers": 7616,
      "Ġflipped": 7617,
      "ilda": 7618,
      "ÅĵBut": 7619,
      "TMd": 7620,
      "Ġdisc": 7621,
      "airy": 7622,
      "ĠGrand": 7623,
      "uggy": 7624,
      "ĠAlbert": 7625,
      "Ġcomforting": 7626,
      "screen": 7627,
      "ĠStella": 7628,
      "ĠBehind": 7629,
      "Ġ''": 7630,
      "ĠBruce": 7631,
      "ĠZee": 7632,
      "Ġgenerosity": 7633,
      "Ġscrub": 7634,
      "Ġprayers": 7635,
      "Ġwealth": 7636,
      "Ġenviron": 7637,
      "Ġemerged": 7638,
      "Ġobeyed": 7639,
      "Ġcubes": 7640,
      "Ġchipmunk": 7641,
      "Ġcustomers": 7642,
      "ĠExcitedly": 7643,
      "Ġmasterp": 7644,
      "ĠSkip": 7645,
      "Ġresponded": 7646,
      "Ġnibbled": 7647,
      "Ġcocoon": 7648,
      "Ġgesture": 7649,
      "ĠHalloween": 7650,
      "Ġenvironment": 7651,
      "Watch": 7652,
      "eedy": 7653,
      "rink": 7654,
      "ĠTaking": 7655,
      "Ġhen": 7656,
      "Ġmood": 7657,
      "Ġmaker": 7658,
      "Ġnatur": 7659,
      "oration": 7660,
      "Ġinter": 7661,
      "Ġsheets": 7662,
      "lyn": 7663,
      "ĠAna": 7664,
      "ĠJason": 7665,
      "icate": 7666,
      "ĠWelcome": 7667,
      "Ġbride": 7668,
      "Ġdecl": 7669,
      "Ġchanges": 7670,
      "Ġsunscreen": 7671,
      "Ġfocus": 7672,
      "Ġbrains": 7673,
      "Ġdonkey": 7674,
      "Ġsurprising": 7675,
      "acles": 7676,
      "ĠSpeedy": 7677,
      "Ġmovements": 7678,
      "Ġmarve": 7679,
      "ĠFlora": 7680,
      "Ġvisits": 7681,
      "Ġgrows": 7682,
      "Ġcollap": 7683,
      "Ġafar": 7684,
      "Ġbusiness": 7685,
      "Ġstorms": 7686,
      "Ġpinching": 7687,
      "Ġdigs": 7688,
      "Ġawful": 7689,
      "Ġunlo": 7690,
      "Ġshovels": 7691,
      "Ġconfidence": 7692,
      "Ġburying": 7693,
      "Quick": 7694,
      "ĠAnother": 7695,
      "Ġpeeled": 7696,
      "Ġencouragement": 7697,
      "Ġpaddling": 7698,
      "ĠJonny": 7699,
      "Ġforgiving": 7700,
      "intment": 7701,
      "Ġglittering": 7702,
      "Always": 7703,
      "Ġtype": 7704,
      "Ġwrinkled": 7705,
      "ĠFeeling": 7706,
      "Ġankle": 7707,
      "Ġlaptop": 7708,
      "Every": 7709,
      "So": 7710,
      "Surprise": 7711,
      "ae": 7712,
      "dress": 7713,
      "oc": 7714,
      "ps": 7715,
      "we": 7716,
      "worm": 7717,
      "Ġting": 7718,
      "Ġwakes": 7719,
      "rect": 7720,
      "Ġgroom": 7721,
      "anish": 7722,
      "immered": 7723,
      "ĠLooking": 7724,
      "Ġform": 7725,
      "elie": 7726,
      "rying": 7727,
      "Ġnodding": 7728,
      "Ġwhoever": 7729,
      "Ġdecisions": 7730,
      "Ġflick": 7731,
      "Ġflip": 7732,
      "ĠDory": 7733,
      "ĠSofia": 7734,
      "Ġwaters": 7735,
      "ÅĵA": 7736,
      "ipes": 7737,
      "Ġforgives": 7738,
      "issa": 7739,
      "Ġbits": 7740,
      "ĠFinny": 7741,
      "Ġhairdress": 7742,
      "boards": 7743,
      "Ġlessons": 7744,
      "Ġfloors": 7745,
      "Ġtighter": 7746,
      "Ġcompared": 7747,
      "Ġcupcake": 7748,
      "Ġjobs": 7749,
      "Ġcaw": 7750,
      "Ġtroubles": 7751,
      "Ġpresented": 7752,
      "Ġmattered": 7753,
      "Ġrecorder": 7754,
      "Ġprick": 7755,
      "ĠFreddie": 7756,
      "Ġsweep": 7757,
      "ĠSnowman": 7758,
      "Ġpandas": 7759,
      "Ġtires": 7760,
      "Ġrepeating": 7761,
      "Ġspells": 7762,
      "Ġlipstick": 7763,
      "Ġlanguages": 7764,
      "Ġbothering": 7765,
      "Ġsnaps": 7766,
      "Ġleapt": 7767,
      "ĠLibby": 7768,
      "Ġbruises": 7769,
      "Ġcorrect": 7770,
      "Ġnearest": 7771,
      "Ġsadder": 7772,
      "Ġthorns": 7773,
      "ĠStartled": 7774,
      "Ġconflict": 7775,
      "Ġtransf": 7776,
      "Ġgerms": 7777,
      "Ġnatural": 7778,
      "Ġhairdresser": 7779,
      "Boys": 7780,
      "lt": 7781,
      "line": 7782,
      "pes": 7783,
      "what": 7784,
      "Ġsill": 7785,
      "Ġsigning": 7786,
      "Ġtossed": 7787,
      "Ġbou": 7788,
      "ouched": 7789,
      "Ġdump": 7790,
      "Ġpins": 7791,
      "ider": 7792,
      "ĠSummer": 7793,
      "ats": 7794,
      "lets": 7795,
      "Ġsteth": 7796,
      "Ġshall": 7797,
      "Ġrely": 7798,
      "Ġloses": 7799,
      "ĠgirlÃ¢": 7800,
      "Ġclues": 7801,
      "Ġalthough": 7802,
      "Ġscent": 7803,
      "Ġscores": 7804,
      "âĤ¬,": 7805,
      "ĠFort": 7806,
      "Ġpose": 7807,
      "Ġexploration": 7808,
      "ÅĵMaybe": 7809,
      "ÅĵSee": 7810,
      "Ġwinding": 7811,
      "acle": 7812,
      "Ġclosing": 7813,
      "ĠRuth": 7814,
      "Ġleaking": 7815,
      "Ġcracks": 7816,
      "Ġparted": 7817,
      "Ġdripping": 7818,
      "Ġsnowy": 7819,
      "ĠGracie": 7820,
      "Ġdesigning": 7821,
      "Ġsurv": 7822,
      "ĠStar": 7823,
      "Ġself": 7824,
      "Ġadds": 7825,
      "Ġjogger": 7826,
      "Ġhamster": 7827,
      "Ġfrowns": 7828,
      "Ġcombed": 7829,
      "Ġtaped": 7830,
      "Ġcomputers": 7831,
      "Ġwindowsill": 7832,
      "Ġunpacking": 7833,
      "Ġhooks": 7834,
      "Ġtearing": 7835,
      "Ġobserving": 7836,
      "Ġexplains": 7837,
      "Ġapplause": 7838,
      "Ġluckily": 7839,
      "Ġburger": 7840,
      "Ġfreezing": 7841,
      "Ġpurr": 7842,
      "ĠVroom": 7843,
      "Ġspits": 7844,
      "Ġoutfits": 7845,
      "Ġseagulls": 7846,
      "Ġtextures": 7847,
      "ĠAuntie": 7848,
      "ĠElsie": 7849,
      "Ġcottage": 7850,
      "Ġinstruments": 7851,
      "ĠQuackers": 7852,
      "Ġexploded": 7853,
      "Ġbouqu": 7854,
      "Ġstethos": 7855,
      "Bang": 7856,
      "Get": 7857,
      "Pl": 7858,
      "belt": 7859,
      "bank": 7860,
      "baby": 7861,
      "jack": 7862,
      "ker": 7863,
      "Ġcongratul": 7864,
      "inging": 7865,
      "Ġgall": 7866,
      "ĠLenny": 7867,
      "Ġyel": 7868,
      "Ġrowed": 7869,
      "ĠBuggy": 7870,
      "Ġlies": 7871,
      "Ġshallow": 7872,
      "Ġshorter": 7873,
      "ĠAr": 7874,
      "ĠAng": 7875,
      "ĠJasm": 7876,
      "Ġscri": 7877,
      "Ġfailed": 7878,
      "ĠYouÃ¢": 7879,
      "Ġcarries": 7880,
      "ĠDe": 7881,
      "ĠSamant": 7882,
      "Ġcares": 7883,
      "bbling": 7884,
      "anda": 7885,
      "Ġstrum": 7886,
      "Ġsnapping": 7887,
      "aste": 7888,
      "ÅĵThe": 7889,
      "ÅĵWho": 7890,
      "ĠPen": 7891,
      "bee": 7892,
      "LetÃ¢": 7893,
      "Ġcompete": 7894,
      "Ġprod": 7895,
      "ĠTwinkle": 7896,
      "Ġgiggles": 7897,
      "Ġsprays": 7898,
      "Ġrobots": 7899,
      "Ġstretches": 7900,
      "Ġclassmates": 7901,
      "Ġwiser": 7902,
      "Ġapologised": 7903,
      "Ġscarecrow": 7904,
      "Ġbeetles": 7905,
      "Ġmember": 7906,
      "Ġerase": 7907,
      "Ġstamped": 7908,
      "Ġscooters": 7909,
      "ĠPatches": 7910,
      "Ġfilms": 7911,
      "Ġbeeped": 7912,
      "Ġtubes": 7913,
      "Ġtraveling": 7914,
      "Ġlumberjack": 7915,
      "Ġbothered": 7916,
      "Ġsimply": 7917,
      "ĠMegan": 7918,
      "Ġrepeats": 7919,
      "ĠPrince": 7920,
      "Ġsirens": 7921,
      "ĠKevin": 7922,
      "ĠHootie": 7923,
      "Ġsweaty": 7924,
      "Ġcotton": 7925,
      "Ġastronauts": 7926,
      "Ġaisle": 7927,
      "Ġmasterpiece": 7928,
      "Ġdeclared": 7929,
      "ĠFortunately": 7930,
      "Ġbouquet": 7931,
      "ĠJasmine": 7932,
      "ĠSamantha": 7933,
      "An": 7934,
      "For": 7935,
      "Jim": 7936,
      "Mr": 7937,
      "emy": 7938,
      "eens": 7939,
      "ibbit": 7940,
      "val": 7941,
      "well": 7942,
      "Â¦": 7943,
      "Ġactor": 7944,
      "Ġsipped": 7945,
      "Ġbound": 7946,
      "ĠTime": 7947,
      "ĠTry": 7948,
      "ĠTurt": 7949,
      "Ġdip": 7950,
      "erk": 7951,
      "ilities": 7952,
      "ĠSay": 7953,
      "ĠHoney": 7954,
      "rick": 7955,
      "Ġforts": 7956,
      "Ġshin": 7957,
      "ĠAgain": 7958,
      "ument": 7959,
      "âĤ¬Â¦": 7960,
      "ĠDuck": 7961,
      "anted": 7962,
      "Ġqueens": 7963,
      "Ġenemy": 7964,
      "Ġjoked": 7965,
      "Ġjoins": 7966,
      "ortun": 7967,
      "ÅĵGood": 7968,
      "ĠPaw": 7969,
      "Ġstored": 7970,
      "ĠRay": 7971,
      "Ġbrightest": 7972,
      "Ġsquir": 7973,
      "Ġsquished": 7974,
      "Ġcrouched": 7975,
      "Ġpapa": 7976,
      "Ġtasting": 7977,
      "Ġcompan": 7978,
      "Ġcafe": 7979,
      "Ġbuses": 7980,
      "Ġwhistles": 7981,
      "Ġpurpose": 7982,
      "Ġbounces": 7983,
      "barrow": 7984,
      "Ġseatbelt": 7985,
      "ĠGold": 7986,
      "Ġpizzas": 7987,
      "Ġwheelbarrow": 7988,
      "Ġrelaxing": 7989,
      "Ġhunting": 7990,
      "Ġaware": 7991,
      "Ġcroaked": 7992,
      "Ġhoops": 7993,
      "Ġgrandd": 7994,
      "Ġdestroying": 7995,
      "Ġbracelets": 7996,
      "Ġcrocodiles": 7997,
      "ĠPeep": 7998,
      "Ġdisturbing": 7999
    },
    "merges": [
      [
        "h",
        "e"
      ],
      [
        "Ġ",
        "t"
      ],
      [
        "Ġ",
        "a"
      ],
      [
        "Ġ",
        "s"
      ],
      [
        "Ġ",
        "w"
      ],
      [
        "n",
        "d"
      ],
      [
        "Ġt",
        "he"
      ],
      [
        "e",
        "d"
      ],
      [
        "Ġa",
        "nd"
      ],
      [
        "Ġt",
        "o"
      ],
      [
        "Ġ",
        "b"
      ],
      [
        "i",
        "n"
      ],
      [
        "Ġ",
        "h"
      ],
      [
        "Ġw",
        "a"
      ],
      [
        "r",
        "e"
      ],
      [
        "Ġ",
        "f"
      ],
      [
        "o",
        "u"
      ],
      [
        "i",
        "t"
      ],
      [
        "Ġ",
        "T"
      ],
      [
        "Ġ",
        "l"
      ],
      [
        "Ġ",
        "c"
      ],
      [
        "Ġ",
        "d"
      ],
      [
        "e",
        "r"
      ],
      [
        "Ġ",
        "he"
      ],
      [
        "Ġ",
        "m"
      ],
      [
        "Ġ",
        "p"
      ],
      [
        "Ġwa",
        "s"
      ],
      [
        "o",
        "m"
      ],
      [
        "Ġ",
        "o"
      ],
      [
        "a",
        "y"
      ],
      [
        "ĠT",
        "he"
      ],
      [
        "a",
        "r"
      ],
      [
        "i",
        "s"
      ],
      [
        "in",
        "g"
      ],
      [
        "i",
        "l"
      ],
      [
        "Ġ",
        "g"
      ],
      [
        "i",
        "d"
      ],
      [
        "Ġ",
        "S"
      ],
      [
        "a",
        "t"
      ],
      [
        "e",
        "n"
      ],
      [
        "Ġ",
        "n"
      ],
      [
        "Ġs",
        "a"
      ],
      [
        "Ġh",
        "a"
      ],
      [
        "a",
        "n"
      ],
      [
        "i",
        "m"
      ],
      [
        "o",
        "r"
      ],
      [
        "o",
        "n"
      ],
      [
        "Ġ",
        "it"
      ],
      [
        "Ġ",
        "H"
      ],
      [
        "Ġt",
        "h"
      ],
      [
        "l",
        "l"
      ],
      [
        "l",
        "e"
      ],
      [
        "Ġ",
        "\""
      ],
      [
        "Ġhe",
        "r"
      ],
      [
        "ĠS",
        "he"
      ],
      [
        "o",
        "t"
      ],
      [
        "e",
        "t"
      ],
      [
        "i",
        "r"
      ],
      [
        "ĠH",
        "e"
      ],
      [
        "ĠThe",
        "y"
      ],
      [
        "e",
        "s"
      ],
      [
        "Ġ",
        "in"
      ],
      [
        "v",
        "er"
      ],
      [
        "u",
        "t"
      ],
      [
        "o",
        "w"
      ],
      [
        "Ġ",
        "L"
      ],
      [
        "c",
        "k"
      ],
      [
        "Ġ",
        "e"
      ],
      [
        "Ġ",
        "u"
      ],
      [
        "l",
        "d"
      ],
      [
        "il",
        "y"
      ],
      [
        "Ġ",
        "y"
      ],
      [
        "o",
        "o"
      ],
      [
        "Ġsa",
        "id"
      ],
      [
        "i",
        "g"
      ],
      [
        "Ġ",
        "r"
      ],
      [
        "a",
        "m"
      ],
      [
        "Ġb",
        "e"
      ],
      [
        "Ġs",
        "t"
      ],
      [
        "Ġ",
        "I"
      ],
      [
        "c",
        "e"
      ],
      [
        "Ġs",
        "he"
      ],
      [
        "k",
        "e"
      ],
      [
        "p",
        "p"
      ],
      [
        "it",
        "h"
      ],
      [
        "v",
        "e"
      ],
      [
        "Ġw",
        "ith"
      ],
      [
        "Ġ",
        "O"
      ],
      [
        "ĠL",
        "ily"
      ],
      [
        "ĠO",
        "n"
      ],
      [
        "Ġo",
        "n"
      ],
      [
        "Ġo",
        "f"
      ],
      [
        "r",
        "i"
      ],
      [
        "k",
        "ed"
      ],
      [
        "Ġh",
        "is"
      ],
      [
        "Ġy",
        "ou"
      ],
      [
        "Ġp",
        "l"
      ],
      [
        "Ġs",
        "o"
      ],
      [
        "n",
        "t"
      ],
      [
        "ver",
        "y"
      ],
      [
        "a",
        "d"
      ],
      [
        "Ġ",
        "B"
      ],
      [
        "Ġd",
        "ay"
      ],
      [
        "Ġth",
        "at"
      ],
      [
        "Ġu",
        "p"
      ],
      [
        "Ġpl",
        "ay"
      ],
      [
        "Ġha",
        "d"
      ],
      [
        "Ġthe",
        "y"
      ],
      [
        "s",
        "t"
      ],
      [
        "Ġw",
        "e"
      ],
      [
        "Ġm",
        "om"
      ],
      [
        "Ġf",
        "or"
      ],
      [
        "e",
        "l"
      ],
      [
        "m",
        "y"
      ],
      [
        "ou",
        "ld"
      ],
      [
        "u",
        "n"
      ],
      [
        "Ġ",
        "M"
      ],
      [
        "'",
        "s"
      ],
      [
        "Ġl",
        "i"
      ],
      [
        "Ġha",
        "pp"
      ],
      [
        "c",
        "h"
      ],
      [
        "en",
        "t"
      ],
      [
        "it",
        "t"
      ],
      [
        "Ġwa",
        "nt"
      ],
      [
        "he",
        "r"
      ],
      [
        "Ġs",
        "h"
      ],
      [
        "ou",
        "t"
      ],
      [
        "Ġd",
        "o"
      ],
      [
        "Ġn",
        "ot"
      ],
      [
        "Ġ",
        "very"
      ],
      [
        "om",
        "e"
      ],
      [
        "l",
        "y"
      ],
      [
        "a",
        "ll"
      ],
      [
        "ou",
        "nd"
      ],
      [
        "e",
        "nd"
      ],
      [
        "itt",
        "le"
      ],
      [
        "im",
        "e"
      ],
      [
        "s",
        "e"
      ],
      [
        "Ġw",
        "h"
      ],
      [
        "Ġ",
        "k"
      ],
      [
        "Ġl",
        "ittle"
      ],
      [
        "Ġt",
        "ime"
      ],
      [
        "Ġthe",
        "re"
      ],
      [
        "a",
        "l"
      ],
      [
        "Ġn",
        "e"
      ],
      [
        "h",
        "t"
      ],
      [
        "Ġ",
        "A"
      ],
      [
        "Ġhapp",
        "y"
      ],
      [
        "Ġb",
        "ig"
      ],
      [
        "Ġ",
        "re"
      ],
      [
        "ĠI",
        "t"
      ],
      [
        "Ġ",
        "is"
      ],
      [
        "Ġs",
        "m"
      ],
      [
        "Ġb",
        "ut"
      ],
      [
        "r",
        "a"
      ],
      [
        "Ġsa",
        "w"
      ],
      [
        "ri",
        "end"
      ],
      [
        "Ġf",
        "riend"
      ],
      [
        "Ġa",
        "n"
      ],
      [
        "r",
        "y"
      ],
      [
        "Ġa",
        "s"
      ],
      [
        "a",
        "ck"
      ],
      [
        ".",
        "\""
      ],
      [
        "ĠT",
        "im"
      ],
      [
        "ĠOn",
        "e"
      ],
      [
        "id",
        "e"
      ],
      [
        "a",
        "ke"
      ],
      [
        "'",
        "t"
      ],
      [
        "v",
        "ed"
      ],
      [
        "t",
        "er"
      ],
      [
        "u",
        "g"
      ],
      [
        "ĠOn",
        "ce"
      ],
      [
        "Ġl",
        "o"
      ],
      [
        "Ġl",
        "oo"
      ],
      [
        "Ġwe",
        "re"
      ],
      [
        "o",
        "re"
      ],
      [
        "!",
        "\""
      ],
      [
        "e",
        "c"
      ],
      [
        "Ġh",
        "im"
      ],
      [
        "Ġb",
        "o"
      ],
      [
        "Ġto",
        "o"
      ],
      [
        "Ġ",
        "J"
      ],
      [
        "Ġs",
        "e"
      ],
      [
        "Ġg",
        "o"
      ],
      [
        "ir",
        "l"
      ],
      [
        "Ġup",
        "on"
      ],
      [
        "Ġwant",
        "ed"
      ],
      [
        "Ġ",
        "j"
      ],
      [
        "ar",
        "d"
      ],
      [
        "Ġg",
        "irl"
      ],
      [
        "il",
        "l"
      ],
      [
        "Ġa",
        "re"
      ],
      [
        "Ġthe",
        "m"
      ],
      [
        "Ġ",
        "out"
      ],
      [
        "Ġa",
        "t"
      ],
      [
        "Ġthe",
        "ir"
      ],
      [
        "i",
        "nd"
      ],
      [
        "Ġs",
        "p"
      ],
      [
        "w",
        "ay"
      ],
      [
        "f",
        "u"
      ],
      [
        "ĠT",
        "om"
      ],
      [
        "Ġd",
        "id"
      ],
      [
        "u",
        "r"
      ],
      [
        "Ġc",
        "ould"
      ],
      [
        "ĠB",
        "en"
      ],
      [
        "he",
        "n"
      ],
      [
        "Ġsm",
        "il"
      ],
      [
        "a",
        "in"
      ],
      [
        "Ġha",
        "ve"
      ],
      [
        "ar",
        "t"
      ],
      [
        "Ġw",
        "ent"
      ],
      [
        "he",
        "d"
      ],
      [
        "Ġe",
        "x"
      ],
      [
        "r",
        "om"
      ],
      [
        "i",
        "c"
      ],
      [
        "r",
        "ound"
      ],
      [
        "l",
        "p"
      ],
      [
        "Ġ",
        "W"
      ],
      [
        "Ġn",
        "am"
      ],
      [
        "Ġc",
        "an"
      ],
      [
        "fu",
        "l"
      ],
      [
        "Ġfriend",
        "s"
      ],
      [
        "h",
        "ing"
      ],
      [
        "Ġhe",
        "lp"
      ],
      [
        "ĠB",
        "ut"
      ],
      [
        "Ġk",
        "n"
      ],
      [
        "Ġa",
        "ll"
      ],
      [
        "oo",
        "d"
      ],
      [
        "ig",
        "ht"
      ],
      [
        "?",
        "\""
      ],
      [
        "ĠTim",
        "my"
      ],
      [
        "u",
        "m"
      ],
      [
        "ar",
        "k"
      ],
      [
        "on",
        "e"
      ],
      [
        "Ġb",
        "ack"
      ],
      [
        "Ġf",
        "un"
      ],
      [
        "Ġc",
        "l"
      ],
      [
        "a",
        "re"
      ],
      [
        "Ġs",
        "ay"
      ],
      [
        "Ġl",
        "e"
      ],
      [
        "Y",
        "ou"
      ],
      [
        "Ġnam",
        "ed"
      ],
      [
        "Ġn",
        "o"
      ],
      [
        "Ġlo",
        "ved"
      ],
      [
        "o",
        "p"
      ],
      [
        "el",
        "t"
      ],
      [
        "ou",
        "g"
      ],
      [
        "Ġa",
        "l"
      ],
      [
        "Ġs",
        "c"
      ],
      [
        "s",
        "ide"
      ],
      [
        "Ġf",
        "elt"
      ],
      [
        "Ġto",
        "y"
      ],
      [
        "i",
        "ck"
      ],
      [
        "Ġsmil",
        "ed"
      ],
      [
        "Ġm",
        "an"
      ],
      [
        "Ġf",
        "e"
      ],
      [
        "Ġas",
        "ked"
      ],
      [
        "Ġse",
        "e"
      ],
      [
        "am",
        "e"
      ],
      [
        "Ġloo",
        "ked"
      ],
      [
        "Ġli",
        "ke"
      ],
      [
        "Ġa",
        "round"
      ],
      [
        "Ġs",
        "ome"
      ],
      [
        "om",
        "et"
      ],
      [
        "u",
        "re"
      ],
      [
        "Ġr",
        "o"
      ],
      [
        "Ġbo",
        "y"
      ],
      [
        "Ġb",
        "r"
      ],
      [
        "g",
        "et"
      ],
      [
        "Ġw",
        "ould"
      ],
      [
        "Ġm",
        "e"
      ],
      [
        "Ġb",
        "ir"
      ],
      [
        "on",
        "g"
      ],
      [
        "i",
        "ce"
      ],
      [
        "Ġst",
        "art"
      ],
      [
        "s",
        "s"
      ],
      [
        "Ġs",
        "omet"
      ],
      [
        "Ġbir",
        "d"
      ],
      [
        "ing",
        "s"
      ],
      [
        "Ġf",
        "a"
      ],
      [
        "Ġw",
        "or"
      ],
      [
        "Ġa",
        "g"
      ],
      [
        "ad",
        "e"
      ],
      [
        "Ġm",
        "ake"
      ],
      [
        "Ġwh",
        "at"
      ],
      [
        "Ġt",
        "re"
      ],
      [
        "d",
        "d"
      ],
      [
        "k",
        "ing"
      ],
      [
        "get",
        "her"
      ],
      [
        "ow",
        "n"
      ],
      [
        "Ġa",
        "way"
      ],
      [
        "Ġr",
        "an"
      ],
      [
        "a",
        "g"
      ],
      [
        "Ġstart",
        "ed"
      ],
      [
        ",",
        "\""
      ],
      [
        "Ġ",
        "You"
      ],
      [
        "ou",
        "d"
      ],
      [
        "Ġm",
        "ade"
      ],
      [
        "ar",
        "ed"
      ],
      [
        "ĠM",
        "om"
      ],
      [
        "i",
        "e"
      ],
      [
        "Ġto",
        "gether"
      ],
      [
        "Ã",
        "¢"
      ],
      [
        "â",
        "Ĥ"
      ],
      [
        "âĤ",
        "¬"
      ],
      [
        "Ġc",
        "o"
      ],
      [
        "Ġsay",
        "s"
      ],
      [
        "Ġp",
        "ark"
      ],
      [
        "Ġsomet",
        "hing"
      ],
      [
        "i",
        "f"
      ],
      [
        "Ġc",
        "ar"
      ],
      [
        "t",
        "her"
      ],
      [
        "it",
        "ed"
      ],
      [
        "Ġsa",
        "d"
      ],
      [
        "Ġp",
        "ut"
      ],
      [
        "Ġne",
        "w"
      ],
      [
        "Ġo",
        "ther"
      ],
      [
        "Ġ",
        "E"
      ],
      [
        "Ġp",
        "r"
      ],
      [
        "Ġ",
        "F"
      ],
      [
        "b",
        "le"
      ],
      [
        "Ġag",
        "ain"
      ],
      [
        "Ġf",
        "rom"
      ],
      [
        "Ġex",
        "c"
      ],
      [
        "Ġh",
        "ug"
      ],
      [
        "Ġm",
        "u"
      ],
      [
        "Ġh",
        "ome"
      ],
      [
        "Ġl",
        "a"
      ],
      [
        "e",
        "ll"
      ],
      [
        "Ġw",
        "hen"
      ],
      [
        "Ġwh",
        "o"
      ],
      [
        "oo",
        "k"
      ],
      [
        "Ġg",
        "ood"
      ],
      [
        "es",
        "t"
      ],
      [
        "ri",
        "ed"
      ],
      [
        "Ġf",
        "ound"
      ],
      [
        "Ġthe",
        "n"
      ],
      [
        "a",
        "ch"
      ],
      [
        "e",
        "p"
      ],
      [
        "Ġd",
        "ec"
      ],
      [
        "Ġf",
        "l"
      ],
      [
        "pp",
        "ed"
      ],
      [
        "Ġc",
        "h"
      ],
      [
        "a",
        "s"
      ],
      [
        "Ġplay",
        "ing"
      ],
      [
        "oug",
        "ht"
      ],
      [
        "Ġwa",
        "l"
      ],
      [
        "Ġg",
        "et"
      ],
      [
        "q",
        "u"
      ],
      [
        "all",
        "y"
      ],
      [
        "h",
        "at"
      ],
      [
        "Ġth",
        "ings"
      ],
      [
        "Ġs",
        "w"
      ],
      [
        "u",
        "ck"
      ],
      [
        "Ġg",
        "ot"
      ],
      [
        "p",
        "l"
      ],
      [
        "ou",
        "s"
      ],
      [
        "Ġli",
        "ked"
      ],
      [
        "n",
        "n"
      ],
      [
        "Ġe",
        "very"
      ],
      [
        "Ġ",
        "D"
      ],
      [
        "Ġdec",
        "id"
      ],
      [
        "Ġexc",
        "ited"
      ],
      [
        "a",
        "ve"
      ],
      [
        "ĠS",
        "u"
      ],
      [
        "Ġdecid",
        "ed"
      ],
      [
        "r",
        "o"
      ],
      [
        "Ġc",
        "ame"
      ],
      [
        "ĠS",
        "am"
      ],
      [
        "a",
        "x"
      ],
      [
        "Ġb",
        "l"
      ],
      [
        "Ġbe",
        "c"
      ],
      [
        "Ġd",
        "own"
      ],
      [
        "Ġyou",
        "r"
      ],
      [
        "Ġf",
        "ind"
      ],
      [
        "Ġc",
        "are"
      ],
      [
        "Ġdo",
        "g"
      ],
      [
        "u",
        "st"
      ],
      [
        "ĠA",
        "nn"
      ],
      [
        "Ġsc",
        "ared"
      ],
      [
        "Ġon",
        "e"
      ],
      [
        "Ġfe",
        "el"
      ],
      [
        "Ġ",
        "v"
      ],
      [
        "Ġth",
        "an"
      ],
      [
        "is",
        "t"
      ],
      [
        "ou",
        "se"
      ],
      [
        "n",
        "y"
      ],
      [
        "Ġd",
        "ad"
      ],
      [
        "a",
        "p"
      ],
      [
        "Ġa",
        "b"
      ],
      [
        "ar",
        "n"
      ],
      [
        "ar",
        "a"
      ],
      [
        "way",
        "s"
      ],
      [
        "Ġdid",
        "n"
      ],
      [
        "ĠM",
        "ax"
      ],
      [
        "Ġg",
        "ra"
      ],
      [
        "Ġm",
        "y"
      ],
      [
        "Ġal",
        "ways"
      ],
      [
        "an",
        "t"
      ],
      [
        "Ġtoo",
        "k"
      ],
      [
        "er",
        "s"
      ],
      [
        "Ġ",
        "ke"
      ],
      [
        "Ġmom",
        "my"
      ],
      [
        "es",
        "s"
      ],
      [
        "ĠAnn",
        "a"
      ],
      [
        "f",
        "e"
      ],
      [
        "Ġab",
        "out"
      ],
      [
        "ou",
        "r"
      ],
      [
        "Ġl",
        "ot"
      ],
      [
        "Ġtoy",
        "s"
      ],
      [
        "Ġtre",
        "e"
      ],
      [
        "Ġp",
        "o"
      ],
      [
        "Ġkn",
        "e"
      ],
      [
        "Ġb",
        "all"
      ],
      [
        "Ġloo",
        "k"
      ],
      [
        "Ġw",
        "ill"
      ],
      [
        "nd",
        "er"
      ],
      [
        "Ġout",
        "side"
      ],
      [
        "ĠS",
        "ara"
      ],
      [
        "it",
        "e"
      ],
      [
        "ĠS",
        "o"
      ],
      [
        "Ġth",
        "ought"
      ],
      [
        "ec",
        "i"
      ],
      [
        "Ġb",
        "u"
      ],
      [
        "en",
        "ed"
      ],
      [
        "Ġt",
        "a"
      ],
      [
        "Ġle",
        "arn"
      ],
      [
        "b",
        "b"
      ],
      [
        "is",
        "e"
      ],
      [
        "c",
        "hed"
      ],
      [
        "ĠW",
        "hen"
      ],
      [
        "Ġm",
        "ore"
      ],
      [
        "Ġp",
        "re"
      ],
      [
        "Ġkn",
        "ow"
      ],
      [
        "Ġh",
        "o"
      ],
      [
        "Ġin",
        "t"
      ],
      [
        "Ġp",
        "u"
      ],
      [
        "g",
        "ed"
      ],
      [
        "eci",
        "al"
      ],
      [
        "Ġsp",
        "ecial"
      ],
      [
        "Ġo",
        "ld"
      ],
      [
        "Ġt",
        "ake"
      ],
      [
        "Ġs",
        "or"
      ],
      [
        "ĠH",
        "er"
      ],
      [
        "Ġla",
        "ug"
      ],
      [
        "Ġp",
        "e"
      ],
      [
        "Ġkne",
        "w"
      ],
      [
        "a",
        "u"
      ],
      [
        "i",
        "ve"
      ],
      [
        "Ġc",
        "at"
      ],
      [
        "m",
        "a"
      ],
      [
        "f",
        "ter"
      ],
      [
        "Ġh",
        "ow"
      ],
      [
        "Ġan",
        "y"
      ],
      [
        "dd",
        "en"
      ],
      [
        "Ġsh",
        "ow"
      ],
      [
        "ĠJ",
        "o"
      ],
      [
        "Ġt",
        "r"
      ],
      [
        "Ġmu",
        "ch"
      ],
      [
        "i",
        "a"
      ],
      [
        "dden",
        "ly"
      ],
      [
        "ĠE",
        "very"
      ],
      [
        "Ġsor",
        "ry"
      ],
      [
        "a",
        "nd"
      ],
      [
        "Ġs",
        "l"
      ],
      [
        "in",
        "k"
      ],
      [
        "is",
        "h"
      ],
      [
        "Ġr",
        "un"
      ],
      [
        "Ġh",
        "ouse"
      ],
      [
        "Ġt",
        "w"
      ],
      [
        "ĠJ",
        "ack"
      ],
      [
        "v",
        "en"
      ],
      [
        "Ġto",
        "ld"
      ],
      [
        "Ġo",
        "r"
      ],
      [
        "Ġs",
        "k"
      ],
      [
        "Ġo",
        "p"
      ],
      [
        "Ġha",
        "nd"
      ],
      [
        "Ġs",
        "un"
      ],
      [
        "Ġin",
        "side"
      ],
      [
        "Ġg",
        "ave"
      ],
      [
        "Ġt",
        "ried"
      ],
      [
        "Ġm",
        "o"
      ],
      [
        "Ġcl",
        "o"
      ],
      [
        "Ġint",
        "o"
      ],
      [
        "Ġwa",
        "ter"
      ],
      [
        "Ġpr",
        "oud"
      ],
      [
        "an",
        "k"
      ],
      [
        "Ġcould",
        "n"
      ],
      [
        "Ġo",
        "ver"
      ],
      [
        "Ġ",
        "qu"
      ],
      [
        "au",
        "se"
      ],
      [
        "at",
        "e"
      ],
      [
        "Ġne",
        "ver"
      ],
      [
        "um",
        "p"
      ],
      [
        "he",
        "re"
      ],
      [
        "t",
        "y"
      ],
      [
        "ot",
        "her"
      ],
      [
        "Ġ",
        "en"
      ],
      [
        "Ġe",
        "at"
      ],
      [
        "Ġ",
        "if"
      ],
      [
        "a",
        "ce"
      ],
      [
        "Ġro",
        "om"
      ],
      [
        "Ġplay",
        "ed"
      ],
      [
        "et",
        "ter"
      ],
      [
        "Ġhe",
        "ard"
      ],
      [
        "g",
        "e"
      ],
      [
        "Ġex",
        "pl"
      ],
      [
        "ĠF",
        "rom"
      ],
      [
        "Ġe",
        "ach"
      ],
      [
        "Ġp",
        "ick"
      ],
      [
        "Ġpre",
        "t"
      ],
      [
        "i",
        "on"
      ],
      [
        "Ġth",
        "is"
      ],
      [
        "b",
        "y"
      ],
      [
        "ĠW",
        "e"
      ],
      [
        "d",
        "y"
      ],
      [
        "a",
        "k"
      ],
      [
        "Ġbec",
        "ause"
      ],
      [
        "ĠSu",
        "ddenly"
      ],
      [
        "Ġhug",
        "ged"
      ],
      [
        "Ġst",
        "r"
      ],
      [
        "Ġc",
        "om"
      ],
      [
        "Ġwa",
        "t"
      ],
      [
        "Ġg",
        "re"
      ],
      [
        "Ġbo",
        "x"
      ],
      [
        "ĠThe",
        "n"
      ],
      [
        "Ġj",
        "ust"
      ],
      [
        "Ġn",
        "ice"
      ],
      [
        "il",
        "e"
      ],
      [
        "ot",
        "h"
      ],
      [
        "u",
        "e"
      ],
      [
        "Ġne",
        "ed"
      ],
      [
        "ĠH",
        "is"
      ],
      [
        "i",
        "z"
      ],
      [
        "ĠM",
        "ia"
      ],
      [
        "Ġj",
        "o"
      ],
      [
        "Ġof",
        "f"
      ],
      [
        "ĠA",
        "nd"
      ],
      [
        "Ġman",
        "y"
      ],
      [
        "Ġl",
        "ong"
      ],
      [
        "Ġbe",
        "ar"
      ],
      [
        "Ġsm",
        "all"
      ],
      [
        "Ġf",
        "o"
      ],
      [
        "s",
        "ed"
      ],
      [
        "v",
        "ing"
      ],
      [
        "Ġs",
        "n"
      ],
      [
        "oug",
        "h"
      ],
      [
        "Ġlearn",
        "ed"
      ],
      [
        "'",
        "m"
      ],
      [
        "or",
        "t"
      ],
      [
        "in",
        "e"
      ],
      [
        "Ġu",
        "nt"
      ],
      [
        "u",
        "c"
      ],
      [
[...]
